, 204973
. 161693
und 75476
die 69095
sie 47715
das 46062
ich 45180
der 44195
ist 41589
es 39189
wir 37808
in 35532
zu 32555
&quot; 23517
ein 23358
eine 21398
von 21345
nicht 20993
dass 20470
den 17955
mit 16922
wie 16003
auf 15166
sich 13981
sind 13770
aber 13591
? 13541
: 13450
haben 13281
man 13139
für 13058
was 12901
wenn 12635
er 11671
als 11546
so 11206
an 11147
diese 11030
war 10996
um 10240
im 9685
also 9295
dem 8910
einen 8601
uns 8320
können 8221
hier 8122
werden 7601
hat 7463
aus 7414
oder 7322
des 7106
über 6992
auch 6755
kann 6692
einer 6637
sehr 6552
dann 6353
einem 6298
nur 6139
wird 6136
– 6056
gibt 5934
ihnen 5777
mich 5732
menschen 5630
sehen 5476
sein 5422
etwas 5132
dieser 5088
habe 5056
noch 5037
nach 4897
mir 4676
-- 4484
mehr 4319
alle 4303
vor 4273
bei 4228
welt 4177
meine 4070
nun 3977
ihre 3941
leben 3933
machen 3932
zum 3882
- 3823
wirklich 3795
weil 3791
wurde 3771
dies 3743
dieses 3721
da 3666
tun 3420
immer 3414
jetzt 3382
am 3362
wissen 3305
durch 3295
unsere 3289
ihr 3271
ver@@ 3236
hatte 3173
keine 3167
zeit 3146
leute 3085
viel 3031
-@@ 3018
sagte 2976
viele 2971
diesem 2918
du 2877
denn 2859
einfach 2858
zwei 2850
sagen 2837
dinge 2809
eines 2808
diesen 2793
waren 2783
alles 2767
bin 2696
müssen 2694
jahren 2662
andere 2605
art 2592
wo 2488
würde 2480
mein 2476
anderen 2460
damit 2423
er@@ 2419
an@@ 2405
vielleicht 2389
geht 2385
bis 2375
gut 2365
zur 2354
ge@@ 2328
mal 2327
selbst 2325
jahre 2207
ab@@ 2185
heute 2122
muss 2121
warum 2094
schon 2050
ja 2015
einige 2002
möchte 1992
geschichte 1990
aus@@ 1948
ein@@ 1948
tatsächlich 1943
ten 1939
be@@ 1937
all 1934
macht 1933
wieder 1924
gehen 1890
davon 1843
dort 1838
un@@ 1837
denken 1829
ganz 1816
lassen 1790
drei 1784
kinder 1781
genau 1776
&apos; 1761
hatten 1754
te 1751
auf@@ 1743
ihn 1719
paar 1711
jahr 1668
darüber 1667
könnte 1664
seine 1664
werde 1663
wollen 1640
kommen 1636
meiner 1614
wurden 1567
ob 1564
problem 1538
gab 1535
ihren 1528
weg 1516
gemacht 1509
teil 1501
ende 1501
geben 1493
beispiel 1491
! 1481
während 1473
frage 1472
jeder 1464
denke 1457
kein 1450
glaube 1444
finden 1428
kommt 1423
wäre 1411
natürlich 1411
doch 1410
unserer 1403
neue 1399
vor@@ 1399
dazu 1397
vom 1394
unser 1393
sogar 1384
; 1384
s 1373
über@@ 1357
nichts 1354
einmal 1351
weiß 1340
tag 1339
weiter 1334
stellen 1333
denen 1330
ohne 1329
arbeit 1325
gerade 1322
zwischen 1313
zeigen 1312
sondern 1304
dafür 1303
ihrer 1292
sieht 1286
würden 1283
passiert 1281
prozent 1274
erste 1270
nie 1268
vielen 1255
zurück 1254
land 1245
will 1225
verstehen 1221
unter 1220
millionen 1219
große 1211
ersten 1208
daran 1207
bild 1198
nehmen 1192
ganze 1191
konnte 1185
en@@ 1173
fragen 1172
etwa 1167
idee 1160
en 1154
bekommen 1149
ent@@ 1145
sagt 1137
sprechen 1136
arbeiten 1133
sollte 1131
ziemlich 1130
letzten 1119
ging 1112
dabei 1100
sollten 1099
meisten 1095
wollte 1086
meinem 1083
meinen 1083
geld 1081
kam 1081
bringen 1079
könnten 1077
frauen 1066
seite 1065
wichtig 1058
welche 1053
k@@ 1052
wasser 1049
sache 1047
sch@@ 1027
darauf 1006
daten 1004
technologie 1004
kleinen 1003
zusammen 1003
eigentlich 1001
ung 1000
danke 999
weniger 998
weise 995
besser 994
s@@ 992
dollar 991
gen 984
gesehen 978
system 975
kleine 950
menge 949
brauchen 946
vier 945
lernen 943
ganzen 941
dachte 938
glauben 937
bedeutet 936
ihm 931
jemand 931
großen 930
sten 918
zu@@ 915
nein 914
mann 904
raum 902
unseren 901
um@@ 901
jedes 886
versuchen 881
ihrem 879
gehirn 876
schauen 874
ins 871
10 857
fall 857
grund 854
frau 853
jeden 851
ab 851
gesagt 844
t 842
unter@@ 839
seit 837
ort 834
wer 828
t@@ 824
nutzen 821
zeigt 821
keinen 821
zukunft 819
essen 818
gute 816
ter 810
fast 809
... 805
a 801
spielen 799
indem 795
später 791
beim 787
ungefähr 787
fünf 786
erde 782
heraus 782
eigenen 779
funktioniert 778
person 776
schaffen 775
allen 774
seiner 771
gegen 770
hätte 770
kind 770
richtig 769
bauen 769
wahrscheinlich 764
20 764
halten 759
jede 755
mutter 754
probleme 754
pro 753
arten 750
wenig 749
erzählen 748
ungen 747
sicher 741
heißt 735
z@@ 734
los 732
ge 729
dank 728
ungs@@ 715
liche 714
konnten 713
oft 712
form 712
sah 711
liebe 710
helfen 710
lich 710
ische 709
schnell 708
bisschen 708
g@@ 701
lange 698
punkt 694
begann 694
de 693
schule 692
neuen 689
moment 688
möglich 688
stehen 687
genug 687
reden 685
okay 680
teilen 680
o@@ 680
buch 677
körper 677
i 676
nächsten 676
% 675
ideen 674
lang 674
ern 674
in@@ 673
erst 672
lichen 671
stadt 671
euch 670
überall 668
licht 667
eren 667
afrika 666
projekt 666
manchmal 663
gruppe 661
unserem 660
darum 658
re@@ 657
milliarden 655
seinen 653
e@@ 652
d@@ 650
ere 650
anders 650
al@@ 648
liegt 647
end 643
leuten 643
sagten 642
je 642
ch@@ 641
se@@ 640
hin 640
chen 639
gehört 638
sei 636
enden 635
computer 634
bevor 633
planeten 633
anderes 629
energie 629
kennen 627
hören 627
e 626
ok 624
machte 623
ischen 620
nennen 620
durch@@ 618
ste 614
mädchen 614
nach@@ 613
verändern 609
n@@ 607
entwickelt 607
ert 605
besonders 601
weit 600
steht 598
st 597
el@@ 597
tat 597
unternehmen 596
führen 596
deshalb 593
minuten 590
i@@ 589
seinem 587
wissenschaft 587
oben 586
usa 585
informationen 584
natur 584
familie 584
isch 584
antwort 583
bilder 582
m@@ 581
bereits 581
verschiedene 581
erreichen 575
namens 575
st@@ 575
benutzen 573
30 571
musste 569
de@@ 566
sprache 565
gar 565
gerne 565
a@@ 564
sechs 563
indien 563
geschichten 561
wert 560
recht 557
klar 556
gefühl 555
li@@ 554
lebens 554
haus 554
hin@@ 552
gleich 550
musik 549
new 548
dich 548
oh 546
darin 546
hätten 546
100 545
50 545
hand 545
braucht 544
lage 541
erkennen 541
niemand 538
spiel 536
einzige 536
di@@ 536
tes 535
augen 535
möglichkeit 533
design 531
b@@ 530
ma@@ 530
verhalten 528
treffen 527
p@@ 526
o 526
ar@@ 526
gesellschaft 526
f@@ 526
innerhalb 524
wegen 523
eins 523
gott 523
soll 522
besten 522
ro@@ 521
vater 520
bewegen 519
irgendwie 519
kopf 517
sage 516
ti@@ 516
m 515
r@@ 515
jedem 514
gebäude 514
stunden 514
vorstellen 513
internet 512
zellen 512
ändern 511
zusammen@@ 511
stellt 509
schreiben 508
zurück@@ 508
ger 508
stück 506
tiere 505
mit@@ 504
sachen 503
g 503
h@@ 499
bitte 498
gleiche 497
regierung 497
patienten 497
le@@ 496
erhalten 495
wollten 494
beiden 494
obwohl 492
schwer 492
länder 492
kindern 489
entwickeln 489
unglaublich 489
menschlichen 487
verschiedenen 486
film 486
gt 485
or@@ 484
alt 484
china 484
hoch 483
dir 481
einigen 481
bringt 480
beginnen 480
herum 480
daher 479
l@@ 479
kunst 479
setzen 478
bar 477
hoch@@ 476
damals 474
gern 473
ziehen 472
verwenden 472
sen 470
gleichen 470
überhaupt 470
erte 470
licher 468
verändert 467
männer 467
glück 466
führt 465
nächste 462
universum 461
fand 461
alen 460
angst 459
lesen 458
ko@@ 457
versucht 457
hause 456
gen@@ 454
kamen 454
la@@ 454
lässt 453
tut 453
kosten 453
aller 452
nämlich 451
eltern 450
u@@ 450
wohl 450
wirtschaft 449
am@@ 448
ausge@@ 448
getan 447
fähigkeit 447
falls 446
15 446
junge 446
unten 446
fahren 445
letzte 444
ei@@ 441
ken 440
groß 440
sinn 440
möglichkeiten 439
weitere 439
staaten 439
kurz 438
k 438
auto 437
stelle 436
bewegung 436
kultur 434
fühlen 434
hilfe 431
wort 431
kraft 431
her 428
menschliche 426
schön 426
entwicklung 426
zahlen 426
jedoch 425
stand 424
worden 424
lösung 423
her@@ 422
erten 421
nachdem 421
unterschied 420
allem 418
dessen 418
erfahrung 418
tragen 418
dingen 417
genommen 417
tage 417
teile 416
ra@@ 416
zer@@ 416
zwar 416
ie 415
betrachten 414
te@@ 414
eher 413
roboter 412
em 412
krebs 411
nimmt 410
mag 410
ted 409
eigene 409
au@@ 409
ben 408
lehrer 407
laufen 407
anfang 407
falsch 406
york 406
interessant 406
ziel 406
wahr 404
prozess 404
modell 404
2 403
muster 403
fliegen 402
meines 401
zweite 401
erinnern 401
wasser@@ 400
ger@@ 400
lösen 399
publikum 399
stellte 399
woche 398
jungen 398
fragte 398
neu 398
beste 397
deren 397
ri@@ 396
es@@ 395
kaufen 395
on 395
solche 394
se 394
mussten 394
kt 393
guten 393
ange@@ 393
schul@@ 392
grunde 392
sieben 392
genauso 391
y@@ 390
ä@@ 390
richtung 389
maschine 389
schließlich 388
thema 388
zahl 388
welches 388
bleiben 387
sollen 386
wissenschaftler 384
tieren 382
direkt 382
hinter 381
boden 381
namen 380
verbindung 380
sterben 379
danach 379
größte 378
video 377
hast 377
platz 377
nahm 376
bereich 376
struktur 376
anderer 375
neues 375
wären 374
alter 374
monate 374
auszu@@ 374
alten 374
autos 374
wochen 371
z 370
gedanken 370
lebens@@ 368
wusste 368
bildung 368
freunde 368
zuerst 367
zuvor 367
zen 366
formen 365
&#91; 365
manche 364
plötzlich 364
ale 363
&#93; 363
40 363
zehn 362
ur@@ 362
ter@@ 362
besteht 362
zi@@ 360
bau@@ 360
scheint 360
mache 358
ischer 356
luft 355
gebaut 355
reise 355
größe 355
sen@@ 354
beginnt 354
sehe 354
gefunden 354
s-@@ 352
ihres 352
ta@@ 352
technologien 352
b 351
gewesen 351
welt@@ 350
genannt 349
ten@@ 349
anzu@@ 349
theorie 349
suchen 348
völlig 348
material 348
möchten 347
draußen 346
funktionieren 346
aussehen 346
den@@ 346
ni@@ 345
men 345
gene 345
erschaffen 345
technik 344
bereit 344
bist 344
schritt 343
tages 343
l 343
legen 342
passieren 342
findet 342
geworden 342
hand@@ 342
fest 342
schwierig 341
krieg 341
sp@@ 341
ländern 341
kon@@ 340
1 340
reihe 340
markt 340
brachte 339
ne 339
anfangen 337
acht 337
jahrhundert 337
n 336
bücher 336
nachdenken 336
wachsen 336
be 336
me@@ 336
beide 336
niemals 335
sa@@ 335
aufgabe 334
erklären 334
on@@ 333
studenten 333
fanden 332
glücklich 331
amerika 331
stimme 330
morgen 330
unseres 330
miteinander 330
gemeinschaft 329
anzahl 329
en-@@ 329
jemals 329
forschung 329
bekommt 328
gingen 328
kleines 328
le 328
team 328
firma 328
nen 328
gruppen 327
daraus 327
liches 327
gegeben 326
grund@@ 326
gesch@@ 326
d 326
ka@@ 326
situation 324
karte 324
verwendet 323
tisch 323
as 323
schen 323
mensch 323
5 322
gezeigt 322
mi@@ 322
gelernt 321
krankheit 321
foto 321
schrieb 320
tatsache 320
at@@ 319
eln 319
egal 318
größten 318
geboren 317
wahrheit 317
wei@@ 317
bekannt 317
ck@@ 316
mittel 316
gesundheit 316
gerät 315
leicht 315
schlecht 315
kontrolle 314
oberfläche 314
richtige 313
weg@@ 313
ens 313
si@@ 313
stimmt 312
allein 312
umgebung 312
schulen 312
hälfte 311
regeln 311
vortrag 311
vorstellung 310
ru@@ 310
nacht 310
bare 310
tet 309
interessiert 308
benutzt 308
gebracht 308
gi@@ 308
zeit@@ 308
rolle 307
3 307
ku@@ 307
der@@ 307
bewusst 307
soziale 307
jemanden 306
geschrieben 306
ts 306
städte 306
gebiet 306
kleiner 305
anstatt 305
sk@@ 304
lo@@ 304
entfernt 304
verbunden 304
selbst@@ 304
ding 303
einfache 303
he@@ 303
u 303
meinung 303
che 302
systeme 302
erreicht 302
generation 301
pa@@ 301
chten 300
veränderung 300
finde 300
revolution 299
bedeutung 299
straße 298
mitte 298
meter 297
labor 297
ges 296
offensichtlich 295
hoffe 295
bewegt 295
is 294
machten 294
stark 294
absolut 294
sicherheit 293
25 293
isches 293
me 293
politik 293
mon@@ 292
verloren 292
freund 292
heutzutage 292
fehler 292
pflanzen 292
versuche 292
erzählt 291
bekam 291
preis 291
voll 289
erung 289
rest 289
ne@@ 289
wer@@ 289
mögen 289
folgen 289
heraus@@ 288
elle 288
links 288
komplett 288
v@@ 288
zeige 287
gegenüber 287
tier 287
blick 286
hei@@ 286
tischen 285
spricht 285
gekommen 285
beziehung 285
kom@@ 285
ha@@ 284
bilden 284
wieder@@ 283
dachten 283
th@@ 282
nennt 282
tigen 282
herausforderung 282
vereinigten 282
ständig 281
sofort 281
mo@@ 280
aufzu@@ 280
normalerweise 280
seiten 280
wann 280
kan@@ 280
haupt@@ 279
sonne 279
linie 279
ansehen 279
fähigkeiten 279
liegen 278
geschieht 278
bi@@ 278
sonst 277
arbeitet 276
einzelne 276
trotzdem 276
spiel@@ 276
einge@@ 275
gesamte 275
gesicht 275
gel@@ 275
h 274
cht 274
ges@@ 274
sorgen 273
bei@@ 272
testen 272
statt 272
gewinnen 272
sicht 272
lieben 272
aufge@@ 272
ak@@ 271
ch 271
wichtige 271
realität 270
kannst 270
mitgefühl 270
studie 270
da@@ 269
fen 269
lei@@ 268
ähnlich 268
einander 267
rei@@ 267
hal@@ 267
alte 267
passierte 266
mar@@ 266
punkte 266
größer 266
erfolg 266
voller 266
taten 265
ben@@ 265
tagen 265
tiert 265
arbeits@@ 264
sprach 264
ber@@ 263
na 263
bald 263
denkt 262
übrigens 262
begannen 262
information 262
spaß 261
hoffnung 261
spiele 261
ergebnis 261
ene 261
bo@@ 261
programm 261
gearbeitet 260
hält 260
tier@@ 260
möglichen 260
elt 259
sahen 259
krankheiten 259
monaten 259
na@@ 258
gemeinsam 258
bevölkerung 258
experiment 258
rück@@ 258
wussten 258
tod 257
neu@@ 257
länger 257
entscheidungen 257
vergessen 257
gten 257
80 257
bewusstsein 257
schneller 256
t-@@ 256
ster 256
aufmerksamkeit 256
deine 256
— 256
großes 256
überleben 255
op@@ 255
4 255
abzu@@ 255
tausende 255
richtigen 255
zeiten 255
langsam 254
sitzen 254
großer 254
wesen 254
weltweit 254
verlieren 254
et@@ 254
sobald 254
bestimmt 253
ebene 253
nachrichten 253
fallen 253
men@@ 253
außer 253
produkt 252
führte 252
beispiele 252
öl 252
fangen 252
gesprochen 251
vorher 251
fa@@ 251
frei@@ 251
künstler 250
tt@@ 250
beobachten 250
außerdem 250
wieso 250
herauszufinden 250
orte 250
man@@ 250
wahl 250
nahmen 249
us 249
anschauen 249
ser@@ 249
gestellt 249
gutes 249
ö@@ 248
ordnung 248
zweiten 248
po@@ 248
e-@@ 248
evolution 247
interessante 247
200 247
tische 247
europa 247
medizin 246
bar@@ 246
12 246
we@@ 246
gte 245
industrie 245
medien 245
r 245
vi@@ 244
so@@ 244
messen 244
zentrum 244
umwelt 243
bleibt 243
grenzen 243
tige 243
job 243
w@@ 243
geschehen 243
sekunden 243
gleichzeitig 242
zelle 242
einzelnen 242
fest@@ 242
wichtiger 242
60 241
gung 241
gegangen 241
holen 241
sozialen 241
ellen 241
arm 241
aussieht 240
computer@@ 240
al 240
demokratie 239
d-@@ 239
sprachen 239
500 239
versuchte 239
umwelt@@ 239
dadurch 238
ke 238
to@@ 238
hab 238
arbeitete 238
bestimmten 238
farbe 238
läuft 237
amerikanischen 237
j@@ 237
bessere 236
firmen 236
du@@ 236
einzu@@ 236
nachricht 236
methode 236
amerikaner 236
baren 235
orten 235
mu@@ 235
handelt 235
rede 235
zustand 234
verbessern 234
chte 234
/ 234
konzept 233
lebt 233
dna 233
entdecken 232
wi@@ 232
wa@@ 232
laden 231
lichkeit 231
nenne 231
arzt 231
warten 231
personen 231
einfluss 230
großartige 230
papier 230
zumindest 230
klein 230
versch@@ 230
all@@ 229
strom 229
verlassen 229
frei 229
voll@@ 229
dorf 229
zeug 229
werte 229
pro@@ 228
spezies 228
schaut 228
sowohl 228
mathematik 228
wirklichkeit 228
prinzip 228
nummer 228
ber 228
universität 228
fällt 227
ell 227
klasse 227
at 227
cken 226
befinden 226
fotos 225
innovation 225
erzeugen 225
david 225
designer 225
typ 225
feld 225
fort@@ 225
vergangenheit 225
ers 224
haut 224
erlaubt 224
version 223
herstellen 223
bu@@ 223
gründen 223
organisation 223
produzieren 223
suche 223
weiter@@ 223
wand 222
nachzudenken 222
werfen 222
ung@@ 222
sche 221
herum@@ 221
tig 221
zwei@@ 221
dritte 221
rechts 221
fing 221
toll 221
artikel 220
neben 220
ft 220
früher 220
» 220
hinaus 220
verstanden 220
google 219
is@@ 219
monat 219
of 219
grad 218
ste@@ 218
geschäft 218
gründe 218
name 218
aufgrund 218
ho@@ 217
ler 217
innen 217
unmöglich 217
menschheit 217
irgendwo 217
tz@@ 217
setzt 217
diejenigen 217
worte 217
bühne 217
kar@@ 217
dasselbe 217
schüler 216
entdeckt 216
behandlung 216
stunde 216
materialien 216
interesse 216
kinder@@ 216
geist 216
stre@@ 215
the 215
18 215
spielt 215
arbeite 215
sohn 215
super@@ 215
solchen 215
ozean 215
entschieden 214
welcher 214
test 214
befindet 214
mikro@@ 214
gefragt 214
himmel 214
antworten 214
tung 214
gewalt 213
« 213
6 213
verstand 213
studien 213
zugang 213
gleich@@ 212
globalen 212
körper@@ 212
maschinen 212
riesige 212
ton 212
neun 212
selben 212
f 212
8 212
liste 212
sammeln 211
kollegen 211
heit 211
as@@ 211
wider@@ 211
betrachtet 210
produkte 210
lösungen 210
do@@ 210
wachstum 210
öl@@ 210
besch@@ 210
ß@@ 210
familien 210
sinne 210
war@@ 210
plan 209
iert 209
eben 209
leisten 209
naja 209
architektur 209
schicken 208
region 208
ergebnisse 208
nahrung 208
armut 208
geschwindigkeit 208
geb@@ 207
traf 207
erstens 207
stimmen 207
gang 207
versuch 207
3@@ 206
treten 206
schlechte 206
verständnis 206
ebenso 206
verbinden 206
kli@@ 205
2@@ 205
eis 205
netz 205
reichen 205
großartig 205
beginn 205
biologie 205
ster@@ 204
hielt 204
enen 204
entweder 204
handeln 204
hilft 204
el 204
untersuchen 203
kamera 203
zunächst 203
freiheit 203
abge@@ 203
zeigte 203
c@@ 203
vertrauen 203
stellten 202
raus 202
per@@ 202
fi@@ 202
deswegen 202
tief@@ 202
hen 202
objekt 202
hiv 202
leider 202
extrem 202
ker 202
million 201
br@@ 201
ja@@ 201
fisch 201
tete 201
bakterien 200
näher 200
bestimmte 200
hörte 200
bisher 200
kaum 200
fällen 199
hört 199
satz 199
bt 199
verkaufen 199
ermöglicht 199
cher 199
pp@@ 199
hände 198
ebenfalls 198
onen 198
genen 197
keiner 197
herz 197
ms 197
entscheiden 197
bio@@ 197
spitze 197
komme 197
drei@@ 196
fertig 196
außerhalb 196
pi@@ 196
dar@@ 196
rechten 196
schönheit 196
sh@@ 196
ehrlich 195
chance 195
uhr 195
ca. 195
fahr@@ 195
projekte 195
wichtigste 195
einfachen 195
bedingungen 195
unglaubliche 195
hundert 194
000 194
reaktion 194
inter@@ 194
ze 194
letztes 194
luft@@ 193
krankenhaus 193
energie@@ 193
erfolgreich 193
getroffen 193
ot@@ 193
dein 193
verrückt 193
retten 193
dern 193
lasst 192
vier@@ 192
dreht 192
meer 192
rechte 192
drehen 192
gend 192
herz@@ 192
ressourcen 192
virus 191
druck 191
hinter@@ 191
gehirn@@ 191
einzigen 191
eigenschaften 191
gu@@ 191
lag 191
gesetz 191
ck 191
zieren 191
mittel@@ 191
ar 190
auswirkungen 190
erklärt 190
kampf 190
eigen@@ 190
unterschiedliche 190
ern@@ 190
km 190
leidenschaft 190
groß@@ 190
eller 190
gesamten 190
erzählte 190
re 189
ü@@ 189
armen 189
ieren 189
us-@@ 189
kunst@@ 189
ke@@ 189
rund 188
kte 188
erinnere 188
erwarten 188
nehme 188
zweitens 188
x@@ 188
ki@@ 187
endlich 187
sti@@ 187
werk 187
90 187
zeitpunkt 186
mer 186
abend 186
typen 186
ans 186
john 185
zeichen 185
lich@@ 185
herausfinden 185
landes 185
wege 185
kl@@ 185
bau 185
lernte 185
traum 185
angefangen 185
land@@ 185
beziehungen 185
geschaffen 185
su@@ 184
straßen 184
strukturen 184
software 184
unterschiede 184
finger 184
hunderte 184
ff@@ 184
erfahren 184
cht@@ 184
masse 184
worten 184
ses 184
geräte 183
bezug 183
hängt 183
fer@@ 183
ahnung 183
mehrere 183
auge 183
us@@ 182
schlagen 182
ließ 182
fe 182
schützen 181
seines 181
freude 181
dung 181
konferenz 181
gehe 181
westen 180
produktion 180
tiger 180
x 180
tionen 180
tief 180
flugzeug 180
and 180
to 179
öffentlichen 179
englisch 179
erfunden 179
kern 179
langen 179
regel 179
par@@ 179
pu@@ 178
auto@@ 178
leistung 178
c 178
karten 178
gaben 178
wählen 177
netzwerk 177
gesundheits@@ 177
brauchte 177
ner 177
weisen 177
globale 177
ziert 177
werkzeuge 177
gehirns 177
desto 176
det 176
tem 176
sta@@ 176
teten 176
gedacht 176
gende 176
gebe 176
fehl@@ 175
ärzte 175
tra@@ 175
bäume 175
regierungen 175
wohin 175
lie@@ 175
raum@@ 175
gel 175
gegen@@ 174
geschah 174
stecken 174
gra@@ 174
ts@@ 174
geschafft 174
steigen 174
endes 174
entschied 174
wichtigsten 174
behandeln 174
büro 174
erleben 174
hinein 173
echt 173
a-@@ 173
verantwortung 173
online 173
stattdessen 173
ganzes 173
trifft 173
leiden 173
daten@@ 173
hey 173
zug 173
gesellschaften 173
z.b. 173
schließen 173
fälle 173
wirtschafts@@ 173
jahrhunderts 173
guter 173
seien 172
ismus 172
heutigen 172
waffen 172
religion 172
halte 172
öffnen 172
fragt 172
er-@@ 172
än@@ 172
kr@@ 172
fe@@ 172
runter 172
kostet 172
18@@ 171
fähig 171
fühlte 171
lief 171
erfahrungen 171
genden 171
sekunde 170
.@@ 170
tr@@ 170
farben 170
begonnen 170
herzustellen 170
ir@@ 170
veränderungen 170
tern 169
erstaunlich 169
tür 169
nahe 169
tri@@ 169
position 169
sicherlich 169
geführt 169
ums 169
echte 169
verbindungen 169
größere 169
teil@@ 169
neuronen 169
kal@@ 168
län@@ 168
kten 168
weiss 168
alität 168
nächstes 168
chris 168
frühen 168
schöne 168
fühlt 168
4@@ 168
fuß 168
jemandem 168
existiert 168
it@@ 168
medikamente 167
dr. 167
konzentrieren 167
licht@@ 167
loch 167
ernst 167
gefühle 166
wunsch 166
wür@@ 166
komplexität 166
spreche 166
höhe 166
stein 166
pen@@ 166
herzen 166
linken 165
wohn@@ 165
qu@@ 165
tochter 165
jene 165
digen 165
spieler 165
größeren 165
genutzt 164
verbringen 164
wenige 164
end@@ 164
tion@@ 164
ften 164
fluss 164
amerikanische 164
y 164
osten 164
pri@@ 164
brot 164
reich 164
erstes 164
schluss 164
16 164
kräfte 163
erzeugt 163
one 163
300 163
infrastruktur 163
produziert 163
är@@ 163
rate 163
beeinflusst 163
vorbei 162
erlauben 162
ckt 162
folgendes 162
eigenes 162
fühle 162
are 162
fin@@ 162
lu@@ 162
flug@@ 161
stern 161
senden 161
kommunikation 161
freunden 161
einkommen 161
organisationen 161
ex@@ 161
stücke 161
qualität 161
fernsehen 161
physik 161
steckt 160
elles 160
habt 160
stoff 160
reisen 160
wörter 160
zusammenhang 160
ausdruck 160
verursacht 160
unterstützen 160
ment@@ 159
kt@@ 159
ine 159
os 159
äu@@ 159
fleisch 159
mars 159
mp@@ 159
sucht 159
kreativität 159
bel@@ 159
kor@@ 159
kriegen 159
museum 159
fenster 158
ad@@ 158
lö@@ 158
tolle 158
gewebe 158
dorthin 158
arme 158
modernen 158
ausbildung 157
tions@@ 157
7 157
hü@@ 157
sodass 157
ker@@ 157
wirst 157
weiterhin 156
materie 156
begriff 156
funktion 156
roten 156
zimmer 156
aufgenommen 156
ig@@ 155
partner 155
somit 155
mal@@ 155
ken@@ 155
allerdings 155
entscheidung 155
fische 155
dr@@ 154
feuer 154
hart 154
losen 154
natürliche 154
je@@ 154
stolz 154
vergleich 154
nicht-@@ 154
sozusagen 154
chen@@ 154
scher 154
zog 154
sex 154
benötigt 154
hu@@ 154
gelegenheit 154
systems 153
investieren 153
hervor@@ 153
city 153
gl@@ 153
bildern 153
bestehen 153
soldaten 153
70 153
aktivität 153
nieder@@ 153
wind 153
klingt 152
kraft@@ 152
gewicht 152
lautet 152
band 152
wagen 152
sterne 152
großbritannien 152
beine 152
filme 152
universums 152
ds 152
kontrollieren 152
afghanistan 152
mt 152
botschaft 152
irgendwann 152
einfacher 152
bin@@ 152
entstehen 152
kilometer 152
stische 151
quelle 151
por@@ 151
wissenschaftliche 151
har@@ 151
zei@@ 151
baby 151
los@@ 151
ju@@ 151
hr@@ 151
politische 151
verfügung 151
ted-@@ 151
kämpfen 150
männern 150
dagegen 150
co@@ 150
ober@@ 150
em@@ 150
effekt 150
ender 150
and@@ 150
trotz 150
selber 150
sonnen@@ 150
sei@@ 150
räume 150
len 149
scheinen 149
fläche 149
nähe 149
videos 149
mor@@ 149
kenne 149
krise 149
fort 149
erforschen 149
perspektive 149
staat 149
vielfalt 148
dennoch 148
laut 148
modelle 148
nochmal 148
kunden 148
politischen 148
zieht 148
schaft 148
menschen@@ 148
daß 148
offen 148
treiben 148
verkauft 148
gesetze 148
natur@@ 148
darf 147
stra@@ 147
ansatz 147
berg 147
mü@@ 147
wahrscheinlichkeit 147
einsatz 147
weiteres 147
leid 147
haufen 147
steigt 146
aufgaben 146
schlag 146
gkeit 146
kurzem 146
benötigen 146
meeres@@ 146
wand@@ 146
töten 146
bezahlen 146
lose 146
saß 146
erinnert 146
london 146
nt 145
sam@@ 145
im@@ 145
folge 145
werkzeug 145
bewegungen 145
weiteren 145
titel 145
schutz@@ 145
städten 145
frieden 145
vollkommen 145
sparen 145
reagieren 145
hoffentlich 145
gewonnen 145
ändert 145
intelligenz 145
wal@@ 145
riesigen 145
tausend 145
sitzt 145
aler 145
vollständig 144
hinein@@ 144
vermutlich 144
entlang 144
eis@@ 144
fortschritt 144
objekte 144
schafft 144
richard 144
bitten 144
schi@@ 144
schätzen 144
mögliche 144
organismen 144
risiko 143
dieselbe 143
go@@ 143
lehr@@ 143
20. 143
volle 143
om@@ 143
schutz 143
ess@@ 143
zuhause 143
p 143
sal@@ 142
entwickelten 142
schw@@ 142
fü@@ 142
ließen 142
dritten 142
wesentlichen 142
mond 142
perfekt 142
flu@@ 142
gilt 142
fragten 142
welchen 142
verfolgen 142
ol@@ 142
verdienen 142
str@@ 142
meistens 142
wächst 142
behalten 142
herausgefunden 141
schwester 141
gestern 141
äre 141
gemeinde 141
problemen 141
grenze 141
kur@@ 141
ermöglichen 141
arbeiter 141
führung 141
starb 140
ation 140
besitzen 140
lebte 140
beschäftigt 140
methoden 140
phänomen 140
reicht 140
moleküle 140
woher 140
basis 140
mer@@ 140
wiederum 140
hirn@@ 140
unterschiedlichen 140
cool 140
ien 140
worüber 140
vision 140
prä@@ 140
milliarde 140
teilchen 140
kin@@ 140
durchgeführt 140
tre@@ 140
atom@@ 140
gestalten 139
elemente 139
hergestellt 139
unterstützung 139
steuern 139
atmosphäre 139
wunderbare 139
entwerfen 139
11 139
davor 139
setzte 139
mel@@ 139
unbedingt 139
igen 139
familien@@ 138
mission 138
ze@@ 138
wirkung 138
kern@@ 138
fuhr 138
san@@ 138
fer 138
stufe 138
beschreiben 138
lass 137
gelangen 137
wandel 137
zeichnen 137
kontakt 137
drittel 137
behandelt 137
tten 137
rein 137
kommunizieren 137
tan@@ 137
ppen 136
gefängnis 136
deutlich 136
basiert 136
win@@ 136
beeinflussen 136
lachen 136
k-@@ 136
schwarze 136
temperatur 136
möglicherweise 136
ma 136
wuchs 135
letztendlich 135
v 135
pe@@ 135
code 135
emp@@ 135
bürger 135
gehalten 135
jahres 135
irgendetwas 135
kreis 135
sch 135
9 134
buchstäblich 134
zell@@ 134
jungs 134
sommer 134
zufällig 134
veröffentlicht 134
hel@@ 134
alleine 134
son 134
mm@@ 134
hauptsächlich 134
hohen 134
14 134
mütter 134
experimente 134
wohl@@ 134
ei 134
präsident 134
morgens 133
ßen 133
themen 133
verbracht 133
hohe 133
klimawandel 133
erstellen 133
chs 133
kennt 133
park 133
meilen 132
ph@@ 132
falsche 132
anti@@ 132
geburt 132
trag@@ 132
umgehen 132
ah 132
bett 132
karriere 132
ul@@ 132
scht 132
haus@@ 132
baum 132
viren 132
kurze 132
tu@@ 132
ecke 132
täglich 132
zusammenarbeit 132
schwer@@ 132
weder 132
dauert 132
wo@@ 131
sau@@ 131
entsteht 131
sin@@ 131
lern@@ 131
19@@ 131
tierte 131
gefahr 131
heben 131
fach@@ 131
gelöst 131
aufnahme 131
pf@@ 131
haft 131
insekten 131
großteil 131
tzen 131
mis@@ 131
gesetzt 130
see 130
laufe 130
kümmern 130
cke 130
lauf 130
erin 130
gedanke 130
y-@@ 130
tue 130
erzähle 130
for@@ 130
massen@@ 130
jobs 130
dahin 130
wunderbar 130
verantwortlich 130
brauche 130
ameisen 130
lichsten 130
begeistert 130
wert@@ 130
tsch@@ 129
schü@@ 129
sinn@@ 129
entwickelte 129
gewissen 129
no@@ 129
berei@@ 129
normale 129
brechen 129
lau@@ 129
unbe@@ 129
400 129
wel@@ 129
erwartet 129
babys 129
opfer 128
ba@@ 128
könnt 128
film@@ 128
lebten 128
sieren 128
bildschirm 128
zogen 128
nannte 128
forscher 128
übertragen 128
2000 128
lin@@ 128
blu@@ 128
betrifft 128
schwimmen 128
elten 128
experten 128
verbreitet 128
knochen 128
the@@ 127
brachten 127
erster 127
gest@@ 127
interessieren 127
aufhören 127
ban@@ 127
lä@@ 127
hund 127
häuser 127
passt 127
bal@@ 127
mengen 127
neuer 127
bra@@ 127
aktiv 127
mitten 127
s. 127
ell@@ 127
japan 127
getötet 126
gsten 126
passen 126
ht 126
hn@@ 126
handel 126
spezi@@ 126
ziele 126
versuchten 126
gehabt 126
24 126
he 126
les@@ 126
überzeugt 126
rücken 126
besseren 125
blut 125
vergleichen 125
kalifornien 125
zählen 125
sozial@@ 125
ren 125
kürzlich 125
verhindern 125
herr 125
ähnliche 125
ktion 125
per 125
washington 125
brauchten 125
total 125
tiefe 124
buch@@ 124
gelesen 124
wissenschaftlichen 124
rief 124
hintergrund 124
linien 124
legt 124
lernt 124
anderem 124
wisst 124
lebewesen 124
markt@@ 124
starke 124
lieber 124
ing@@ 124
uner@@ 123
klang 123
car@@ 123
standen 123
ser 123
augen@@ 123
normalen 123
10.000 123
nis@@ 123
arbeiteten 123
erstaunliche 123
rein@@ 123
raus@@ 123
einzel@@ 123
aids 123
il@@ 123
bemerkt 123
kontext 123
dar 123
verlangen 123
bereiche 123
wow 123
überzeugen 122
hinweg 122
gebiete 122
strei@@ 122
vorteil 122
vögel 122
schaute 122
13 122
schla@@ 122
zeitalter 122
praktisch 122
wirk@@ 122
geln 122
bild@@ 122
sä@@ 121
ner@@ 121
hä@@ 121
tau@@ 121
enten 121
bauern 121
son@@ 121
klein@@ 121
wahre 121
geschickt 121
zt 121
affen 121
werbung 121
sauerstoff 121
raten 121
weile 121
führten 121
älter 121
minute 121
stellung 121
gelassen 121
ton@@ 121
leben@@ 120
vollen 120
bildungs@@ 120
gehirne 120
9@@ 120
san 120
verwandeln 120
weißt 120
erkannte 120
nation 120
nutz@@ 120
schönen 120
finanz@@ 120
moderne 120
tischer 120
interagieren 120
rau@@ 120
werten 120
schei@@ 120
normal 120
schnitt 120
grün 120
drin 120
bl@@ 120
überrascht 119
siert 119
existieren 119
glaubt 119
cher@@ 119
cker 119
ga@@ 119
eure 119
pan@@ 119
ales 119
offen@@ 119
bur@@ 119
sub@@ 119
insel 119
weißen 119
genauer 119
meiste 119
forschungs@@ 119
inneren 119
fiel 119
landwirtschaft 119
stein@@ 118
5@@ 118
bietet 118
dis@@ 118
fängt 118
asien 118
ft@@ 118
des@@ 118
gespräch 118
unternehmer 118
relativ 118
galaxien 118
abhängig 118
sowie 118
bri@@ 118
ß 118
verschwinden 118
einsetzen 118
$ 118
del@@ 118
gestorben 118
rätsel 118
ran@@ 118
fuß@@ 117
schmerz 117
zen@@ 117
heisst 117
aten 117
erfinden 117
ansicht 117
operation 117
bekamen 117
wahl@@ 117
oren 117
träume 117
erkenntnis 117
mindestens 117
erhält 117
irak 117
hi@@ 117
malen 117
bauten 117
barkeit 116
min@@ 116
seitdem 116
märkte 116
dürfen 116
entwicklungs@@ 116
boot 116
ches 116
sel 116
35 116
bürger@@ 116
drüben 116
eingesetzt 116
or 116
wald 116
händen 116
krank 116
trägt 116
bedeuten 116
herausforderungen 116
deinen 116
kü@@ 116
gefährlich 116
ssen 115
eindruck 115
professor 115
7@@ 115
paul 115
netzwerke 115
schlüssel 115
starten 115
gezogen 115
stell@@ 115
erscheinen 115
bares 115
gehören 115
institutionen 115
wahrnehmung 115
stei@@ 115
musst 115
leiten 115
it 115
aufnahmen 115
wirken 115
las 115
fu@@ 114
mach 114
stri@@ 114
null 114
landschaft 114
unterscheiden 114
echten 114
schlimmer 114
verbreiten 114
150 114
pfen 114
zier@@ 114
bank 114
anwenden 114
entdeckung 114
bezahlt 114
hl@@ 114
traditionellen 114
kurs 114
körpers 114
hängen 114
rahmen 114
deten 114
rechts@@ 114
regen@@ 113
dro@@ 113
wenden 113
schuhe 113
pal@@ 113
gegenteil 113
komplexe 113
fantastisch 113
star@@ 113
garten 113
polizei 113
fisch@@ 113
grundlegende 113
öffentliche 113
aller@@ 113
gan@@ 113
bedarf 113
tur@@ 113
versorgung 113
haltung 113
jo@@ 113
ag@@ 113
blau 113
bill 113
kulturen 113
identität 113
bloß 113
dige 113
gegensatz 113
geld@@ 113
patient 113
ären 112
häufig 112
annehmen 112
lan@@ 112
sor@@ 112
bieten 112
generationen 112
gelegt 112
küste 112
nationen 112
dach 112
wunder 112
emotionen 112
sprach@@ 112
teilt 112
regionen 112
besondere 112
strategie 112
co2 112
einheit 112
september 112
schicht 112
abschluss 112
baut 111
stoff@@ 111
details 111
angenommen 111
lehren 111
früh 111
ks 111
nachbarn 111
gefahren 111
holz 111
wunder@@ 111
nen@@ 111
notwendig 111
lauf@@ 111
rote 111
erklärung 111
spielte 111
maus 111
schlechten 111
soviel 111
einiger 111
grundsätzlich 111
selten 111
bre@@ 111
öffentlichkeit 111
höher 111
sto@@ 111
fä@@ 110
lang@@ 110
richten 110
verhältnis 110
my@@ 110
erscheint 110
6@@ 110
genom 110
entspricht 110
rot 110
beantworten 110
solch 110
kurzen 110
bienen 110
lager 110
individuen 110
inspiriert 110
dinosaurier 110
programme 110
blatt 110
mittleren 110
gewisse 110
geschäfts@@ 110
bat 110
wor@@ 110
graben 109
schau@@ 109
bereichen 109
lieblings@@ 109
wechseln 109
bil@@ 109
denk@@ 109
schwarzen 109
streben 109
ige 109
stammt 109
dra@@ 109
ehe@@ 109
sicherheits@@ 109
vorfahren 109
handy 109
alisiert 109
zeitung 109
wichtigen 109
rufen 109
faktor 109
nutzt 109
ologen 109
müsste 108
sand@@ 108
angesehen 108
national 108
fahrer 108
verfügbar 108
times 108
99 108
halbe 108
durchschnittliche 108
planet 108
fall@@ 108
fördern 108
bestand 108
charakter 108
erungen 108
ani@@ 108
bestimmen 108
definieren 108
afrikanischen 108
aspekt 108
komplex 108
natürlichen 108
wenigen 108
hö@@ 108
bung 108
zerstört 107
halt 107
gegend 107
charles 107
college 107
gespielt 107
unge@@ 107
tro@@ 107
fte 107
ant@@ 107
zerstören 107
pla@@ 107
schien 107
hinsicht 107
kampagne 107
westlichen 107
1@@ 107
zahl@@ 107
grünen 107
rat 107
erter 107
berührt 107
entstanden 107
fl@@ 107
fern@@ 107
chtet 107
elektro@@ 107
schrift 107
verbrachte 107
england 107
glas 107
ach@@ 107
augenblick 107
5.000 107
hoffen 107
stuhl 107
süd@@ 106
entworfen 106
stischen 106
mund 106
show 106
beweise 106
fernseh@@ 106
mil@@ 106
hallo 106
sand 106
iger 106
form@@ 106
ing-@@ 106
bis@@ 106
konflikt 106
unterricht 106
ckte 106
len@@ 106
17 106
teuer 106
gem 106
signale 106
gs 106
lied 106
studieren 105
kerl 105
wirtschaftlichen 105
richtungen 105
staat@@ 105
gäbe 105
quasi 105
gebeten 105
diagramm 105
gew@@ 105
elte 105
ate 105
blieb 105
erstellt 105
gefallen 105
verbindet 105
don@@ 105
recht@@ 105
solar@@ 105
elektrizität 105
fr@@ 105
tal@@ 105
usw. 105
website 105
kindheit 104
20@@ 104
verfahren 104
ac@@ 104
dig 104
falten 104
beschlossen 104
krebs@@ 104
potential 104
trinken 104
quellen 104
regen 104
viel@@ 104
folie 103
ernährung 103
level 103
schaden 103
fabrik 103
nah 103
aufbauen 103
dran 103
tel@@ 103
phase 103
baute 103
mehr@@ 103
reduzieren 103
sten@@ 103
nä@@ 103
ob@@ 103
george 103
norden 103
gefällt 103
gän@@ 103
stisch 103
bruder 103
wind@@ 103
lagen 103
drücken 103
gefähr@@ 103
600 103
geändert 103
strom@@ 103
müll 103
architekten 103
ters 103
definition 103
kochen 102
aufgebaut 102
lektion 102
lustig 102
trau@@ 102
dlich 102
gar@@ 102
herren 102
tausenden 102
beobachtet 102
führer 102
ka 102
unterrichten 102
aufregend 102
tö@@ 102
gs@@ 102
derzeit 102
school 102
vermitteln 102
atmen 102
digitalen 102
gesundheitswesen 102
inhalt 102
video@@ 102
bende 102
tä@@ 101
ach 101
ersetzen 101
spüren 101
fährt 101
viertel 101
blauen 101
geo@@ 101
einstein 101
wüste 101
fal@@ 101
zweck 101
präsentation 101
junger 101
wirtschaftliche 101
druck@@ 101
herunter@@ 101
statistiken 101
rie@@ 101
prakti@@ 101
pl@@ 101
wu@@ 101
w 101
nützlich 101
tests 101
g-@@ 101
verbessert 101
weiße 101
fol@@ 101
bes@@ 101
web 101
ität 100
helden 100
zte 100
beinahe 100
bein 100
leb@@ 100
verteilt 100
achse 100
wobei 100
erd@@ 100
kurve 100
ente 100
facebook 100
medizinische 100
springen 100
wesentlich 100
grosse 100
politiker 100
persönlich 100
verlust 100
schlafen 100
motor 100
ss 100
entdeckte 100
stan@@ 99
ras@@ 99
wellen 99
kriegs@@ 99
wen 99
nötig 99
erlebt 99
langer 99
dunkle 99
wä@@ 99
nord@@ 99
seltsam 99
vorstellungen 99
geheimnis 99
plan@@ 99
gas@@ 99
sches 99
erfindung 99
hrt 99
beweisen 99
hör@@ 99
dischen 99
michael 99
seht 99
tungen 99
berichten 99
persönliche 99
nor@@ 99
kompliziert 99
ur 99
herr@@ 99
besuchen 99
unabhängig 99
unterstützt 99
erwähnt 99
klima@@ 99
galaxie 99
achten 98
früh@@ 98
erende 98
damen 98
metapher 98
mess@@ 98
medikament 98
tzt 98
gender 98
zahn@@ 98
fri@@ 98
enorme 98
tiven 98
tot 98
persönlichen 98
tze 98
heißen 98
o-@@ 98
james 98
gemeinden 98
bro@@ 98
wechsel@@ 98
feststellen 98
mitarbeiter 98
wen@@ 98
einrichtungen 98
neuro@@ 98
sätze 98
tiges 98
ver 98
stes 98
theater 98
online-@@ 97
aren 97
halb 97
fen@@ 97
digitale 97
bedürfnisse 97
ha 97
faktoren 97
mexiko 97
stärker 97
wir@@ 97
flü@@ 97
wettbewerb 97
lediglich 97
menschlicher 97
momente 97
fern 97
mitglieder 97
jährigen 97
ßt 97
stoßen 97
leistungs@@ 97
grüne 97
gesichter 97
sowas 97
willst 97
2008 97
inen 97
bekannten 97
sitz 97
vorne 97
schrecklich 97
sie@@ 96
außen 96
korruption 96
übrig 96
hy@@ 96
nar@@ 96
beweis 96
anteil 96
versteht 96
kriege 96
gei@@ 96
ll@@ 96
kra@@ 96
fo@@ 96
schwierigkeiten 96
spiegel 96
kopf@@ 96
züge 96
erkennt 96
rollen 96
fischen 96
innere 96
nutzung 96
bildet 96
freundin 96
großmutter 96
vorzu@@ 96
fahrt 96
cks 96
irgendjemand 95
bogen 95
text 95
teste 95
llen 95
folgt 95
sam 95
seh@@ 95
nden 95
iran 95
strahlung 95
hinten 95
beschloss 95
fas@@ 95
solange 95
zuhören 95
gramm 95
molekül 95
45 95
effektiv 95
australien 95
afrikas 95
ide@@ 95
selbstverständlich 95
kri@@ 95
national@@ 95
kaffee 95
schen@@ 95
folgende 95
ley 95
löcher 95
tex@@ 95
eu@@ 95
hielten 95
jedenfalls 95
singen 95
hinzu@@ 95
ang@@ 95
telefon 95
han@@ 94
telefon@@ 94
innen@@ 94
grafik 94
brach 94
tt 94
kul@@ 94
barer 94
wieviel 94
inseln 94
nachts 94
anischen 94
mutter@@ 94
verteilung 94
schritte 94
chemikalien 94
büchern 94
gh@@ 94
proben 94
beinhaltet 94
situationen 94
saal 94
erwachsene 94
1,@@ 94
dete 94
gesund 94
zauber@@ 94
maßstab 94
äußerst 94
brücke 94
verkehr 94
malaria 94
zivilisation 94
heim@@ 94
landen 94
station 94
toten 94
chern 93
kapital 93
ball 93
schimpansen 93
ons 93
wirkliche 93
sektor 93
gebraucht 93
lichem 93
herstellung 93
liebte 93
speziellen 93
moralische 93
ven@@ 93
zähne 93
dungen 93
zitat 93
gelebt 93
vorhersagen 93
wofür 93
lokalen 93
samen 93
gras 93
überraschend 93
bus 93
beispielsweise 93
setzten 93
dor@@ 93
els 93
far@@ 93
liefer@@ 93
überlegen 93
aufzubauen 93
schauten 93
kö@@ 93
rennen 93
hnen 93
tauchen 93
stärke 93
nigeria 93
grün@@ 93
fli@@ 93
maß@@ 93
21. 93
stu@@ 92
kreieren 92
nu@@ 92
forsch@@ 92
sche@@ 92
prinzipien 92
webseite 92
glas@@ 92
hau@@ 92
gas 92
meist 92
schlechter 92
fra@@ 92
stü@@ 92
höre 92
beschäftigen 92
hen@@ 92
ruf 92
untersucht 92
schalten 92
kanada 92
ohren 92
tiv 92
erkannt 92
schuld 92
freien 92
1.@@ 92
anwendung 92
chti@@ 92
positive 92
fan@@ 92
witz 92
kle@@ 92
glück@@ 92
sse 92
diskussion 92
ür@@ 92
vorhanden 91
ren@@ 91
analyse 91
hörten 91
unterschiedlich 91
hän@@ 91
multi@@ 91
dauerte 91
bekomme 91
tumor 91
gie 91
unfall 91
dan@@ 91
geber 91
chemie 91
todes@@ 91
verbreitung 91
pfund 91
mach@@ 91
menschliches 91
süden 91
pul@@ 91
erwachsenen 91
stoffe 91
kop@@ 91
allgemeinen 91
flug 91
ologie 91
stehe 91
müssten 91
versagen 91
kannte 91
8@@ 91
wikipedia 91
eli@@ 91
bezüglich 91
auen 91
lichste 91
ierte 91
flasche 90
ausmaß 90
ppe 90
pr@@ 90
kla@@ 90
serie 90
untersuchung 90
greifen 90
risiken 90
gebieten 90
75 90
här@@ 90
woran 90
welchem 90
internationalen 90
gekauft 90
anfing 90
resultat 90
füllen 90
deutschland 90
bedenken 90
anhand 90
sicht@@ 90
fun@@ 90
freie 90
fel@@ 90
stoffen 90
unterhaltung 90
entstand 90
gegründet 90
akzeptieren 90
mut 90
är 90
schönes 90
kenia 90
kombination 90
gegenwart 90
ozeane 90
nicht@@ 89
interessantes 89
rechnen 89
halb@@ 89
darwin 89
mitglied 89
jahr@@ 89
stammzellen 89
grossen 89
heran@@ 89
voraus@@ 89
blase 89
vertraut 89
bahn 89
schmerzen 89
absicht 89
solcher 89
geräusch 89
entfernen 89
enz@@ 89
grundlage 89
israel 89
entwicklungsländern 89
werke 89
holz@@ 89
teams 89
person@@ 89
unglaublichen 89
umge@@ 89
thomas 89
nte 89
tungs@@ 89
hierher 89
anstelle 89
zugänglich 89
tanz 89
dichte 89
not@@ 89
einiges 89
element 89
darstellen 89
genetische 88
jährige 88
vorbei@@ 88
ergibt 88
big 88
19. 88
südafrika 88
dan 88
geräusche 88
schwieriger 88
chinesische 88
1.000 88
vorzustellen 88
ys 88
besessen 88
kti@@ 88
felder 88
kirche 88
seid 88
male 88
zierten 88
fassen 88
kam@@ 88
nahrungs@@ 88
hafte 87
che@@ 87
positiv 87
gemeinschaften 87
wein@@ 87
besseres 87
kapitel 87
gol@@ 87
religionen 87
zus@@ 87
verstehe 87
digt 87
willen 87
mes 87
ther@@ 87
anten 87
wirkt 87
geschenk 87
schreibt 87
medi@@ 87
tel 87
erhöhen 87
zucker 87
meinte 87
müll@@ 87
momentan 87
pinguine 87
dienst 87
signal 87
stieg 87
studio 87
physiker 87
zeichnung 87
dna-@@ 87
zurückzu@@ 87
2007 86
änderungen 86
ße 86
zierte 86
instrument 86
proteine 86
inzwischen 86
privat@@ 86
blo@@ 86
autor 86
bemerken 86
rat@@ 86
tradition 86
nase 86
vieles 86
mus 86
erweitern 86
existenz 86
status 86
ausstellung 86
schneiden 86
medizin@@ 86
alismus 86
geholfen 86
gr@@ 86
schl@@ 86
wohlstand 86
nah@@ 86
tasche 86
nasa 86
plastik 86
darunter 86
gste 86
kä@@ 86
haften 86
gegenseitig 86
schiff 86
gemeinsame 86
blut@@ 86
weltweiten 86
liefern 86
regierungs@@ 86
schlüssel@@ 86
kleidung 86
tonnen 86
kat@@ 86
aufnehmen 86
ausgeben 86
glaubte 86
veränderte 86
aufs 85
pol@@ 85
theit 85
tin 85
beibringen 85
durchschnitt 85
auseinander 85
kabel 85
tanzen 85
ertes 85
lig 85
einfaches 85
konsequenzen 85
psychologie 85
glich 85
brust 85
twitter 85
automatisch 85
fasziniert 85
drucken 85
besitzt 85
blei@@ 85
dieselben 85
schn@@ 85
wovon 85
pfer@@ 85
steve 85
sicher@@ 85
lieren 85
indi@@ 84
marke 84
kameras 84
verwandelt 84
stand@@ 84
aussage 84
heim 84
weiterer 84
übernehmen 84
netz@@ 84
merken 84
hinzu 84
center 84
vermeiden 84
fortschritte 84
armee 84
enz 84
perfekte 84
schatten 84
froh 84
sorge 84
ta 84
konzentriert 84
ig 84
laptop 84
ss@@ 84
ali@@ 84
jung 84
spr@@ 84
interaktion 84
zent@@ 84
lebe 84
fakten 84
fingen 84
spro@@ 84
mittels 84
großartigen 84
realen 84
bericht 83
führ@@ 83
gewinn 83
dische 83
stag 83
annahme 83
restaurant 83
worum 83
kette 83
manchen 83
enthält 83
lächeln 83
mittlerweile 83
fehlt 83
tor@@ 83
literatur 83
debatte 83
din@@ 83
fach 83
tag@@ 83
dene 83
lebenden 83
außen@@ 83
brasilien 83
vorher@@ 83
durchführen 83
überwinden 83
hervor 83
mitteln 83
elektrische 83
irgendeine 83
schließt 83
erlebnis 83
kontrolliert 83
gere@@ 83
tritt 83
voraus 83
effizienz 83
kontinent 83
arbei@@ 83
folgenden 83
mikroben 83
bot@@ 83
digung 83
aufre@@ 83
chung 83
ant 83
therapie 83
organisieren 83
nde 83
gens 83
büro@@ 83
11. 83
verlauf 83
fürs 82
glücklicherweise 82
länge 82
rü@@ 82
ent 82
welten 82
betrieben 82
lehre 82
chter@@ 82
100.000 82
kugel 82
medizinischen 82
zit@@ 82
tab@@ 82
enorm 82
lebensmittel 82
insbesondere 82
mä@@ 82
mehrheit 82
ffen 82
soweit 82
internationale 82
graphie 82
gebäuden 82
volk 82
gefangen 82
nten 82
ernsthaft 82
nete 82
gebrochen 82
straßen@@ 82
afrikaner 82
ank@@ 82
aufgeregt 82
blaue 82
golf 82
trat 82
moral 82
dimensionen 82
blicken 82
kaufte 81
verbrechen 81
tigkeit 81
schau 81
worauf 81
zunehmen 81
musik@@ 81
organe 81
enthalten 81
arm@@ 81
haup@@ 81
ausgaben 81
ie@@ 81
regi@@ 81
ca@@ 81
test@@ 81
ator 81
nett 81
hof 81
spektrum 81
eng@@ 81
heits@@ 81
wünschte 81
ingenieure 81
lt 81
ehr@@ 81
glücklicher 81
faszinierend 81
ursprünglich 81
algorithmen 81
las@@ 81
magie 81
high 81
student 81
zweimal 81
starben 81
zo@@ 81
plat@@ 81
fantastische 81
vierte 81
lügen 80
tü@@ 80
lasse 80
risiko@@ 80
ähnlichen 80
wenigstens 80
berg@@ 80
aufgewachsen 80
hunde 80
unteren 80
10@@ 80
zeigten 80
macht@@ 80
waffe 80
leiter 80
verschwunden 80
west@@ 80
rand 80
umfeld 80
niedri@@ 80
branche 80
behaupten 80
nis 80
tiefen 80
böse 80
diger 80
beschrieben 80
chinesen 80
fein@@ 80
kap@@ 80
kommen@@ 80
bli@@ 80
entfernung 80
sichtbar 80
komm 80
diert 80
inspiration 80
spät 80
robert 79
noten 79
spei@@ 79
hunger 79
beenden 79
räumen 79
wissenschaften 79
dargestellt 79
nachzu@@ 79
schäd@@ 79
human@@ 79
medium 79
musiker 79
seltsame 79
gewisser 79
betreiben 79
fünf@@ 79
besagt 79
farb@@ 79
ationen 79
vogel 79
änderung 79
besorgt 79
jener 79
geschäfte 79
einstellung 79
seele 79
bas@@ 79
lichkeiten 79
francisco 79
ve@@ 79
weshalb 79
heiten 79
gespräche 79
krieges 79
schä@@ 79
gemeinsamen 79
spen@@ 79
anz 79
bor@@ 79
flo@@ 79
schwarz 79
vorbereitet 79
derer 78
verhaltens@@ 78
ven 78
gedicht 78
gewählt 78
chter 78
funktionierte 78
eindeutig 78
anschaut 78
leuchten 78
ris@@ 78
verschmutzung 78
nachgedacht 78
nahen 78
pakistan 78
vorteile 78
männchen 78
steine 78
schie@@ 78
brei@@ 78
chancen 78
tot@@ 78
zü@@ 78
liert 78
miss@@ 78
systemen 78
starken 78
alisieren 78
gerechtigkeit 78
etc. 78
innovationen 78
darstellung 78
0ern 78
gemälde 78
internet@@ 78
motor@@ 78
lebende 78
indischen 78
2010 78
schlug 78
sonder@@ 78
jahrzehnt 78
kn@@ 77
nebenbei 77
sm@@ 77
spar@@ 77
konta@@ 77
preise 77
bank@@ 77
aktivitäten 77
pferd 77
mas@@ 77
gro@@ 77
dauern 77
university 77
angeht 77
kostenlos 77
bein@@ 77
langsamer 77
zusätzlich 77
schein 77
designs 77
wahrnehmen 77
b. 77
mensch@@ 77
interessanter 77
dh 77
2005 77
zes 77
mau@@ 77
bibel 77
bot 77
fis@@ 77
fokus 77
tja 77
chaos 77
erinnerung 77
ford 77
gener@@ 77
niveau 77
höhere 77
pas@@ 77
zerstörung 77
investitionen 77
haie 77
buchstaben 77
epidemie 77
zehn@@ 77
produ@@ 77
unver@@ 77
flächen 77
stil 77
ökosystem 76
presse 76
geteilt 76
mathematiker 76
ansieht 76
brust@@ 76
schu@@ 76
probe 76
demo@@ 76
arbeit@@ 76
womit 76
voneinander 76
world 76
verglichen 76
ast 76
mieren 76
reduziert 76
mitnehmen 76
gottes 76
katastrophe 76
vielmehr 76
programmieren 76
eingeladen 76
ägypten 76
igkeit 76
genetischen 76
nung 76
mern 76
ereignis 76
weisheit 76
wechsel 76
sport 76
x-@@ 76
machst 76
gesamt@@ 76
kümmert 76
sü@@ 76
küche 76
üb@@ 76
schichten 76
ehe 76
trafen 76
entdeckungen 76
trug 76
geschlagen 76
wahr@@ 76
alternative 76
milch 76
bemerkte 76
wär@@ 76
hinzufügen 75
verursachen 75
bedrohung 75
potenzial 75
aktion 75
trick 75
sozi@@ 75
feiern 75
mischen 75
niemanden 75
oten 75
harvard 75
neten 75
klar@@ 75
ik 75
träumen 75
wichtiges 75
blumen 75
youtube 75
anscheinend 75
kun@@ 75
ischem 75
lokale 75
sport@@ 75
co 75
metern 75
autor@@ 75
sende 75
seln 75
zer 75
wurzeln 75
scheinbar 75
mc@@ 75
schaften 75
arabischen 75
für@@ 75
teilweise 75
eingeführt 75
decken 75
batterie 75
neben@@ 75
deck@@ 75
hm 75
stän@@ 75
drogen 75
speziell 75
cm 75
dame 75
definiert 75
dün@@ 74
schießen 74
art. 74
ppt 74
mächtig 74
respekt 74
tiver 74
stift 74
gien 74
kulturelle 74
überraschung 74
stin 74
könig 74
bibliothek 74
verliert 74
hinterlassen 74
bü@@ 74
ökonomen 74
kre@@ 74
pel 74
erforscht 74
gewe@@ 74
boston 74
planen 74
darstellt 74
stahl 74
magne@@ 74
winter 74
verfolgt 74
stro@@ 74
schlägt 74
vermögen 74
ereignisse 74
ähnliches 74
fügen 74
schweden 74
anti-@@ 74
mangel 74
grundlegenden 74
aspekte 74
islam 74
feuer@@ 74
pen 74
computern 74
tiefer 74
teren 74
teure 74
gesammelt 74
anische 74
paris 74
obje@@ 74
biologische 74
erhielt 74
schwarz@@ 74
drittens 74
dahinter 74
letzter 74
älteren 74
einfachheit 74
hl 74
koordin@@ 74
regel@@ 74
suchte 73
pat@@ 73
on-@@ 73
hieß 73
zufrieden 73
gericht 73
spiegel@@ 73
legte 73
resultate 73
erkrankungen 73
spuren 73
zin@@ 73
teufel 73
dynamik 73
lebenserwartung 73
leg@@ 73
ursache 73
unterwegs 73
zä@@ 73
wem 73
größ@@ 73
ori@@ 73
wände 73
beschreibt 73
rad 73
komponenten 73
komplexen 73
lebendig 73
beachten 73
dü@@ 73
hab@@ 73
fliegt 73
fre@@ 73
wolken 73
roll@@ 73
jahrzehnten 73
schwierige 73
acht@@ 73
gri@@ 73
billionen 73
tion 73
genügend 73
vorstellungskraft 73
instrumente 73
den-@@ 73
berge 73
hren 72
aku@@ 72
schrei@@ 72
techniken 72
binden 72
ps 72
lenken 72
nahme 72
live 72
winzig 72
hlen 72
industri@@ 72
kel 72
militär 72
täuschung 72
such@@ 72
stadt@@ 72
geburtstag 72
ziel@@ 72
dunkel 72
flügel 72
brief 72
empfin@@ 72
funk@@ 72
begegnen 72
hil@@ 72
17@@ 72
funktionen 72
bit@@ 72
ruhe 72
dien@@ 72
gleichung 72
kohle 72
antwortete 72
plattform 72
fliege 72
klo@@ 72
ära 72
island 72
ältere 72
lung 72
fle@@ 72
ca 72
gemein@@ 72
fahrzeuge 72
leichter 72
militär@@ 72
dunkelheit 72
basierend 72
welle 72
isieren 72
plastik@@ 72
geleitet 72
mama 72
hotel 72
sonnenlicht 72
informations@@ 72
sat@@ 72
ausrüstung 72
pläne 72
deiner 72
vo@@ 71
artigen 71
akt 71
3d-@@ 71
problems 71
sechs@@ 71
oni@@ 71
schlag@@ 71
derselben 71
weite 71
iges 71
ernähren 71
gabe 71
eigenschaft 71
schicksal 71
neuigkeiten 71
doppelt 71
eri@@ 71
riesen@@ 71
wärme 71
anstieg 71
anzusehen 71
ologe 71
vorge@@ 71
liefert 71
scha@@ 71
sel@@ 71
stiftung 71
betroffen 71
stet 71
tlich 71
bedeutete 71
benden 71
schild 71
global 71
umständen 71
dat@@ 71
zusammenarbeiten 71
erhöht 71
lungen 71
treibt 71
anwendungen 71
hne 71
infiziert 71
beteiligt 71
schrieben 71
log@@ 71
anlagen 71
wunderschöne 71
berechnen 71
offenen 71
wan@@ 71
schte 71
bezeichnen 71
spezielle 71
bf 70
zuschauer 70
gele@@ 70
res@@ 70
geistes@@ 70
steuer@@ 70
eier 70
trieb 70
operationen 70
hiv-@@ 70
tru@@ 70
king 70
kation 70
ech@@ 70
echtzeit 70
linge 70
bewohner 70
inspirieren 70
ktes 70
bricht 70
zufall 70
analy@@ 70
do 70
handys 70
vorhin 70
kosten@@ 70
übersetzen 70
star 70
visuelle 70
umgeben 70
berühm@@ 70
wunderbaren 70
nachbarschaft 70
vorgang 70
zeichnet 70
pflanze 70
box 70
21 70
pfei@@ 70
drehte 70
lige 70
klinik 70
fressen 70
freund@@ 70
cent 70
raub@@ 70
schle@@ 70
fehlen 70
zung 70
bemerkenswert 70
ed@@ 70
bru@@ 70
einst 70
blin@@ 70
moral@@ 70
besonderen 70
chicago 70
jahrzehnte 70
schaue 70
haiti 70
population 70
see@@ 70
af@@ 70
tom 69
kung 69
heu@@ 69
anpassen 69
grau@@ 69
streiten 69
mmen 69
depression 69
kriti@@ 69
störungen 69
weiten 69
nei@@ 69
späten 69
ursprung 69
berühren 69
technischen 69
alisierung 69
zeich@@ 69
nannten 69
heiß 69
pres@@ 69
gab@@ 69
artige 69
wirft 69
köpfe 69
ed 69
moralischen 69
veröffentlichen 69
ff 69
präsidenten 69
zentrale 69
schwere 69
zusammenzu@@ 69
verdient 69
still 69
beigebracht 69
symbol 69
inner@@ 69
kurz@@ 69
0,@@ 69
chemische 69
wolke 69
meister@@ 69
hung 69
budget 69
dunklen 69
griff 69
kationen 69
stigen 69
schlussendlich 69
mark 69
auswahl 69
packen 69
hyper@@ 69
sech@@ 69
trock@@ 69
verein@@ 69
wahlen 69
stoppen 69
organisiert 69
maß 69
ler@@ 68
traurig 68
gesetz@@ 68
werbe@@ 68
golf@@ 68
bewe@@ 68
dinger 68
mehreren 68
öffnet 68
beruf 68
bs 68
j 68
gebrauch 68
fasst 68
bezeichnet 68
bären 68
nationale 68
trennen 68
deln 68
ergeben 68
krei@@ 68
geruch 68
kolle@@ 68
gleichgewicht 68
philosophie 68
sper@@ 68
anlage 68
kreativen 68
besucht 68
isierung 68
hier@@ 68
implan@@ 68
spe@@ 68
abgesehen 68
gewöhnt 68
afrikanische 68
knapp 68
falschen 68
ass 68
meer@@ 68
klassenzimmer 68
ans@@ 68
wozu 68
dert 68
klima 68
interessanten 68
ball@@ 68
eres 68
d. 68
letztlich 68
drauf 68
stock 68
studiert 68
neigen 68
heran 68
weltraum 68
besuchte 68
erneut 68
decke 68
ap@@ 68
verwendung 68
studium 68
fahrzeug 67
anführer 67
dienen 67
mie@@ 67
mö@@ 67
oberen 67
wander@@ 67
sender 67
del 67
ländlichen 67
flüssigkeit 67
sar@@ 67
packt 67
gal@@ 67
angeles 67
bewahren 67
bel 67
dliche 67
zy@@ 67
weltkrieg 67
trä@@ 67
bene 67
ierten 67
geworfen 67
ör@@ 67
riesiges 67
radi@@ 67
dienst@@ 67
medien@@ 67
kei@@ 67
peter 67
mung 67
funktion@@ 67
teilung 67
training 67
teilnehmer 67
taucht 67
hinblick 67
reg@@ 67
elektrischen 67
zufriedenheit 67
ari@@ 67
flugzeuge 67
samkeit 67
gerung 67
fließen 67
vergangenen 67
wünsche 67
mag@@ 67
isi@@ 67
ktive 67
altern 67
obama 67
schlu@@ 67
zunehmend 67
abstra@@ 67
insgesamt 66
schwan@@ 66
erwärmung 66
dur@@ 66
blasen 66
19 66
dri@@ 66
sum@@ 66
furcht@@ 66
genießen 66
eigentliche 66
kreative 66
teilte 66
circa 66
auff@@ 66
scheitern 66
zeitraum 66
stamm 66
reiche 66
organismus 66
2009 66
gene@@ 66
ard 66
ina 66
frucht@@ 66
konfrontiert 66
verkehrs@@ 66
al-@@ 66
un 66
chi@@ 66
sol@@ 66
bus@@ 66
angriff 66
blind 66
blätter 66
party 66
voran@@ 66
diges 66
ehre 66
beides 66
lü@@ 66
chtes 66
trans@@ 66
uren 66
musi@@ 66
wissenschaftlern 66
kommunikations@@ 66
plätze 66
pra@@ 66
katze 66
1000 66
altes 66
empfinden 66
mati@@ 66
skali@@ 66
gerufen 66
kindes 66
gegenden 66
ktionen 66
irgendwelche 66
kalt 66
biologen 66
flog 66
langweilig 66
tele@@ 66
umzugehen 66
lat@@ 66
teenager 65
symmetrie 65
fett 65
erinnerungen 65
aufbau 65
chinesischen 65
zählt 65
feind 65
vorschlag 65
gendes 65
neulich 65
identifizieren 65
14@@ 65
selbe 65
begreifen 65
irgendeinem 65
hle 65
erer 65
maße 65
tigung 65
dungs@@ 65
allgemein@@ 65
zentren 65
reaktionen 65
herunter 65
bewirken 65
meister 65
belohnung 65
schlechtes 65
alter@@ 65
lin 65
bern 65
außergewöhnlich 65
ausgesetzt 65
übung 65
saßen 65
interessanterweise 65
gesundheit@@ 65
greift 65
zukommen 65
grei@@ 65
xi@@ 65
offene 65
versteckt 65
bevölkerungs@@ 65
biologischen 65
emotionale 65
el-@@ 65
wälder 65
physi@@ 65
zie@@ 65
zuzu@@ 65
half 65
streit@@ 65
vorsichtig 65
käfer 64
2004 64
stille 64
erklärte 64
teilten 64
wale 64
könne 64
positiven 64
üben 64
klu@@ 64
versorgen 64
street 64
physische 64
nervös 64
fließt 64
mat@@ 64
fil@@ 64
tenden 64
bekämpfen 64
magazin 64
geschmack 64
vielfäl@@ 64
zweifel 64
gras@@ 64
0.000 64
hte 64
kontroll@@ 64
figur 64
verb@@ 64
2006 64
27 64
kab@@ 64
gold 64
gerettet 64
teu@@ 64
texas 64
punkten 64
char@@ 64
krab@@ 64
erwähnen 64
frequenz 64
gemüse 64
bele@@ 64
papier@@ 64
esen 64
wartet 64
hassen 64
tives 64
maßnahmen 64
kohlenstoff 64
tz 63
fet@@ 63
tiker 63
stärken 63
blü@@ 63
jeweils 63
muskeln 63
in-@@ 63
kasten 63
.000 63
wundervolle 63
sil@@ 63
ausmachen 63
frankreich 63
lebensmittel@@ 63
gedächtnis 63
ci@@ 63
abhängigkeit 63
zentral@@ 63
general 63
symptome 63
frem@@ 63
hoher 63
repräsentiert 63
kb 63
pollen 63
ausdrücken 63
winkel 63
aktuelle 63
berechnungen 63
blau@@ 63
zone 63
verschiedener 63
has@@ 63
schickte 63
spur 63
drückt 63
stirbt 63
lli@@ 63
tierten 63
go 63
tter 63
brü@@ 63
gefüllt 63
cken@@ 62
videospiele 62
höchsten 62
ack@@ 62
zukünftigen 62
entscheidend 62
willkommen 62
kreb@@ 62
sprung 62
erfüllen 62
kreislauf 62
matische 62
christ@@ 62
eg@@ 62
chip 62
sogenannten 62
frie@@ 62
grippe 62
katastrophen 62
zwischen@@ 62
stab@@ 62
wirklichen 62
haare 62
ou@@ 62
hn 62
irgend@@ 62
schli@@ 62
weltbevölkerung 62
getrennt 62
dichter 62
spannung 62
sichtweise 62
füße 62
dazwischen 62
gewann 62
zugeben 62
beglei@@ 62
heilen 62
verschwindet 62
mei@@ 62
rech@@ 62
seide 62
ors 62
trage 62
impf@@ 62
projekten 62
la 62
ingenieur 62
poli@@ 62
195@@ 62
best@@ 62
zur@@ 62
britischen 62
wü@@ 62
terin 62
architekt 62
brau@@ 62
geh@@ 62
spenden 62
vorträge 62
physischen 62
interessen 62
bewegungs@@ 62
begrenzt 62
tes@@ 62
jenseits 62
verrückte 62
knochen@@ 62
höhepunkt 62
polio 62
argument 62
sions@@ 62
hinauf 62
trei@@ 62
hor@@ 62
visuellen 62
glei@@ 62
sogenannte 62
beitrag 61
tisches 61
50.000 61
gestartet 61
verschieden 61
vergnügen 61
dient 61
ele@@ 61
vieren 61
bekannte 61
reich@@ 61
erfassen 61
wur@@ 61
stimm@@ 61
kapitalismus 61
entgegen@@ 61
gelt 61
denselben 61
gegenüber@@ 61
detail 61
motivation 61
gewöhnlich 61
ander@@ 61
lehrern 61
app@@ 61
emissionen 61
winzigen 61
kaputt 61
dä@@ 61
umzu@@ 61
stufen 61
essen@@ 61
dollar-@@ 61
gelb 61
gedanken@@ 61
dens 61
0@@ 61
erenden 61
hm@@ 61
zurückgehen 61
et 61
tende 61
globalisierung 61
staats@@ 61
entstehung 61
sammlung 61
erfinder 61
fotografiert 61
traditionelle 61
bösen 61
aufstieg 61
diabetes 61
adam 61
weltall 61
trend 61
glaubten 61
hoben 61
ruft 61
gesunde 61
gebildet 61
erre@@ 61
russland 61
th 61
amp 61
wieviele 61
handlung 61
auftrag 61
glo@@ 61
zig 61
weibliche 61
cor@@ 61
strecken 61
eien 61
mechanismus 61
kongo 61
ghana 61
fro@@ 61
logik 61
anruf 61
eten 61
kuchen 61
zugleich 61
tee 61
umso 61
doppel@@ 60
zeichnungen 60
berichtet 60
unterstütz@@ 60
flie@@ 60
hang 60
neur@@ 60
22 60
kamer@@ 60
sternen 60
summe 60
ruhig 60
zeichnete 60
irgendwas 60
billig 60
vogel@@ 60
poster 60
sitze 60
denkweise 60
schätzung 60
effe@@ 60
rö@@ 60
fung 60
ausgegeben 60
hr 60
benutze 60
prozesse 60
ktoren 60
protein 60
bahn@@ 60
benutzten 60
glichen 60
mende 60
kanal 60
andererseits 60
universitäten 60
rum 60
gründete 60
wein 60
auseinander@@ 60
herauszu@@ 60
ignorieren 60
investiert 60
sms 60
stamm@@ 60
theorien 60
bekann@@ 60
benutzte 60
institut 60
teleskop 60
kultur@@ 60
stämme 60
block 60
macher 60
ese 60
bart 60
z. 60
währ@@ 60
atoren 60
iphone 60
einheiten 60
bens 60
endet 60
fasern 60
persönlichkeit 60
e-mail 60
minister 60
syste@@ 60
0er 60
selb@@ 60
gold@@ 60
verbrauch 60
echtes 60
eng 60
ener 60
mus@@ 59
hinunter 59
lernten 59
alisierten 59
west 59
krie@@ 59
wahren 59
schafts@@ 59
pun@@ 59
erwartungen 59
näch@@ 59
sequenz 59
schöner 59
besitz 59
ations@@ 59
anbieten 59
higgs-@@ 59
eti@@ 59
hitze 59
ten-@@ 59
fache 59
grundlegend 59
frank 59
prü@@ 59
brand@@ 59
messer 59
gru@@ 59
ausnahme 59
höchste 59
führungs@@ 59
geraten 59
diesmal 59
szene 59
kulturellen 59
gucken 59
versprechen 59
ungspro@@ 59
pe 59
dumm 59
schnelle 59
lam@@ 59
gst 59
schwerer 59
verletzungen 59
nie@@ 59
inklusive 59
geheim@@ 59
falle 59
filmen 59
schlei@@ 59
erdbeben 59
strecke 59
effizient 59
i-@@ 59
bran@@ 59
elefanten 59
zurückkehren 59
pflege 59
lichter 59
spä@@ 59
wiederhol@@ 59
schten 59
ra 59
wetter 59
kolonie 59
oxford 59
real 59
sprecher 59
gewi@@ 59
gib 59
effekte 59
blog 59
kranken@@ 59
wiederholt 59
pflanzen@@ 59
exakt 59
verk@@ 59
tik 59
schwe@@ 59
stop@@ 59
liest 59
wiederholen 58
tolles 58
span@@ 58
statistik 58
mel 58
köpfen 58
miert 58
ttert 58
pause 58
gehei@@ 58
nachhaltige 58
design@@ 58
zeitungen 58
deckt 58
rie 58
ket@@ 58
stö@@ 58
verließ 58
diskutieren 58
.com 58
uganda 58
knopf 58
tere 58
umstände 58
doktor 58
ens@@ 58
ante 58
profitieren 58
hnt 58
val@@ 58
verbesserung 58
dlichen 58
interak@@ 58
roh@@ 58
vis@@ 58
häu@@ 58
gering@@ 58
glückliche 58
fabriken 58
oran@@ 58
begriffen 58
nachrichten@@ 58
babies 58
keinem 58
mini@@ 58
2003 58
schlimm 58
schwanz 58
bat@@ 58
rechner 58
sierung 58
est@@ 58
gie@@ 58
2001 58
kehrt 58
höheren 58
reparieren 58
januar 58
künstliche 58
95 58
güter 58
ling 58
teils 58
ing 58
blickwinkel 58
freu@@ 58
transparenz 58
drogen@@ 58
komplizierte 58
atem@@ 58
das@@ 58
beweg@@ 58
uni 58
reichtum 58
gegenstand 58
streit 58
za@@ 58
folgte 58
reicher 58
nas@@ 57
sieb@@ 57
jugend 57
überzeu@@ 57
dieren 57
fließ@@ 57
pac@@ 57
harte 57
… 57
nachhal@@ 57
dienstleistungen 57
zwingen 57
kts 57
wil@@ 57
20.000 57
kräf@@ 57
schein@@ 57
entwicklungsländer 57
sha@@ 57
250 57
nachdenkt 57
kg 57
m-@@ 57
vertrau@@ 57
werdet 57
defini@@ 57
säu@@ 57
konflikte 57
angetrieben 57
haut@@ 57
1. 57
microsoft 57
väter 57
leistungen 57
umgang 57
gieren 57
gur@@ 57
korallen 57
strand 57
co2-@@ 57
nerven 57
konsum 57
lieder 57
knoten 57
strategien 57
treib@@ 57
ausschließlich 57
mmer@@ 57
aner 57
gegessen 57
radio 57
gross@@ 57
übertragung 57
gebung 57
maßen 57
erstaun@@ 57
motoren 57
wohnen 57
veran@@ 57
start 57
mikroskop 57
&amp; 57
entscheidende 57
keln 57
fei@@ 57
-jährige 57
bip 57
angesichts 57
ette 57
analysieren 57
il 57
dam@@ 57
origami 57
vir@@ 57
beln 57
bescheid 57
prototypen 56
brustkrebs 56
handlungen 56
mein@@ 56
tliche 56
sicherer 56
sag 56
optimismus 56
dy 56
jenen 56
zug@@ 56
aufrecht 56
erledigt 56
schreibe 56
stün@@ 56
ausmacht 56
dienste 56
intuition 56
uni@@ 56
kleinere 56
eröffnet 56
experiment@@ 56
plus 56
tauschen 56
tricks 56
erlangen 56
nimm 56
knie 56
roman@@ 56
wissen@@ 56
würdest 56
700 56
technische 56
berühmt 56
probieren 56
neugierig 56
stammen 56
dutzend 56
halben 56
rum@@ 56
pin@@ 56
güte 56
dauer 56
benen 56
figuren 56
schlimmsten 56
gestaltung 56
europäischen 56
geblieben 56
sozialer 56
jung@@ 56
kiste 56
beschä@@ 56
schwarzes 56
vari@@ 56
gezwungen 56
linke 56
landete 56
matischen 56
bedeckt 56
allgemein 56
martin 56
tlichen 56
fla@@ 56
geh 56
früheren 56
chirurgen 56
weitermachen 56
va 56
extra@@ 56
schreib@@ 56
quanten@@ 56
sion 56
ate@@ 56
schulter 56
verbrauchen 56
bergen 56
gert 56
0-@@ 56
becken 56
flaschen 55
kreiert 55
2.000 55
hinweise 55
valley 55
englischen 55
eingehen 55
gesunden 55
anzeige 55
kühl@@ 55
weltweite 55
religiöse 55
schlau 55
post@@ 55
störung 55
letz@@ 55
waschen 55
hi 55
scho@@ 55
ausser@@ 55
ack 55
abendessen 55
gipfel 55
nationalen 55
wundervoll 55
nachhaltigkeit 55
autismus 55
speicher 55
verletz@@ 55
materi@@ 55
tiv@@ 55
derek 55
moder@@ 55
entschuldigung 55
uns@@ 55
verlangt 55
reagiert 55
hirn 55
fau@@ 55
fordern 55
ats 55
wellen@@ 55
forschungen 55
kauft 55
zurückkommen 55
gerü@@ 55
süß@@ 55
verdi@@ 55
wandern 55
wünschen 55
design-@@ 55
deinem 55
top@@ 55
tat@@ 55
super 55
verbraucht 55
intelligente 55
dick 55
800 55
kol@@ 55
klassen@@ 55
23 55
bewegte 55
pre@@ 55
veränder@@ 55
st-@@ 55
förder@@ 55
verliebt 55
kas@@ 55
erzeu@@ 55
privaten 55
can@@ 55
hre 55
standpunkt 55
einziges 55
wohlbefinden 55
ratten 55
konzepte 55
atome 55
festgestellt 55
ge-@@ 55
gere 55
heil@@ 55
apple 55
deu@@ 55
visu@@ 54
unterhalb 54
gefängnis@@ 54
allgemeine 54
rechnung 54
ttern 54
danken 54
jährlich 54
umfas@@ 54
durchzuführen 54
bord 54
nochmals 54
heiraten 54
skraft 54
chirurg 54
tauch@@ 54
bereit@@ 54
lar@@ 54
aber@@ 54
sprü@@ 54
ministerium 54
konsumenten 54
schna@@ 54
schiff@@ 54
streifen 54
preis@@ 54
matik 54
geschle@@ 54
26 54
gelaufen 54
stad@@ 54
fremden 54
gesichts@@ 54
tigt 54
angebot 54
tony 54
mische 54
h-@@ 54
mochte 54
ebenen 54
ältesten 54
hinweis 54
grenz@@ 54
se-@@ 54
draussen 54
fordert 54
einzigartig 54
wach@@ 54
ktiv 54
jagen 54
praxis 54
atem 54
te-@@ 54
revolution@@ 54
abends 54
anreize 54
trainieren 54
nerven@@ 54
beitragen 54
schreckliche 54
überprüfen 54
manager 54
grä@@ 54
tote 54
fahrrad 54
komm@@ 54
westliche 54
hinsichtlich 54
gefä@@ 54
stischer 54
entwurf 54
reis 54
vorn 54
kalten 54
ersetzt 54
bedeutend 54
entdeckten 54
brüder 54
nahezu 54
fotografie 54
indiens 54
stige 54
dom@@ 54
120 54
mur@@ 54
geöffnet 53
chert 53
ah@@ 53
vorder@@ 53
schaffte 53
.. 53
aufregende 53
enormen 53
stern@@ 53
z-@@ 53
unternehmer@@ 53
2. 53
außergewöhnliche 53
grafie 53
dialog 53
hersteller 53
angel@@ 53
gemessen 53
weibchen 53
gam@@ 53
ier@@ 53
hum@@ 53
bier 53
befreien 53
auswirkung 53
politisch 53
angehen 53
zentimeter 53
lebensqualität 53
oktober 53
ängste 53
änderte 53
ün@@ 53
quer@@ 53
katzen 53
verab@@ 53
bedienen 53
private 53
behörde 53
ausgebildet 53
65 53
zucker@@ 53
redu@@ 53
beinen 53
errichten 53
marketing 53
übersetzt 53
aktu@@ 53
sc@@ 53
kongress 53
ballon 53
vieler 53
schlange 53
klingen 53
erfordert 53
röntgen@@ 53
spieler@@ 53
yorker 53
illusion 53
uss 53
rio 53
nachfrage 53
gerei@@ 53
open 53
bronx 53
2,@@ 53
beschreibung 53
einrichtung 53
vorwärts 53
zusätzliche 53
selektion 53
uten 53
organ 53
hingehen 53
schall@@ 53
losigkeit 53
gewalt@@ 53
schienen 53
psycho@@ 53
quadrat 53
ligen 53
anfängt 53
zweites 53
schwestern 53
elen 53
beizu@@ 53
klas@@ 53
pp 53
gewinnt 52
sach@@ 52
kum@@ 52
organis@@ 52
trends 52
schuf 52
komisch 52
enti@@ 52
gebäudes 52
om 52
chef 52
stanford 52
sitz@@ 52
listen 52
schlimmste 52
euer 52
korea 52
drucker 52
gewöhnliche 52
spitzen 52
spielten 52
bedürfnis 52
mobil@@ 52
amerikas 52
großvater 52
erinnerte 52
vorgestellt 52
sensoren 52
kit@@ 52
vierten 52
berechnung 52
impfstoff 52
last 52
hir@@ 52
betrieb 52
kohle@@ 52
att@@ 52
erwä@@ 52
legten 52
durfte 52
unterwasser@@ 52
unterscheidet 52
ansichten 52
bandbreite 52
endete 52
antrieb 52
geschü@@ 52
toilette 52
asse 52
onkel 52
isten 52
senken 52
kredit@@ 52
massen 52
meere 52
dramatisch 52
standard@@ 52
ute 52
12@@ 52
tages@@ 52
bemerkenswerte 52
wunderschönen 52
humor 52
dose 52
äuß@@ 52
ce@@ 52
hell@@ 52
wunderschön 52
involviert 52
lehnen 52
besonderes 52
institute 52
offenheit 52
schnell@@ 52
seil 52
ssi@@ 52
lehrerin 52
unterhalten 52
symboli@@ 52
nachhaltig 52
ungeheuer 52
kombinieren 52
32 52
kel@@ 52
zyklus 52
chteten 52
mannes 52
schnitt@@ 52
produkten 52
sir 52
räum@@ 52
mark@@ 52
stress 52
ausgabe 52
theore@@ 51
investition 51
sicherstellen 51
füßen 51
tte 51
negativ 51
konkre@@ 51
ktiven 51
perfe@@ 51
les 51
inhalte 51
volles 51
ring 51
taschen 51
ruanda 51
brenn@@ 51
gat@@ 51
stände 51
ungewöhnlich 51
finanziert 51
wut 51
ns 51
tumor@@ 51
verwand@@ 51
leit@@ 51
durchmesser 51
ursprüngliche 51
inmitten 51
futter 51
geräten 51
erfüllt 51
wild@@ 51
hmen 51
kräften 51
gkeiten 51
tisch@@ 51
schnei@@ 51
beträgt 51
auszudrücken 51
kindersterblichkeit 51
dreimal 51
gerissen 51
übt 51
erfuhr 51
ologische 51
dimension 51
hai 51
mittelpunkt 51
mischung 51
sung 51
prozesses 51
abenteuer 51
sex@@ 51
erfindungen 51
hot@@ 51
löst 51
schnee 51
echter 51
anstellen 51
kapit@@ 51
mes@@ 51
aktuellen 51
führenden 51
unendlich 51
verbrennen 51
nungen 51
strahl@@ 51
lücke 51
dringen 51
beziehen 51
beginne 51
ausgehen 51
zuletzt 51
finger@@ 51
song 51
regelmäßig 51
lungen@@ 51
tür@@ 51
stau@@ 51
chtung 51
bedro@@ 51
kopie 51
verdammt 51
ameise 51
tät 51
befrie@@ 51
zierung 51
getestet 51
skulptur 51
faszinierende 51
hilfsmittel 51
joe 51
kni@@ 51
tens 51
gleichheit 51
wütend 51
watt 51
sur@@ 51
ketten 51
austausch 51
neun@@ 51
disch 51
tragödie 51
schafften 51
geno@@ 51
anders@@ 51
arti@@ 51
poly@@ 51
terrorismus 51
herein 51
cker@@ 50
blick@@ 50
prote@@ 50
merkmale 50
potenti@@ 50
erkenn@@ 50
restaurants 50
aussterben 50
definitiv 50
wissenschafts@@ 50
nisse 50
alisi@@ 50
bedauern 50
stig 50
ungleichheit 50
sieben@@ 50
ko 50
kopieren 50
geburts@@ 50
schieben 50
verlor 50
stä@@ 50
untersuchungen 50
tode 50
16@@ 50
schläge 50
rad@@ 50
geschützt 50
mier@@ 50
vermute 50
perfekten 50
verarbeiten 50
wissens 50
objekten 50
isiert 50
scham 50
runter@@ 50
überlebt 50
dankbar 50
nähr@@ 50
-jährigen 50
erfahr@@ 50
bomben 50
durchschnitt@@ 50
gewal@@ 50
sauerstoff@@ 50
befür@@ 50
tar@@ 50
flüssi@@ 50
orchester 50
bac@@ 50
häusern 50
industrie@@ 50
besitzer 50
virtuellen 50
ana 50
ärmsten 50
blogs 50
neh@@ 50
schülern 50
kapazität 50
bäumen 50
van 50
kuh 50
abel 50
erledigen 50
zusammenge@@ 50
kenn@@ 50
n-@@ 50
chemischen 50
anhänger 50
deuten 50
großartiger 50
ohr 50
lärm 50
ordnen 50
tim 50
verbrei@@ 50
tetes 50
gore 50
öffnete 50
opti@@ 50
bahnen 50
radio@@ 50
erungs@@ 50
international 50
hypothese 50
mittagessen 50
frag@@ 50
verarbeitung 50
hit@@ 50
dür@@ 50
poesie 50
redet 50
kannten 50
schädel 50
goo@@ 50
sprech@@ 50
hindurch 50
stahl@@ 50
blö@@ 50
königin 50
gefolgt 50
bush 50
hebt 50
pyramide 50
pft 50
indische 50
klettern 50
zeugs 50
va@@ 50
heit@@ 50
erfand 50
betr@@ 50
ero@@ 50
besie@@ 50
angepasst 49
beschei@@ 49
gerüst 49
kohlenstoff@@ 49
wollt 49
erschien 49
halten@@ 49
schwei@@ 49
van@@ 49
misst 49
3.000 49
angestellten 49
stam@@ 49
tanz@@ 49
kter 49
allzu 49
schufen 49
verfügen 49
hör 49
prot@@ 49
zeug@@ 49
laptops 49
nütz@@ 49
brüche 49
kreativ 49
bedroht 49
strasse 49
überqueren 49
hol@@ 49
abteilung 49
rett@@ 49
verteilen 49
suchten 49
erziehung 49
aktiven 49
ware 49
umher@@ 49
rhythmus 49
polar@@ 49
geschlossen 49
bruch 49
post 49
howard 49
autoren 49
nan@@ 49
verdoppelt 49
üsse 49
geni@@ 49
explosion 49
strahlen 49
got@@ 49
seri@@ 49
angeschaut 49
großartiges 49
zeu@@ 49
glamour 49
richter 49
ück@@ 49
roman 49
liebt 49
graphi@@ 49
saturn 49
unsichtbar 49
vielzahl 49
schütteln 49
märkten 49
bungen 49
erstaunlichen 49
held 49
kreise 49
scheibe 49
technisch 49
elli@@ 49
gelehrt 49
öfter 49
gemeinschaft@@ 49
kapital@@ 49
chan@@ 49
soziales 49
zentr@@ 49
sy@@ 49
spü@@ 49
feld@@ 49
sozial 49
spa@@ 49
mr. 49
mr@@ 49
vermittelt 49
ted@@ 49
sendung 49
optimistisch 49
dig@@ 49
spiritu@@ 49
slo@@ 49
psychologen 49
hauses 49
dem@@ 49
lese 49
kehrte 49
stiegen 49
formel 49
ungs-@@ 49
dende 49
spiels 49
stets 49
irgendeiner 49
cambridge 49
anpassung 49
hut 49
15@@ 49
dn@@ 49
übergang 49
gelände 49
finanzieren 49
same 49
lächerlich 49
eisen@@ 49
ativen 49
tendenz 48
institution 48
behandlungen 48
bereiten 48
frieden@@ 48
beeindruckend 48
transplan@@ 48
di 48
papa 48
komplexer 48
unrecht 48
staatlichen 48
spektakul@@ 48
anzuschauen 48
ment 48
behaupte 48
balance 48
ase 48
minen 48
konzep@@ 48
belast@@ 48
feedback 48
ord@@ 48
gestaltet 48
teilnehmen 48
vereinten 48
freuen 48
bie@@ 48
florida 48
ray 48
dicht 48
energi@@ 48
emotionalen 48
gates 48
kreaturen 48
auftreten 48
jet@@ 48
optimi@@ 48
winzige 48
bon@@ 48
spo@@ 48
stech@@ 48
tempo 48
wüssten 48
wuchsen 48
widerspruch 48
bauer 48
brett 48
inn@@ 48
gle@@ 48
menschlichkeit 48
ast@@ 48
ders 48
gegenstände 48
relevant 48
verkauf 48
strafe 48
handelte 48
partei 48
fair 48
sensi@@ 48
klassische 48
billiger 48
mächtige 48
hlt 48
olo@@ 48
ausgewählt 48
taus@@ 48
discher 48
einwohner 48
wundervollen 48
virtu@@ 48
option 48
dre@@ 48
neugier 48
irgend 48
langwei@@ 48
zukünftige 48
stren@@ 48
einstellen 48
erkunden 48
berühmte 48
gehör 48
klin@@ 48
ves 48
taliban 48
kurse 48
pil@@ 48
fantastischen 48
pie@@ 48
schmerz@@ 48
sorgt 48
anzugehen 48
weinen 48
vielmals 48
aufzeichnungen 48
februar 48
gers 48
wodurch 48
deut@@ 48
ungsp@@ 48
rt 48
ek@@ 48
brian 48
é@@ 48
yo@@ 48
desig@@ 48
pt 48
rä@@ 47
formt 47
verbor@@ 47
gesucht 47
still@@ 47
schreibtisch 47
yp@@ 47
schwi@@ 47
mm 47
industriellen 47
anhalten 47
buches 47
maus@@ 47
platte 47
ständige 47
trauri@@ 47
predi@@ 47
zielen 47
einschließlich 47
zel@@ 47
enes 47
entropie 47
rin@@ 47
internets 47
stoß 47
erfol@@ 47
ppte 47
yeah 47
marken 47
täuschen 47
ungsprozess 47
chs@@ 47
einzigartige 47
alters@@ 47
titel@@ 47
sierte 47
werken 47
beendet 47
isst 47
3. 47
eröffnen 47
tollen 47
beschränkt 47
währung 47
läu@@ 47
simulation 47
terroristen 47
hoff@@ 47
schriftsteller 47
information@@ 47
erb@@ 47
fels 47
vortrags 47
moralisch 47
verwandten 47
bezieht 47
riff 47
fernseher 47
bir@@ 47
verhält 47
erzielen 47
städtischen 47
doktor@@ 47
tafel 47
sw 47
wes@@ 47
warte 47
front 47
nordamerika 47
festhalten 47
oberflächen 47
ät 47
fehler@@ 47
behörden 47
gewissermaßen 47
bürgermeister 47
initiative 47
une 47
kolli@@ 47
faszinier@@ 47
stie@@ 47
greif@@ 47
artig 47
jahres@@ 47
gelangt 47
lagern 47
gehend 47
nest 47
selbst-@@ 47
t. 47
verstän@@ 47
juni 47
vorkommen 47
kohlendioxid 47
denkst 47
pazifik 47
coole 47
büros 47
befassen 47
basierte 47
tätigkeit 47
berühmten 47
media 47
aut 47
voraussagen 47
1960 47
annahmen 47
setze 47
erforschung 47
gedreht 47
farm 47
türkei 47
geredet 47
herkunft 46
projekts 46
platten 46
tation 46
leeren 46
industrielle 46
drinnen 46
negative 46
italien 46
hef@@ 46
asteroiden 46
berechnet 46
reichweite 46
mün@@ 46
meln 46
schauspieler 46
neutr@@ 46
gesundheitssystem 46
fischer 46
kategorien 46
zustellen 46
initi@@ 46
ungssystem 46
stat@@ 46
milli@@ 46
präsentiert 46
schnitte 46
korrekt 46
gehalt 46
fuhren 46
unfälle 46
mond@@ 46
ladung 46
netzwerken 46
we 46
zuge@@ 46
schlaf@@ 46
leitungen 46
netze 46
reiste 46
getragen 46
kir@@ 46
dns 46
antarktis 46
dreh@@ 46
geladen 46
zelt 46
nutzten 46
jim 46
computer-@@ 46
fähi@@ 46
reißen 46
ärm@@ 46
weltbank 46
wa 46
stattfinden 46
bewer@@ 46
venti@@ 46
besteh@@ 46
zweiter 46
verringern 46
bombe 46
dustrie 46
hoffnungs@@ 46
urheber@@ 46
heimat 46
geri@@ 46
fremde 46
hs 46
überqu@@ 46
treppe 46
individuum 46
programmiert 46
spre@@ 46
kolonien 46
bestes 46
ktiver 46
umgekehrt 46
verzweiflung 46
stor@@ 46
kram 46
beobachtung 46
abfall 46
repräsentieren 46
dezember 46
pon@@ 46
tropfen 46
bö@@ 46
läch@@ 46
repli@@ 46
stete 46
halt@@ 46
comics 46
behälter 46
waffen@@ 46
logisch 46
wette 46
pm 46
hierbei 46
krist@@ 46
kandidaten 46
stür@@ 46
supermarkt 46
aussah 46
finanziellen 46
rb 46
inspiri@@ 46
muskel@@ 46
leere 46
tränen 46
bewusstseins 46
weh 46
betreten 46
manhattan 46
stel 46
prei@@ 46
wirbel@@ 46
digital 46
hölle 46
und@@ 46
bio-@@ 46
metall@@ 46
pet@@ 46
skulpturen 45
gereist 45
stru@@ 45
diagnose 45
drüber 45
id 45
alzheimer 45
schokolade 45
erwähnte 45
richtet 45
dire@@ 45
verbreitete 45
sicheren 45
entsprechend 45
solarenergie 45
fang 45
spezifische 45
mauern 45
tig@@ 45
bienen@@ 45
entschlossen 45
skelett 45
mangel@@ 45
intelligenten 45
wissens@@ 45
wohnung 45
komponente 45
um-@@ 45
heutige 45
stattfindet 45
parti@@ 45
time 45
kollabor@@ 45
wick@@ 45
tan 45
langes 45
auffassung 45
einkommens@@ 45
engagi@@ 45
energien 45
lab@@ 45
filter 45
schätze 45
stabilität 45
28 45
schwierigen 45
unmittel@@ 45
meint 45
ny 45
jenem 45
wissenschaftlich 45
fühlten 45
direktor 45
con@@ 45
smith 45
beliebt 45
programmier@@ 45
warf 45
abschließen 45
foundation 45
produktions@@ 45
ehemann 45
interpretation 45
besuch 45
fördert 45
chron@@ 45
gestiegen 45
aufmerksam 45
dien 45
age 45
ings 45
wörterbuch 45
lieb@@ 45
algorithmus 45
talen 45
unglücklicherweise 45
frühling 45
sich@@ 45
neuesten 45
individu@@ 45
irgendein 45
beu@@ 45
service 45
extra 45
vermis@@ 45
träger 45
mechanismen 45
schaf@@ 45
polizei@@ 45
kehr@@ 45
ey 45
raff@@ 45
sphäre 45
mithilfe 45
geometrie 45
rezept 45
13@@ 45
aufgeben 45
hlte 45
wachstums 45
auswählen 45
science 45
mitteilen 45
erhielten 45
metall 45
chst 45
gründer 45
ce 45
bewerten 45
nac@@ 45
gelegenheiten 45
ang 45
tale 45
gänge 45
steigern 45
zusehen 44
erst@@ 44
journalisten 44
umzusetzen 44
begleitet 44
apo@@ 44
genom@@ 44
abgeschlossen 44
wahn@@ 44
sinken 44
loser 44
homo 44
verfol@@ 44
obdach@@ 44
lege 44
lle 44
verrückten 44
sungen 44
einzusetzen 44
unterrichtet 44
tert 44
asi@@ 44
wet@@ 44
bringe 44
zwölf 44
kevin 44
stör@@ 44
jedesmal 44
atomenergie 44
wertvoll 44
gemis@@ 44
sprin@@ 44
gerin 44
töchter 44
6. 44
brille 44
gener 44
energieverbrauch 44
ki 44
abstand 44
änder 44
ly 44
ure 44
33 44
liter 44
leber 44
omen 44
fs 44
auftauchen 44
ini@@ 44
herein@@ 44
wasch@@ 44
zwanzig 44
unwahrscheinlich 44
17. 44
kooperation 44
vat@@ 44
ann 44
gefährliche 44
kungen 44
demokratischen 44
bakterium 44
kant 44
bewahr@@ 44
suppe 44
städ@@ 44
net@@ 44
tren@@ 44
tin@@ 44
80ern 44
technologische 44
fokussieren 44
betonen 44
kilo 44
ill@@ 44
pumpen 44
komplette 44
straf@@ 44
mode@@ 44
p-@@ 44
flächen@@ 44
betracht 44
beten 44
diktat@@ 44
homosexu@@ 44
mäßig 44
niedrig 44
schulden 44
präsentieren 44
eingeschlossen 44
haar 44
isch@@ 44
täglichen 44
85 44
ausschnitt 44
henry 44
infektionen 44
geschlecht 44
einführung 44
hinweisen 44
zoomen 44
anwälte 44
› 44
‹ 44
individuelle 44
diagnostiziert 44
pocken 44
anfän@@ 44
zwan@@ 44
nation@@ 44
mai 44
herrscht 44
feu@@ 44
eric 44
mauer 44
urknall 44
heimat@@ 44
gelbe 44
ankommt 44
intelligent 44
nachbar@@ 44
hai@@ 44
dere 44
fuer 44
transport@@ 44
gewachsen 44
freundlich 44
klappt 44
bob 44
gebunden 44
gelder 44
gemäß 44
erbe 44
höhle 44
verletzlichkeit 44
wachstums@@ 44
anzeichen 44
bol@@ 44
kreuz@@ 44
großeltern 44
wörtlich 44
transport 44
erei 44
lappen 44
widerstand 44
talent 44
züchten 44
überlebens@@ 44
ef@@ 44
taschen@@ 44
kauf@@ 44
graphen 44
aufwand 44
reale 44
ba 44
angekommen 44
gangs@@ 44
gerä@@ 44
elektronische 44
symbole 44
sexuelle 44
oel 44
boote 43
wachsende 43
drän@@ 43
isation 43
produktivität 43
unabhängige 43
b-@@ 43
skala 43
landes@@ 43
chinas 43
krat@@ 43
wasserstoff 43
larry 43
sammelt 43
zir@@ 43
veranstaltung 43
kreu@@ 43
orienti@@ 43
finanzierung 43
raumes 43
eben@@ 43
menschlich 43
endste 43
verschmu@@ 43
ep@@ 43
tötet 43
nirgendwo 43
umsetzen 43
verurteilt 43
chtern 43
frauen@@ 43
löwen 43
biosphäre 43
verschieden@@ 43
liegenden 43
zivili@@ 43
offenbar 43
entgegen 43
vielerlei 43
hall 43
web@@ 43
mustern 43
tor 43
it-@@ 43
tter@@ 43
ernten 43
schar@@ 43
park@@ 43
britische 43
prüfen 43
satelliten 43
alt@@ 43
wirtschaftswachstum 43
stadium 43
gelähmt 43
schenken 43
balken 43
zueinander 43
schickten 43
rauch 43
zulassen 43
koch@@ 43
ville 43
fotograf 43
halluzinationen 43
2050 43
ly@@ 43
süß 43
00@@ 43
kün@@ 43
hinaus@@ 43
gig 43
sendet 43
einnahmen 43
begab@@ 43
ktor 43
räder 43
holte 43
empathie 43
widmen 43
zit 43
fän@@ 43
zentralen 43
meile 43
zukunfts@@ 43
schwerkraft 43
rüber 43
öffentlich 43
kurzer 43
autorität 43
ernähr@@ 43
zten 43
werkzeugen 43
durchbruch 43
erfasst 43
beschützen 43
untere 43
anzug 43
landschaften 43
zweieinhalb 43
freiwilligen 43
management 43
goldene 43
brown 43
kommenden 43
alternativen 43
inieren 43
liebsten 43
bett@@ 43
fäden 43
analogie 43
panik 43
notwendigkeit 43
flogen 43
bell 43
angesicht 43
schmutz@@ 43
motivieren 43
säule 43
lincoln 43
studien@@ 43
zz@@ 43
zehen 43
kombiniert 43
kühe 43
angeboten 43
stück@@ 43
aufeinander 43
viertel@@ 43
marken@@ 43
verhalten@@ 42
synchron@@ 42
nissen 42
entsetz@@ 42
mmer 42
toren 42
band@@ 42
hügel 42
programmierer 42
wettbewer@@ 42
anten@@ 42
spielzeug 42
flughafen 42
käme 42
schätzt 42
zurzeit 42
erhe@@ 42
gewaltige 42
unsicherheit 42
islam@@ 42
gewöhnlichen 42
mikroskop@@ 42
einfluss@@ 42
stands 42
29 42
anliegen 42
darzustellen 42
real@@ 42
beding@@ 42
journalist 42
rettung 42
salz@@ 42
stärk@@ 42
sele@@ 42
stär@@ 42
konstruktion 42
subje@@ 42
nervenzellen 42
religiösen 42
beton@@ 42
leidet 42
ozeans 42
flut 42
heiße 42
lg 42
monat@@ 42
öhn@@ 42
großzü@@ 42
felsen 42
sinni@@ 42
schreien 42
sa 42
anerkennung 42
stephen 42
gewinn@@ 42
weist 42
kriegt 42
verkaufte 42
einblick 42
vergrößern 42
händler 42
marschi@@ 42
gesteuert 42
55 42
kalorien 42
merk@@ 42
dilemma 42
schlaf 42
kreis@@ 42
kleineren 42
durcheinander 42
fertig@@ 42
vertrag 42
konzentration 42
mo 42
sig@@ 42
seu@@ 42
° 42
natürlicher 42
volks@@ 42
cre@@ 42
kante 42
verletzt 42
hunderten 42
radikal 42
wunderbares 42
kluft 42
sinkt 42
net 42
antibiotika 42
ecken 42
chtete 42
konsumieren 42
äthiopien 42
1990 42
blieben 42
hilfreich 42
trainiert 42
dy@@ 42
samer 42
freiwillige 42
sicherzustellen 42
dauer@@ 42
vergleich@@ 42
jenes 42
gelang 42
ehren 42
ppen@@ 42
staub 42
ty@@ 42
identi@@ 42
ama@@ 42
griffen 42
werk@@ 42
runden 42
kund@@ 42
überzeugung 42
trü@@ 42
kore@@ 42
for 42
2002 41
bildschir@@ 41
typische 41
belieb@@ 41
esse 41
mio. 41
fotografieren 41
klinische 41
integriert 41
künstlerin 41
verhindert 41
fleisch@@ 41
litt 41
kabel@@ 41
berichte 41
genome 41
tour 41
studierenden 41
eig@@ 41
schro@@ 41
f-@@ 41
horizont 41
denden 41
geeignet 41
wechselt 41
hydro@@ 41
englische 41
hektar 41
darm 41
haar@@ 41
muslime 41
ger-@@ 41
gerecht 41
jähriger 41
riecht 41
geheimnisse 41
genie 41
verbin@@ 41
q@@ 41
angelegenheit 41
assozi@@ 41
aktiviert 41
kletter@@ 41
vaters 41
schlacht 41
intensi@@ 41
genetisch 41
verwendeten 41
einziger 41
ls 41
gemü@@ 41
wohnungen 41
ausprobieren 41
heiligen 41
verboten 41
wiegt 41
früchte 41
interviews 41
bewirkt 41
schweine 41
verste@@ 41
freue 41
licherweise 41
rollstuhl 41
beeindruckt 41
grab@@ 41
techniker 41
ome 41
durchschnittlich 41
mul@@ 41
bert 41
1-@@ 41
keines 41
fortgeschritt@@ 41
ter-@@ 41
überlassen 41
sinnes@@ 41
zustimmen 41
hütte 41
gä@@ 41
wahrschein@@ 41
30.000 41
unklar 41
holt 41
schuss 41
schri@@ 41
sturm 41
erreichte 41
standards 41
loses 41
bedeuten@@ 41
196@@ 41
betrü@@ 41
univers@@ 41
höchst 41
unterbrochen 41
aktive 41
liefen 41
verbraucher 41
deutet 41
kogni@@ 41
stab 41
shanghai 41
entfernten 41
kreisen 41
leu@@ 41
größeres 41
positionen 41
gesellschaftlichen 41
verknüpft 41
bindung 41
ele 41
wachte 41
steuert 41
nadel 41
anweisungen 41
schäden 41
reihenfolge 41
mathemati@@ 41
normales 41
kolum@@ 41
breite 41
disziplin 41
mitt@@ 41
hindernisse 41
einig 41
ham@@ 41
köni@@ 41
nungs@@ 41
genaue 41
riesiger 41
hilf@@ 41
würdig 41
alltag 41
planung 41
geflogen 41
ore 41
reak@@ 41
alisierte 41
newton 41
schief 41
leihen 41
startete 41
tend 41
erend 41
feldern 41
jack 41
krä@@ 41
zieh@@ 41
stig@@ 41
planet@@ 41
verdoppeln 41
gewiesen 41
exponenti@@ 41
muskel 41
parall@@ 41
aufstehen 41
prozent@@ 41
dringend 41
mathematische 41
erkenntnisse 41
rut@@ 40
löschen 40
gige 40
60ern 40
brücken 40
ologischen 40
ausführen 40
treff@@ 40
ordnet 40
din 40
hom@@ 40
privileg 40
rechen@@ 40
ausde@@ 40
besonder@@ 40
berufs@@ 40
onen@@ 40
umgebungen 40
komplizierter 40
origin@@ 40
schätz@@ 40
brasili@@ 40
strahl 40
itäten 40
beruf@@ 40
durchlaufen 40
sonnensystem 40
schrecklichen 40
verwirklichen 40
siehst 40
erzählten 40
erzählung 40
ziehe 40
versorgt 40
bewältigen 40
verteidigung 40
gelben 40
bewus@@ 40
erlaubnis 40
eth@@ 40
mente 40
merkt 40
herstellt 40
long 40
ma-@@ 40
meme 40
ausgedrückt 40
rückseite 40
auflösung 40
bestandteil 40
meinungen 40
erstaunt 40
sign@@ 40
genetik 40
halbes 40
krähen 40
1,5 40
seins 40
chirurgie 40
gangen 40
atur 40
lingen 40
einzig 40
standard 40
oma 40
spannend 40
diskussionen 40
kro@@ 40
berechti@@ 40
keit 40
tatsächliche 40
redner 40
treibstoff 40
gast@@ 40
verlän@@ 40
blinde 40
70ern 40
häufiger 40
umfrage 40
business 40
ursprünglichen 40
unmittelbar 40
faltet 40
ost@@ 40
studi@@ 40
pflege@@ 40
ökonomie 40
rakete 40
ve 40
mais 40
geträn@@ 40
col@@ 40
beschäftigte 40
geschnitten 40
fettleibigkeit 40
korallen@@ 40
gelingt 40
absor@@ 40
afrikan@@ 40
opfern 40
pau@@ 40
schwä@@ 40
charaktere 40
träge 40
belastung 40
eingebaut 40
elektronik 40
müsst 40
euro 40
up 40
kür@@ 40
schweren 40
gefü@@ 40
au 40
nahrungsmittel 40
unend@@ 40
bige 40
süchtig 40
töne 40
produk@@ 40
blume 40
versehen 40
nern 40
ak 40
elektroden 40
relev@@ 40
republikaner 40
dankeschön 40
qualifi@@ 40
beer@@ 40
will@@ 40
leinwand 40
wegs 40
unglaubliches 40
sowjetunion 40
dschihad 40
mitgebracht 40
tam@@ 40
nelson 40
herrschaft 40
vulkan@@ 40
ärzten 40
beispielen 40
proje@@ 40
pf 40
hon@@ 40
refer@@ 40
banken 40
schuldig 40
der-@@ 40
48 40
atemberau@@ 40
europäische 40
verletzung 40
ßig 40
beschleunigen 40
fachen 40
ignor@@ 40
lohnt 40
schlage 40
großem 40
beleuchtung 39
verraten 39
jan@@ 39
vorlesen 39
sters 39
briefe 39
motto 39
versetzen 39
sion@@ 39
stir@@ 39
bst 39
effizienter 39
are@@ 39
steven 39
wetter@@ 39
schafe 39
tu 39
wirtschaft@@ 39
frühe 39
grundlagen 39
glob@@ 39
antwor@@ 39
ständen 39
sher@@ 39
air@@ 39
april 39
investi@@ 39
ents 39
amy 39
schmerzhaft 39
rund@@ 39
prophe@@ 39
pati@@ 39
ungsweise 39
ungser@@ 39
,@@ 39
zettel 39
erschreck@@ 39
blicke 39
dosis 39
anspruchs@@ 39
stati@@ 39
ga 39
arznei@@ 39
stock@@ 39
eit 39
verschwendung 39
schickt 39
mitzu@@ 39
detektor 39
körpern 39
nahe@@ 39
intensiv 39
verschle@@ 39
grafische 39
amen 39
issen 39
inder 39
stimmte 39
alters 39
zutaten 39
4.000 39
erden 39
daniel 39
club 39
primi@@ 39
text@@ 39
heilige 39
anfingen 39
ium 39
eröff@@ 39
würmer 39
hierfür 39
zuzuhören 39
ll 39
gewinne 39
marki@@ 39
bam@@ 39
erkrankung 39
investoren 39
programmen 39
de-@@ 39
tatsächlichen 39
ignoriert 39
verstecken 39
bestäu@@ 39
verheiratet 39
ars 39
kes 39
nachmittag 39
gelegentlich 39
tas@@ 39
bedeutende 39
drängen 39
säulen 39
schmu@@ 39
größenordnung 39
wol@@ 39
ähn@@ 39
vertre@@ 39
ausreichend 39
mode 39
mysteri@@ 39
sahara 39
erneu@@ 39
daneben 39
diplo@@ 39
ein-@@ 39
ktivität 39
niemandem 39
staatliche 39
tei@@ 39
beschrei@@ 39
verwaltung 39
wänden 39
18. 39
beset@@ 39
wild 39
gesetzen 39
versicherung 39
merkmal 39
präzise 39
smus 39
konstruk@@ 39
spanien 39
schloss 39
geschä@@ 39
wahrnehm@@ 39
krea@@ 39
globaler 39
texte 39
versagt 39
raketen 39
israeli@@ 39
konstru@@ 39
lebensraum 39
ozean@@ 39
glaub@@ 39
parks 39
ise 39
pflanzt 39
dies@@ 39
fügt 39
keiten 39
umfang 39
krankenhäuser 39
nd 39
50@@ 39
litten 39
ganz@@ 39
verblüffend 39
anreiz 39
bereitet 39
chemi@@ 39
hilfs@@ 39
garage 39
kru@@ 39
natürliches 39
hypothe@@ 39
klei@@ 39
billi@@ 39
domin@@ 39
lehrt 39
dörfer 39
chao@@ 39
experimentieren 39
selts@@ 38
greifende 38
titan 38
flucht 38
e-mails 38
forder@@ 38
est 38
wirtschaftlich 38
personal 38
leitung 38
tis 38
gelen@@ 38
unabhängigkeit 38
eingestellt 38
uss@@ 38
cyber@@ 38
schrecken 38
konfli@@ 38
kämp@@ 38
earth 38
virginia 38
note 38
stoß@@ 38
lokal 38
speichern 38
fabri@@ 38
popul@@ 38
individuellen 38
wall 38
handels@@ 38
beantwortet 38
runde 38
kollab@@ 38
satelliten@@ 38
flossen 38
auslö@@ 38
rande 38
substanz 38
spu@@ 38
jederzeit 38
karten@@ 38
wörtern 38
verwandt 38
überwachen 38
gestal@@ 38
keits@@ 38
algen 38
beschleunigt 38
bast@@ 38
schreck@@ 38
ladungen 38
vers 38
abschnitt 38
pizza 38
nette 38
philosophen 38
herausstellt 38
drück@@ 38
lock@@ 38
förderung 38
konstruieren 38
fantasie 38
elektronen 38
spezialisten 38
ökonomischen 38
lager@@ 38
einführen 38
experte 38
grippe@@ 38
gerichtet 38
klug 38
stammes@@ 38
unsichtbare 38
foie 38
gps-@@ 38
strö@@ 38
verbesserungen 38
charlie 38
slums 38
pandemie 38
audi@@ 38
teuren 38
strateg@@ 38
zunge 38
worfen 38
fossilen 38
glau@@ 38
geschäft@@ 38
italien@@ 38
zwecke 38
örtlichen 38
transportieren 38
zivilisationen 38
assen 38
abdruck 38
mand@@ 38
studierte 38
auftritt 38
wett@@ 38
breit 38
tom@@ 38
joseph 38
gewä@@ 38
teri@@ 38
locken 38
riechen 38
komplexes 38
beutel@@ 38
benjamin 38
wie@@ 38
ausprobiert 38
einzelnes 38
kognitive 38
prin@@ 38
achtet 38
ökologie 38
stationen 38
bislang 38
verständlich 38
quer 38
aufgestellt 38
toller 38
fakt 38
gleichungen 38
afgh@@ 38
interview 38
archie 38
truppen 38
medikamenten 38
zugän@@ 38
minim@@ 38
ressource 38
para@@ 38
befand 38
biologisch 38
sinnvoll 38
bildeten 38
ame 38
aufzunehmen 38
parteien 38
behinder@@ 38
20-@@ 38
metaphern 38
klam@@ 38
krank@@ 38
verläuft 38
graph 38
tempor@@ 38
sonde 38
überraschende 38
3-@@ 38
geschossen 38
finanzielle 38
rock@@ 38
zün@@ 38
wortes 38
republik 38
methan 38
anzunehmen 38
gall@@ 38
profession@@ 38
zugehen 38
cen 38
mist 38
ansonsten 38
digit@@ 38
fär@@ 38
gött@@ 38
islamischen 38
politischer 38
wäsche 38
stellungen 38
fortschritt@@ 38
pass 38
erweitert 38
traditionen 38
kontra@@ 38
stabili@@ 38
klassi@@ 38
bezirk 38
fett@@ 38
aro@@ 38
steh@@ 38
resul@@ 38
einnehmen 38
geformt 38
akzeptiert 38
läufe 38
amerikan@@ 38
schwimmt 38
geringer 38
dlicher 38
mitleid 38
rand@@ 38
ethik 38
täten 38
herausgestellt 38
ration@@ 38
restlichen 38
elf 38
blinden 38
gift 37
tour@@ 37
berühr@@ 37
öko@@ 37
woanders 37
beteiligen 37
aufweisen 37
gewalttä@@ 37
lik@@ 37
arbeitsplätze 37
gehst 37
zö@@ 37
engagement 37
baumkr@@ 37
beizubringen 37
schwamm 37
geographic 37
versetzt 37
197@@ 37
angestellte 37
typischen 37
milliar@@ 37
kenntnis 37
renn@@ 37
jon@@ 37
gli@@ 37
beseitigen 37
heilung 37
brä@@ 37
kurzes 37
rückwärts 37
campus 37
turm 37
wün@@ 37
filtern 37
bewaff@@ 37
gewohnheiten 37
6.000 37
existierte 37
kritische 37
müde 37
unbekannte 37
kollege 37
pir@@ 37
liber@@ 37
bezo@@ 37
ur-@@ 37
stehlen 37
bildete 37
schritten 37
cam@@ 37
graus@@ 37
wahrscheinlicher 37
sauber 37
gletscher 37
lern 37
schock 37
unen 37
betrug 37
original 37
herbst 37
leer 37
tierung 37
seiden@@ 37
interessan@@ 37
musikal@@ 37
roboter@@ 37
klatschen 37
extreme 37
illu@@ 37
interpretieren 37
basieren 37
eisen 37
prioritäten 37
techni@@ 37
jeff 37
pilze 37
anwalt 37
zudem 37
hollywood 37
silicon 37
transparent 37
vin 37
bedeutungs@@ 37
klimawandels 37
elegan@@ 37
bauch 37
ol 37
schne@@ 37
schalter 37
kanäle 37
fühl@@ 37
interface 37
county 37
profit 37
jesus 37
gehir@@ 37
clip 37
brief@@ 37
kleinsten 37
alisten 37
up@@ 37
geplant 37
kompli@@ 37
schlagzeilen 37
delfine 37
toleranz 37
lichts 37
leser 37
entspan@@ 37
mythos 37
maler 37
dring@@ 37
historische 37
durchs 37
ankommen 37
reiß@@ 37
geschlechts@@ 37
lation 37
verschwand 37
einzigartigen 37
oll@@ 37
auton@@ 37
erlei@@ 37
vorhan@@ 37
kliniken 37
schwanger 37
nien 37
säuge@@ 37
führe 37
ewig 37
reifen 37
freiwillig 37
bigen 37
minus 37
krankheits@@ 37
matrix 37
erlernen 37
mani@@ 37
agieren 37
computers 37
2-@@ 37
olympischen 37
treffe 37
politi@@ 37
vers@@ 37
flam@@ 37
inier@@ 37
feinde 37
benötigte 37
schön@@ 37
rohstoffe 37
physikalischen 37
gün@@ 37
experimenten 37
kunde 37
itäts@@ 37
springt 37
linsen 37
nebeneinander 37
ue 37
treu 37
zutiefst 37
zehntausende 37
radikale 37
lei 37
eigentum 37
finanzi@@ 37
expedition 37
johnson 37
hülle 37
generieren 37
region@@ 37
gross 37
eineinhalb 37
gestalt 37
u-bahn 37
attra@@ 37
nes 37
c-@@ 37
herangehensweise 37
anderswo 37
anzufangen 37
spruch 37
wüsten@@ 37
bo 37
un-@@ 37
ökosysteme 37
gewohnt 37
aden 37
arz@@ 37
st. 37
47 37
sprechend 37
wildnis 37
endsten 37
oxytocin 37
hundert@@ 37
phy@@ 37
weit@@ 37
angeb@@ 37
eventuell 37
port@@ 37
193@@ 37
kind@@ 37
berücksichtigt 37
everest 37
atz 37
wärmer 37
schrift@@ 37
seil@@ 37
hans 37
mike 37
erzählungen 37
berührung 37
ilen 37
bestra@@ 37
draht 37
bewiesen 37
symmetr@@ 37
isierte 37
90ern 37
alien 36
weiger@@ 36
schnellen 36
kilometern 36
genau@@ 36
markieren 36
röhren 36
vas@@ 36
schachtel 36
prof@@ 36
messungen 36
lauter 36
festzustellen 36
auszusehen 36
thei@@ 36
tum 36
glücklichen 36
vorbild 36
übliche 36
sische 36
teppich 36
vol@@ 36
william 36
kombin@@ 36
lektionen 36
may@@ 36
massive 36
ulen 36
36 36
wonach 36
mexi@@ 36
vietnam@@ 36
repar@@ 36
spezifischen 36
cy@@ 36
inji@@ 36
dimensionalen 36
redete 36
könntest 36
physisch 36
lampe 36
offensichtliche 36
hunderttausende 36
sklaverei 36
gesunken 36
schal@@ 36
demon@@ 36
navi@@ 36
vorsitz@@ 36
klassischen 36
betra@@ 36
menten 36
lewis 36
vermu@@ 36
klassifi@@ 36
eigentlichen 36
jugendlichen 36
batterien 36
brennstoffe 36
jones 36
flagge 36
schwar@@ 36
zun@@ 36
terte 36
integri@@ 36
gewinner 36
bausteine 36
ir 36
unglücklich 36
verkauf@@ 36
genannten 36
koran 36
bespre@@ 36
erlaubte 36
öff@@ 36
rauchen 36
klare 36
psych@@ 36
0 36
akte 36
feier 36
inse@@ 36
börse 36
zusammenbruch 36
tts 36
flach 36
cou@@ 36
wartete 36
stum@@ 36
herzlichen 36
erstmals 36
demokratische 36
cin@@ 36
erneuerbare 36
ener@@ 36
erschafft 36
verzerr@@ 36
typisch 36
genehmi@@ 36
synthe@@ 36
experimenti@@ 36
5. 36
profil 36
schließ@@ 36
bay 36
tations@@ 36
enten@@ 36
generell 36
sammelten 36
sowieso 36
mühe 36
förmige 36
turen 36
mme 36
immunsystem 36
oli@@ 36
hacker 36
erleb@@ 36
quadrat@@ 36
feuern 36
beton 36
union 36
demonstrieren 36
blä@@ 36
cia 36
anzuwenden 36
ates 36
pille 36
philosoph@@ 36
virtuelle 36
zustände 36
fran@@ 36
gescho@@ 36
primaten 36
mandela 36
bundes@@ 36
kämpft 36
wichtigkeit 36
markiert 36
eurer 36
epidemi@@ 36
betreffen 36
rab@@ 36
schöpf@@ 36
angemessen@@ 36
angebracht 36
gül@@ 36
ckten 36
inierte 36
leitet 36
getrieben 36
analysiert 36
gemeint 36
premierminister 36
gestohlen 36
institution@@ 36
konzentrierte 36
wüsste 36
spinnen 36
schwein@@ 36
fielen 36
link 36
obere 36
immun@@ 36
linse 36
bauern@@ 36
tausend@@ 36
betäu@@ 36
mathematischen 36
wesentliche 36
kino 36
ffs 36
regu@@ 36
klinischen 36
reformen 36
mmt 36
vermuten 36
krankenhäusern 36
ttet 36
kontrolli@@ 36
besserer 36
carolina 36
vollständige 35
gigen 35
use 35
wahnsinnig 35
jü@@ 35
zurecht@@ 35
trennung 35
-jähriger 35
anwen@@ 35
bach 35
gen-@@ 35
digte 35
vertrauens@@ 35
pilot 35
dritt@@ 35
yer 35
amt 35
tik@@ 35
hals 35
eingeschränkt 35
nährstoffe 35
nik 35
kämen 35
passte 35
kapu@@ 35
baten 35
kers 35
kehren 35
liegende 35
anwesenheit 35
leise 35
ökonomische 35
w-@@ 35
bewohn@@ 35
größen 35
angiogenese 35
gesam@@ 35
skiz@@ 35
probiert 35
kleinste 35
einfachste 35
vögeln 35
7. 35
line 35
klaren 35
schni@@ 35
einander@@ 35
erem 35
2.@@ 35
ehrgei@@ 35
3,@@ 35
tuch 35
visualisierung 35
chts 35
rela@@ 35
diskutiert 35
künstlern 35
stapel 35
synthese 35
bemühen 35
drehung 35
abraham 35
beeindruckende 35
project 35
arbeitsplatz 35
heiß@@ 35
transportiert 35
bakteri@@ 35
breiten 35
grösse 35
weis 35
nuklear@@ 35
sensor@@ 35
automobil@@ 35
kontinuier@@ 35
praktische 35
metr@@ 35
schale 35
lasen 35
brauch@@ 35
becher 35
entle@@ 35
männ@@ 35
schockier@@ 35
halfen 35
vorschlagen 35
kran@@ 35
chtert 35
diagnosti@@ 35
beschaff@@ 35
dynam@@ 35
klicken 35
galerie 35
entwicklungshilfe 35
schwung 35
körperliche 35
gif@@ 35
umher 35
dunkler 35
1999 35
unendliche 35
dosen 35
genheit 35
umfasst 35
aufhalten 35
verkehr@@ 35
füllt 35
ffel 35
datenbank 35
voranzu@@ 35
august 35
langzeit@@ 35
systematisch 35
feynman 35
steten 35
bzw. 35
chor 35
mäuse 35
chinesisch 35
exponentiell 35
sbar 35
stag@@ 35
problem@@ 35
angewandt 35
tive 35
ner-@@ 35
prüfung 35
zeugen 35
ade 35
team@@ 35
sichere 35
enkel 35
proji@@ 35
säugetiere 35
vergleicht 35
bezahl@@ 35
übersetzung 35
ag 35
klang@@ 35
herde 35
ermutigen 35
regelmäß@@ 35
unsichtbaren 35
flügel@@ 35
zubringen 35
höhlen 35
erwischt 35
stisches 35
konkurrenz 35
üblicherweise 35
orientiert 35
stands@@ 35
ernsthaf@@ 35
scott 35
fried@@ 35
stattung 35
bildungssystem 35
historischen 35
glicher 35
weltraum@@ 35
block@@ 35
spezial@@ 35
pur@@ 35
ungewöhnliche 35
alkohol 35
impli@@ 35
u-boot 35
ergebnissen 35
chips 35
anzeigen 35
alex 35
lee 35
außergewöhnlichen 35
gegner 35
aßen 35
1950 35
einstellungen 35
verzweifelt 35
million@@ 35
baue 35
negativen 35
gang@@ 35
polizisten 35
fahre 35
berater 35
installation 35
25@@ 35
fessel@@ 35
prototyp 35
distanz 35
aufwuchs 35
pharma@@ 35
schlü@@ 35
erläu@@ 35
squ@@ 35
schweizer 35
nähern 35
abgele@@ 35
boden@@ 35
gravitation 35
chse 35
lab 35
sichti@@ 35
ktion@@ 35
kong 35
gespannt 35
geschaut 35
my 35
3d 35
regenwald 35
entwicklungen 35
kluge 35
dacht 35
ye@@ 35
bemühungen 35
ursachen 35
kopiert 35
versionen 35
innenstadt 35
anhören 35
arbeiter@@ 35
kommentare 35
vereinfa@@ 35
jegliche 35
immerhin 35
kan 35
vergrößert 35
mlich 35
öse 34
produkt@@ 34
respekt@@ 34
geglaubt 34
tinte 34
glamourös 34
es-@@ 34
auslösen 34
aktivieren 34
schaffung 34
connectome 34
ingenieur@@ 34
rezep@@ 34
stücken 34
haushalt 34
möchtest 34
gut@@ 34
ände 34
präsen@@ 34
denkens 34
stränge 34
anrufen 34
archi@@ 34
vergewaltigt 34
staates 34
model 34
bedeuts@@ 34
schnittstelle 34
flüsse 34
lunge 34
lers 34
einbringen 34
ktives 34
stürzen 34
gründeten 34
tent@@ 34
verpflich@@ 34
scher@@ 34
poin@@ 34
kau@@ 34
hingegen 34
kommentar 34
schweigen 34
krankungen 34
elektromagne@@ 34
spannen@@ 34
struktur@@ 34
en. 34
konstruiert 34
beru@@ 34
entwickler 34
200.000 34
diagno@@ 34
massiven 34
dauernd 34
ücken 34
übernommen 34
trinkwasser 34
festen 34
á@@ 34
isoliert 34
verleihen 34
ev@@ 34
gezeichnet 34
äng@@ 34
rotten 34
jedermann 34
gruppen@@ 34
brech@@ 34
scheiße 34
tasman@@ 34
bewunder@@ 34
erzähl@@ 34
verbren@@ 34
herz-@@ 34
hungrig 34
tal 34
sehn@@ 34
woraus 34
geschätzt 34
durchschnittlichen 34
belie@@ 34
ok@@ 34
scan 34
maxi@@ 34
dest@@ 34
lebensunterhalt 34
richtlinien 34
schiffe 34
agenda 34
u-@@ 34
königreich 34
stieß 34
stätte 34
ablauf 34
zero 34
einerseits 34
identifiziert 34
biert 34
riesig 34
sun@@ 34
geschi@@ 34
abhängt 34
orbit 34
kandi@@ 34
verwal@@ 34
gran@@ 34
wat@@ 34
benannt 34
wählten 34
pä@@ 34
llt 34
andrew 34
sterblichkeit 34
atlantik 34
fasste 34
monster 34
erscheinung 34
bä@@ 34
evolution@@ 34
wort@@ 34
alls 34
clever@@ 34
november 34
sym@@ 34
nutzte 34
steuerung 34
pc 34
küsten@@ 34
mutig 34
ziger 34
transformation 34
ego@@ 34
story 34
künstler@@ 34
schriften 34
erinn@@ 34
aristoteles 34
defi@@ 34
landet 34
+ 34
anspruch 34
este 34
dd@@ 34
expor@@ 34
cal@@ 34
häss@@ 34
path@@ 34
kortex 34
malte 34
cs 34
herkömm@@ 34
kommun@@ 34
behinderung 34
kritiker 34
jün@@ 34
zähl@@ 34
koloni@@ 34
saubere 34
kunststoff 34
ti-@@ 34
flüge 34
offensicht@@ 34
merkwürdig 34
mod@@ 34
foto@@ 34
sauce 34
eich@@ 34
isch-@@ 34
toiletten 34
steinen 34
wiegen 34
gelandet 34
prozentsatz 34
militärische 34
meeting 34
trieben 34
keinerlei 34
gent@@ 34
konver@@ 34
steckte 34
wachsenden 34
hong 34
eurem 34
vereinen 34
nordpol 34
manipulieren 34
spinnen@@ 34
zugriff 34
hob 34
männliche 34
bohr@@ 34
nam@@ 34
behauptet 34
stin@@ 34
sichern 34
ane 34
nigeri@@ 34
harten 34
jugend@@ 34
verban@@ 34
forschen 34
schil@@ 34
north 34
rieren 34
1998 34
gedichte 34
niedriger 33
kostenlose 33
plasti@@ 33
zeitspanne 33
skep@@ 33
läden 33
chens 33
herkommen 33
katho@@ 33
nat@@ 33
süd-@@ 33
verdäch@@ 33
sträger 33
aids-@@ 33
dun@@ 33
ierung 33
zusammenfassen 33
demonstration 33
tsunami 33
zugrunde 33
24@@ 33
gh 33
formu@@ 33
rob@@ 33
bien 33
veränderten 33
schlüsse 33
tägliche 33
einfallen 33
konsu@@ 33
bezogen 33
ellen@@ 33
top-@@ 33
einhalb 33
wenigsten 33
scanner 33
schwellen@@ 33
repräsent@@ 33
geistes 33
ere@@ 33
nick 33
vagina 33
überein@@ 33
krokodi@@ 33
apfel 33
angeblich 33
lud 33
knü@@ 33
hole 33
wal 33
anschließend 33
½ 33
kommst 33
drängt 33
keit@@ 33
flö@@ 33
wahrheiten 33
digungen 33
flei@@ 33
40.000 33
lationen 33
stärksten 33
weitaus 33
rufe 33
wurzel@@ 33
geschla@@ 33
woll@@ 33
menschenrechte 33
absolute 33
starren 33
chin@@ 33
muslimischen 33
geru@@ 33
vertei@@ 33
schneidet 33
intellektuellen 33
kondome 33
phosphor 33
3.@@ 33
tun@@ 33
melodie 33
beschul@@ 33
intellektuelle 33
tendieren 33
prothese 33
geprägt 33
wohnzimmer 33
spiegeln 33
angewiesen 33
air 33
phil@@ 33
erfolgreiche 33
denker 33
durchschnitts@@ 33
schwachen 33
v. 33
tumore 33
infi@@ 33
lkw 33
konz@@ 33
40@@ 33
beobachtete 33
cricket 33
unmögliche 33
steuer 33
kammer 33
phänomen@@ 33
strahlt 33
künst@@ 33
teilneh@@ 33
bestimmtes 33
maschin@@ 33
patent@@ 33
sorgfältig 33
steck@@ 33
sammler 33
60er 33
friedens@@ 33
hnung 33
höhen 33
sendungen 33
teurer 33
veröffentlichte 33
jun@@ 33
way 33
ins@@ 33
harmonie 33
git@@ 33
koennen 33
partnerschaft 33
raums 33
enge 33
angewendet 33
szenario 33
adi@@ 33
tran@@ 33
daraufhin 33
platzieren 33
muster@@ 33
einzelner 33
fürchten 33
beobachtungen 33
argumente 33
vereint 33
französische 33
bildes 33
erstmal 33
kollektiven 33
absolu@@ 33
gebrauchen 33
ie-@@ 33
stur@@ 33
34 33
melden 33
zylinder 33
ös 33
ausdrucks@@ 33
kognitiven 33
effektiver 33
trugen 33
cha@@ 33
lichere 33
übers 33
japanischen 33
jüngere 33
hühnchen 33
plattformen 33
lust 33
polen 33
musli@@ 33
linear@@ 33
2011 33
juden 33
anony@@ 33
schlägen 33
gramme 33
evolutions@@ 33
bereitschaft 33
häup@@ 33
43 33
blickt 33
verschaffen 33
genossen 33
salz 33
künstlich 33
mot@@ 33
variationen 33
zimmer@@ 33
skri@@ 33
10. 33
ingenieuren 33
tän@@ 33
talenti@@ 33
ky@@ 33
gandhi 33
stabil 33
verschieben 33
durften 33
gewaltig 33
entkommen 33
frage@@ 33
stan 33
blättern 33
absichten 33
joshua 33
dunkel@@ 33
hem@@ 33
neigung 33
entschuldigen 33
ellem 33
sungs@@ 33
ausland 33
getreide 33
warte@@ 33
weiterzu@@ 33
weiß@@ 33
mie 33
pioni@@ 33
hun@@ 33
ski 33
aussagen 33
parlament 33
wid@@ 33
ratte 33
agent@@ 33
gespeichert 33
durchgehen 33
märz 33
nutze 33
existi@@ 33
atz@@ 33
llig 33
dest 33
lischen 33
baby@@ 33
stiges 33
gemeinnütz@@ 33
allein@@ 33
reali@@ 33
einbeziehen 33
ao 33
spinn@@ 33
delt 33
dörfern 33
demü@@ 33
elektronischen 33
begriffe 33
bedingung 33
berat@@ 33
1900 33
wacht 33
theoretisch 33
ron 33
konversation 33
tippen 33
spi@@ 33
begeisterung 33
schot@@ 33
fün@@ 33
benach@@ 33
abed 33
tiefgrün@@ 33
karto@@ 33
astronomen 33
nacht@@ 33
schließe 32
vergif@@ 32
leucht@@ 32
robo@@ 32
ad 32
direkte 32
rou@@ 32
treibhausgase 32
wunden 32
pfte 32
klassen 32
tauchten 32
verstärkt 32
these 32
strang 32
pilz 32
staub@@ 32
liter@@ 32
more 32
bestandteile 32
erfüllung 32
98 32
klü@@ 32
oper 32
zeln 32
einigt 32
füttern 32
ch-@@ 32
sprang 32
amer 32
vertreter 32
ball-@@ 32
ermu@@ 32
übertrag@@ 32
2,5 32
chem@@ 32
betrachte 32
drücke 32
flüssig@@ 32
vern@@ 32
dollars 32
anre@@ 32
dinosauri@@ 32
demokra@@ 32
huhn 32
merkte 32
übersehen 32
meeresspiegel 32
erkannten 32
periode 32
solches 32
zulegen 32
schafter 32
zwi@@ 32
fundament 32
jh 32
schlä@@ 32
argumentieren 32
hinder@@ 32
ergän@@ 32
ausgelöst 32
erschienen 32
respektieren 32
visuell 32
untereinander 32
sun 32
angeschlossen 32
mumbai 32
spart 32
able@@ 32
tigkeits@@ 32
kerin 32
auszuprobieren 32
tigem 32
urban@@ 32
schad@@ 32
anwes@@ 32
hofft 32
kels 32
beeinflus@@ 32
betrachteten 32
ck-@@ 32
jagd 32
fotografen 32
schliessen 32
gewaltigen 32
ansprechen 32
veranschau@@ 32
cola 32
dutzende 32
klänge 32
niedrigen 32
biomasse 32
möbel 32
ski@@ 32
takti@@ 32
betriebs@@ 32
mol@@ 32
autobahn 32
komische 32
indonesien 32
c. 32
sammelte 32
durchaus 32
gehirnen 32
schlicht 32
tzten 32
chem 32
dünne 32
wör@@ 32
olymp@@ 32
ösen 32
stik 32
spass 32
software-@@ 32
physikalische 32
finan@@ 32
konser@@ 32
ran 32
schrän@@ 32
l-@@ 32
rauschen 32
l.a. 32
u.s. 32
rekor@@ 32
bemerkenswer@@ 32
72 32
sied@@ 32
sexu@@ 32
mahlzeiten 32
paradigma 32
celsius 32
schwelle 32
mith@@ 32
magazine 32
traurige 32
lot@@ 32
fledermäuse 32
wahrhaftig 32
grundschule 32
amerikanischer 32
kost@@ 32
affen@@ 32
sens 32
geschaltet 32
life 32
verwen@@ 32
schaltkreise 32
feuerwehr@@ 32
gerungen 32
schritt@@ 32
keller 32
heimatstadt 32
gor@@ 32
tv-@@ 32
extre@@ 32
logo 32
codes 32
verzö@@ 32
mens 32
16. 32
mend 32
deli@@ 32
populationen 32
kas 32
verfü@@ 32
aum 32
fähigen 32
spazier@@ 32
götter 32
absichtlich 32
gespräch@@ 32
chemotherapie 32
beurteilen 32
kategorie 32
kleben 32
furchtbar 32
jay 32
hinterher 32
kontin@@ 32
zurecht 32
tv 32
fluss@@ 32
überdenken 32
fertigen 32
dringt 32
öffentlicher 32
baseball 32
schaff@@ 32
bürgerkrieg 32
ausgeht 32
verhaltensweisen 32
eintreten 32
deutschen 32
verantwortungs@@ 32
sing@@ 32
ströme 32
dia 32
stört 32
laufbahn 32
biegen 32
neurowissenschaft 32
schöpfung 32
behinderungen 32
zahlt 32
erklärungen 32
polizist 32
com@@ 32
einkaufs@@ 32
enter 32
tänzer 32
vermei@@ 32
gedul@@ 32
schaltet 32
tzte 32
führer@@ 32
oftmals 32
größtenteils 32
effiziente 32
gelungen 32
freun@@ 32
kostengün@@ 32
sischer 32
gründung 32
teller 32
dicke 32
sorte 32
ozeanen 32
sproble@@ 32
artenvielfalt 32
kühlen 32
rover 32
erdgas 32
füll@@ 32
erwachsen 32
mäusen 32
tinten@@ 32
pfe 31
nutzer 31
ernte 31
hnten 31
lische 31
weihnacht@@ 31
umgesetzt 31
verlaufen 31
mutationen 31
jahrhunderte 31
chines@@ 31
verpflichtet 31
gläu@@ 31
verzwei@@ 31
klavier 31
pfeifen 31
unerwar@@ 31
kreislauf@@ 31
richt@@ 31
kris@@ 31
potenzi@@ 31
soll@@ 31
optionen 31
burg 31
türen 31
vorkommt 31
hardware 31
gesten 31
iss 31
tie@@ 31
bet@@ 31
interessierte 31
trie@@ 31
mine 31
interaktionen 31
skla@@ 31
bergsteiger 31
rational 31
unan@@ 31
organische 31
pfer 31
fur@@ 31
behandlungs@@ 31
schizophrenie 31
völker 31
speku@@ 31
tur 31
erstaunliches 31
buchstab@@ 31
schnitten 31
gewöhn@@ 31
persönlicher 31
fst 31
schub@@ 31
unterschiedlicher 31
sionen 31
spontan 31
hausaufgaben 31
new@@ 31
freundschaft 31
eltern@@ 31
reporter 31
delhi 31
liebling@@ 31
produzenten 31
ungskraft 31
ian 31
molekular@@ 31
aktivi@@ 31
verur@@ 31
schmetter@@ 31
gering 31
starkes 31
verwirrt 31
abschließend 31
herstell@@ 31
himm@@ 31
stattfand 31
errichtet 31
ökonom@@ 31
gepar@@ 31
asen 31
inge 31
fusion 31
zusammengefasst 31
benennen 31
aktivisten 31
tigten 31
gefühlen 31
kna@@ 31
anfühlt 31
route 31
demokraten 31
mar 31
klick 31
besorg@@ 31
gesundheitsversorgung 31
wk 31
aufgezeichnet 31
jäger 31
modifi@@ 31
craig 31
bibliothe@@ 31
smann 31
stätten 31
ausgezeichnet 31
sprechende 31
inne@@ 31
umgewandelt 31
frosch 31
194@@ 31
wiesen 31
gesünder 31
ereig@@ 31
forma@@ 31
leder 31
steigerung 31
wählt 31
applaus 31
viert 31
paaren 31
blitz 31
vollziehen 31
stillstand 31
bequ@@ 31
tödliche 31
internet-@@ 31
stung 31
d.h. 31
frühstück 31
verfügt 31
kühlt 31
halle 31
bela@@ 31
ueber 31
kauften 31
veröffentlichten 31
überein 31
irr@@ 31
hüfte 31
fleck 31
extremen 31
nü@@ 31
feuert 31
nebel 31
fan 31
seti 31
teres 31
mäd@@ 31
kriminalität 31
würfel 31
gegenwärtigen 31
dex 31
sigkeit 31
milo 31
begehen 31
vorhersage 31
herumzu@@ 31
älteste 31
proble@@ 31
häl@@ 31
apparat 31
zielt 31
schweiz 31
dru@@ 31
urteil 31
schaffe 31
handel@@ 31
gewähr@@ 31
box@@ 31
stande 31
ore@@ 31
herbei@@ 31
ik@@ 31
arthur 31
sonen 31
bote 31
architektonische 31
instal@@ 31
erie 31
spunkte 31
benzin 31
gos 31
agrar@@ 31
angriffe 31
frustri@@ 31
eck@@ 31
intuitiv 31
brennstoff 31
beschäftigung 31
geschlossen@@ 31
versichern 31
passi@@ 31
voraussetzungen 31
verletzen 31
sätzen 31
partikel 31
demselben 31
brem@@ 31
bearbeiten 31
punk@@ 31
jahrelang 31
tastatur 31
abhängi@@ 31
zertifi@@ 31
perspektiven 31
hase 31
justi@@ 31
spinne 31
teilzunehmen 31
belei@@ 31
krü@@ 31
klappen 31
endgül@@ 31
singapur 31
aufgehört 31
reaktor 31
ärer 31
ähnlicher 31
historisch 30
mär@@ 30
beschleunig@@ 30
entsprechen 30
schnellsten 30
zerstör@@ 30
ry 30
tnissen 30
bie 30
verkörper@@ 30
ausgelöscht 30
künstlichen 30
widerstands@@ 30
ehren@@ 30
paare 30
debat@@ 30
baum@@ 30
trocken@@ 30
rettet 30
umsonst 30
globales 30
drei-@@ 30
gemerkt 30
patente 30
tötete 30
le-@@ 30
stert 30
überblick 30
bestätigt 30
korn 30
urlaub 30
ble@@ 30
untersuchten 30
therapien 30
bekämp@@ 30
rente 30
niedrige 30
setz@@ 30
bab@@ 30
shi@@ 30
angri@@ 30
eingenommen 30
rick 30
versuchs@@ 30
wertvolle 30
sklaven 30
identifi@@ 30
fischerei 30
regal 30
ansteck@@ 30
asth@@ 30
hh 30
mut@@ 30
geradezu 30
anfan@@ 30
gelehr@@ 30
witze 30
gebau@@ 30
off@@ 30
verfassung 30
stimmung 30
überfluss 30
gü@@ 30
ängen 30
flugzeug@@ 30
draht@@ 30
und-@@ 30
flugzeugen 30
ironie 30
rückgang 30
app 30
grafiken 30
fertigt 30
000-@@ 30
bruchteil 30
ingen 30
winter@@ 30
food 30
sl@@ 30
wurzel 30
ausbreiten 30
poten@@ 30
normal@@ 30
führende 30
weiblichen 30
landkarte 30
hmm 30
verluste 30
wilde 30
exo@@ 30
benutzer 30
zähnen 30
jerusalem 30
simulieren 30
publi@@ 30
rezession 30
auswei@@ 30
lizen@@ 30
herausra@@ 30
alpha 30
reihen 30
bauch@@ 30
schätzungen 30
kanischen 30
erfüll@@ 30
ick 30
erdoberfläche 30
konfron@@ 30
gänger 30
gangs 30
diät 30
illegal 30
graph@@ 30
dr 30
paar@@ 30
gegenwärtige 30
philosoph 30
fäch@@ 30
johnny 30
forschern 30
dreidimensionale 30
aussuchen 30
schre@@ 30
diplomatie 30
bücher@@ 30
schriftstell@@ 30
grösser 30
regime 30
verwendete 30
versteckten 30
zeuge 30
minder@@ 30
schatz 30
überflu@@ 30
brilli@@ 30
chromosomen 30
wachsen@@ 30
30-@@ 30
schuhen 30
motiviert 30
krater 30
master 30
studierende 30
pigmen@@ 30
fange 30
weiterentwickelt 30
stoffwechsel 30
übersetz@@ 30
dsch@@ 30
warst 30
fantastisches 30
temperatur@@ 30
umgebracht 30
krümm@@ 30
bestätigen 30
ärger 30
rücken@@ 30
hiermit 30
begeben 30
ufer 30
erle@@ 30
stühle 30
funktionier@@ 30
jüngeren 30
nervensystem 30
knac@@ 30
älterwerden 30
betrachtung 30
unheimlich 30
vorzubereiten 30
sichtlich 30
schwach 30
lichkeits@@ 30
brand 30
tedtalks 30
erschein@@ 30
entwur@@ 30
by 30
libellen 30
beunruhigt 30
blog@@ 30
stirn 30
röhre 30
set 30
korb 30
teig 30
besit@@ 30
1994 30
empfangen 30
paradox 30
verpasst 30
diagramme 30
ästhetik 30
quet@@ 30
stens 30
konstan@@ 30
farmer 30
quote 30
beamten 30
appar@@ 30
rock 30
durchzu@@ 30
informa@@ 30
beruhi@@ 30
romantische 30
dbar 30
willi@@ 30
sts 30
neurolog@@ 30
explo@@ 30
erschaffung 30
irgendeinen 30
einladung 30
bb@@ 30
enttäuscht 30
ankam 30
lea@@ 30
blas@@ 30
ruhe@@ 30
progno@@ 30
rechner@@ 30
schluss@@ 30
schwimm@@ 30
beschaffen 30
ya 30
weihnachts@@ 30
äch@@ 30
essens@@ 30
milch@@ 30
aufstellen 30
posi@@ 30
integrieren 30
ausgestattet 30
jugendliche 30
setzung 30
hosen 30
angelegenheiten 30
einschränkungen 30
130 30
gesicht@@ 30
palästinen@@ 30
south 30
geschö@@ 29
geholt 29
kilo@@ 29
professionelle 29
wolle 29
mön@@ 29
liebten 29
boot@@ 29
beschädigt 29
schaft@@ 29
genie@@ 29
seattle 29
französischen 29
bun@@ 29
plä@@ 29
schalt@@ 29
well 29
zwischenzeit 29
stich@@ 29
dokumente 29
voran 29
v-@@ 29
betrag 29
molekülen 29
umwandeln 29
spunkt 29
fundamentale 29
peri@@ 29
ause 29
schlangen 29
verhältnisse 29
durchfall 29
hervorragend 29
wahrgenommen 29
juli 29
350 29
beein@@ 29
lego 29
freier 29
empfänger 29
fingern 29
leidenschaft@@ 29
kämpfe 29
konsequenz 29
nder 29
mam@@ 29
identisch 29
albert 29
jüngste 29
hungern 29
hnte 29
imitieren 29
beliebigen 29
neuseeland 29
37 29
zw@@ 29
ehen 29
kosm@@ 29
koffer 29
höchst@@ 29
müttern 29
anzupassen 29
magnet@@ 29
gigan@@ 29
hawaii 29
künste 29
dreidimensionalen 29
freizeit 29
dopamin 29
vorgehensweise 29
kürz@@ 29
webseiten 29
angezogen 29
verringert 29
räu@@ 29
bewerkstelligen 29
10-@@ 29
handlungs@@ 29
wald@@ 29
wasserstoff@@ 29
verschmelzen 29
heli@@ 29
aß 29
twi@@ 29
grosser 29
relation 29
attac@@ 29
vorbereitung 29
streu@@ 29
2020 29
zeitschrift 29
hervorbringen 29
wirtschaftlicher 29
ernste 29
persönliches 29
sab@@ 29
verbie@@ 29
tätig 29
panzer 29
robotik 29
lebenszeit 29
sang 29
impfstoffe 29
ora 29
christen 29
organisierte 29
parkplatz 29
entscheidenden 29
dnungen 29
rom 29
adresse 29
1997 29
dick@@ 29
unternehmens@@ 29
zonen 29
é 29
zweig 29
lokal@@ 29
äres 29
hell 29
spiegelt 29
intui@@ 29
millimeter 29
feuchtigkeit 29
patientin 29
brennen 29
ermöglichte 29
getreten 29
seltener 29
nicht-nullsummen@@ 29
rechte@@ 29
geräusch@@ 29
agi@@ 29
legung 29
gungen 29
qual@@ 29
leonardo 29
entdeck@@ 29
gefühlt 29
verlässt 29
medikam@@ 29
rasch 29
bevorzugen 29
meinten 29
versich@@ 29
kalku@@ 29
informiert 29
state 29
tempel 29
nano@@ 29
aben 29
rigen 29
istische 29
telefone 29
nahr@@ 29
lande 29
äußeren 29
bangladesch 29
schö@@ 29
verhaftet 29
beherrschen 29
sac@@ 29
kus 29
plötz@@ 29
anstren@@ 29
beschrieb 29
impuls 29
verkauften 29
parameter 29
starteten 29
haftes 29
essenz 29
kompet@@ 29
walmart 29
passend 29
fiktion 29
stewart 29
geste 29
imm@@ 29
robotern 29
musikalische 29
4,@@ 29
tansania 29
alb@@ 29
haf@@ 29
manns 29
außerordent@@ 29
hybri@@ 29
unternommen 29
unbekannten 29
auszugeben 29
solle 29
elektr@@ 29
verbün@@ 29
einzigarti@@ 29
mobiltelefone 29
5000 29
grafi@@ 29
ausgehend 29
schultern 29
seltsamen 29
beraten 29
drü@@ 29
hauptstadt 29
skop@@ 29
verwü@@ 29
scheu@@ 29
kali@@ 29
loswerden 29
lampen 29
teilhaben 29
skelet@@ 29
verwende 29
hefe 29
kriegs 29
mikro-@@ 29
tons 29
stol@@ 29
herausfanden 29
gren@@ 29
pillen 29
filmemacher 29
kanten 29
zern 29
betreu@@ 29
health 29
nachher 29
buddhi@@ 29
do-@@ 29
küchen@@ 29
gebilde 29
einfach@@ 29
karti@@ 29
hohem 29
normaler 29
verblüff@@ 29
geseh@@ 29
ökologischen 29
schmei@@ 29
tunnel 29
menden 29
visionen 29
ohr@@ 29
ph 29
gefilmt 29
kriminelle 29
sonn@@ 29
han 29
priester 29
15. 29
angen 29
hoffnungen 29
telef@@ 29
temperaturen 29
vernachlässi@@ 29
krebszellen 29
refle@@ 29
konflikten 29
psycholog@@ 29
sexy 29
sequenzen 29
wähl@@ 29
kontro@@ 29
interview@@ 29
krankenschwestern 29
chile 29
anderson 29
wochenende 29
ai 29
mächti@@ 29
netten 29
privatsphäre 29
unvermei@@ 29
lücken 29
mutation 29
verkab@@ 28
erwecken 28
langfristige 28
ablen@@ 28
unsinn 28
leuchtet 28
ansätze 28
anerkennen 28
spli@@ 28
inspirierend 28
lustige 28
kommuni@@ 28
alltäglichen 28
rosa 28
koralle 28
chel 28
einzugehen 28
rasse 28
übergehen 28
atomen 28
bag@@ 28
verlangsamen 28
entschloss 28
verpflichtung 28
werf@@ 28
stehende 28
mitmachen 28
überlegt 28
vorles@@ 28
tesla 28
thunfisch 28
windenergie 28
kauf 28
amazon 28
pro-kopf-@@ 28
straß@@ 28
archiv 28
don 28
stöck@@ 28
alli@@ 28
dean 28
herab@@ 28
beinhalten 28
erlebte 28
jä@@ 28
festival 28
einsatz@@ 28
bekannter 28
pfi@@ 28
blue 28
50-@@ 28
meldet 28
helium 28
sichtbaren 28
bürgern 28
38 28
grau 28
schmeckt 28
jahrzehn@@ 28
taler 28
quadratmeter 28
symmetrien 28
käse 28
dete@@ 28
fähige 28
körperlichen 28
zwie@@ 28
eingebettet 28
hasse 28
garten@@ 28
mörder 28
übrigen 28
annähernd 28
one-@@ 28
marktes 28
erweiterung 28
derselbe 28
erfolgs@@ 28
interessiere 28
korre@@ 28
comedy 28
freitag 28
taube 28
gewissem 28
wäl@@ 28
hafter 28
ferne 28
äne 28
gewün@@ 28
schreiten 28
send 28
enheit 28
anziehen 28
aufen 28
beacht@@ 28
teilnahme 28
jane 28
umsetzung 28
1995 28
dekor@@ 28
gebir@@ 28
talente 28
zuständig 28
stürzt 28
reduktion 28
schlie@@ 28
cloud 28
wies 28
grundle@@ 28
benutzer@@ 28
südlich 28
alem 28
kraftwerk 28
leib 28
abfall@@ 28
kamel 28
sarah 28
wiederaufbau 28
psychiat@@ 28
aufgefallen 28
ankunft 28
partnern 28
unterschied@@ 28
haken 28
molekulare 28
behand@@ 28
fälsch@@ 28
zeile 28
drang 28
volumen 28
frustriert 28
labor@@ 28
verbesser@@ 28
höf@@ 28
entnehmen 28
absoluten 28
gefangen@@ 28
betrügen 28
vertreten 28
rigi@@ 28
moskitos 28
leder@@ 28
glühbirne 28
wählte 28
symbio@@ 28
palä@@ 28
ont@@ 28
peinlich 28
bestimm@@ 28
fel 28
abspielen 28
verwunder@@ 28
here 28
probanden 28
bestä@@ 28
banker 28
allmählich 28
glücks 28
richtete 28
beunruhi@@ 28
erwartete 28
charakter@@ 28
hack@@ 28
breitet 28
kambodscha 28
einfa@@ 28
brillan@@ 28
intensität 28
befreit 28
eingesch@@ 28
ausgestellt 28
4-@@ 28
ständigen 28
besuche 28
pumpe 28
ideale 28
erweiter@@ 28
schrump@@ 28
botschaften 28
glie@@ 28
schwein 28
12. 28
scannen 28
sichts@@ 28
ausgangs@@ 28
sylvia 28
kosmos 28
31 28
flecken 28
kohlen@@ 28
ausnahmen 28
kende 28
laut@@ 28
komplizierten 28
zusätzlichen 28
teili@@ 28
wochen@@ 28
bad 28
hindern 28
kredi@@ 28
säure 28
gliche 28
gegensei@@ 28
phasen 28
pop@@ 28
schliesslich 28
gö@@ 28
ostküste 28
ermutigt 28
interess@@ 28
wahnsinn 28
tismus 28
junges 28
sky@@ 28
american 28
atten@@ 28
beschü@@ 28
jamie 28
abkommen 28
passagi@@ 28
chemiker 28
bedient 28
nadeln 28
sexuell 28
patri@@ 28
hren@@ 28
ffer 28
beher@@ 28
trop@@ 28
folien 28
verhandlungen 28
entlich 28
sierra 28
dlichkeit 28
standes 28
stimulation 28
überprü@@ 28
verhaltens 28
zusammenkommen 28
gestoßen 28
70er 28
= 28
alice 28
sisches 28
einladen 28
universen 28
olog@@ 28
bucht 28
non@@ 28
verstärken 28
4. 28
dazu@@ 28
entlassen 28
ty 28
nebenwirkungen 28
beeindruck@@ 28
mochten 28
schlimme 28
weizen 28
tanzt 28
zu-@@ 28
protokol@@ 28
zeitschriften 28
verknüpfen 28
wissenschaftlerin 28
ausrottung 28
akzep@@ 28
helden@@ 28
sternen@@ 28
teena@@ 28
ultraschall 28
verwund@@ 28
verschlei@@ 28
mahlzeit 28
klär@@ 28
überzeugungen 28
grösste 28
fahrten 28
gler 28
rückmel@@ 28
tatsachen 28
vergleichbar 28
bevorzu@@ 28
live-@@ 28
schrau@@ 28
organisierten 28
erheblich 28
ath@@ 28
square 28
streckt 28
2030 28
empf@@ 28
til@@ 28
reservat 28
social 28
hat@@ 28
entwickel@@ 28
ziem@@ 28
ral 28
existierenden 28
horizon@@ 28
reflektieren 28
bewahrt 28
kontinenten 27
designern 27
gitter 27
fremd@@ 27
vornehmen 27
brauch 27
selbstorgan@@ 27
mall 27
alie 27
quar@@ 27
larven 27
engagieren 27
überwachung 27
kritischen 27
klappe 27
geschichtenerzähl@@ 27
entschul@@ 27
rannte 27
außerordentlich 27
gelan@@ 27
alan 27
ille 27
austauschen 27
ett 27
platziert 27
win 27
esten 27
barmherzigkeit 27
femini@@ 27
messung 27
anz@@ 27
ami 27
dimension@@ 27
verrichten 27
blumen@@ 27
-syndrom 27
lux@@ 27
bälle 27
pinguin 27
kelly 27
griechen 27
bänder 27
photo@@ 27
schee 27
klat@@ 27
abo@@ 27
grob 27
patienten@@ 27
anzubieten 27
bren@@ 27
sorg@@ 27
teilungen 27
langfristig 27
mäß@@ 27
erkläre 27
analo@@ 27
80er 27
gängig 27
folgten 27
ess 27
latein@@ 27
musch@@ 27
atheisten 27
vakuum 27
wundern 27
lands 27
unde 27
improvisi@@ 27
jagt 27
kontrollierte 27
thailand 27
landung 27
ehemalige 27
unbesch@@ 27
transformieren 27
frustration 27
journalismus 27
graphische 27
zügen 27
gelo@@ 27
fahrt@@ 27
politikern 27
mcdonald 27
space 27
ungleich@@ 27
atlanta 27
formul@@ 27
benzin@@ 27
kleider 27
gre@@ 27
harry 27
tiefsten 27
verschlüssel@@ 27
überwältigt 27
raketen@@ 27
fit@@ 27
ia 27
null@@ 27
aufhört 27
alexander 27
mrt 27
wolfram 27
einfühlungsvermögen 27
h. 27
posten 27
gay 27
kator 27
beruht 27
pper 27
zenz 27
leichte 27
robu@@ 27
schläft 27
winde 27
sey 27
ähnelt 27
bezahlung 27
erwachsener 27
tteln 27
ire 27
wortwörtlich 27
zuhalten 27
verfügbaren 27
läufer 27
start@@ 27
flüchti@@ 27
zwang 27
beute 27
comic@@ 27
unbeha@@ 27
r. 27
ultimative 27
histor@@ 27
samm@@ 27
maschinen@@ 27
d.c. 27
bedecken 27
mikrobi@@ 27
modellen 27
gattung 27
befolgen 27
reichte 27
perfektion@@ 27
wohlergehen 27
kreuz 27
index 27
sierten 27
dunkeln 27
näher@@ 27
biop@@ 27
schirm 27
schuh 27
material@@ 27
jekt 27
verhäl@@ 27
tnis@@ 27
isierten 27
bilanz 27
dreck@@ 27
mentale 27
rückkehr 27
child 27
dop@@ 27
betrei@@ 27
gießen 27
spürt 27
schlossen 27
zeichneten 27
som@@ 27
ratet 27
netzwerks 27
solarzellen 27
stattgefunden 27
3000 27
simple 27
grat 27
rop@@ 27
beweist 27
sterblichkeitsrate 27
konsum@@ 27
irland 27
drin@@ 27
weib@@ 27
nö@@ 27
ffer@@ 27
lähmung 27
weitgehend 27
ater 27
research 27
kreuzen 27
ding@@ 27
kritik 27
üblich 27
projektes 27
realisieren 27
zusammengestellt 27
erspar@@ 27
verkäufer 27
jonathan 27
überholt 27
60.000 27
meerwasser 27
astro@@ 27
mathe 27
schleife 27
mächtigen 27
vernetzung 27
ausrichten 27
cla@@ 27
bearbeitet 27
wandert 27
seither 27
lautete 27
typ@@ 27
kil@@ 27
spritzen 27
modern 27
stau 27
jemen 27
ativ 27
ungs 27
mono@@ 27
gedauert 27
ses@@ 27
var@@ 27
artiges 27
arktischen 27
taucher 27
emotional 27
gebühren 27
erdn@@ 27
erholen 27
erzieh@@ 27
haushalte 27
onik 27
gefährdet 27
spir@@ 27
mammographie 27
reiz@@ 27
verpassen 27
beispiel@@ 27
organ@@ 27
tzu@@ 27
sün@@ 27
erhö@@ 27
grossartige 27
sperr@@ 27
beri@@ 27
unabhängi@@ 27
krankenhaus@@ 27
katalo@@ 27
schwache 27
großarti@@ 27
interne@@ 27
neuem 27
motivi@@ 27
kat 27
hing 27
standort 27
üblichen 27
schönsten 27
archä@@ 27
einkaufen 27
vorhaben 27
signifi@@ 27
arabische 27
dio@@ 27
zweit@@ 27
harm@@ 27
infektion 27
erzähl 27
rechnet 27
inger 27
misch 27
verblüffende 27
weitergegeben 27
² 27
leber@@ 27
worin 27
mammo@@ 27
konto 27
vollem 27
jupiter 27
kartoffeln 27
schall 27
engl@@ 27
wende 27
rob 27
ernsthafte 27
mitgefühls 27
massi@@ 27
erfassung 27
anfangs 27
kocht 27
animation 27
beach 27
kriterien 27
zwei-@@ 27
sn@@ 27
berkeley 27
erender 27
chten@@ 27
lichung 27
42 27
redeten 27
begraben 27
materials 27
depressi@@ 27
julia 27
endeffekt 27
dynamisch 27
vollstän@@ 27
greifend 27
möglichst 27
simu@@ 27
liehen 27
yor@@ 27
belohnt 27
zerbrech@@ 27
verla@@ 27
ic@@ 27
kopenhagen 27
beratung 27
pert 27
haushalts@@ 26
agen@@ 26
spri@@ 26
astronom@@ 26
an-@@ 26
ausüben 26
fahrrad@@ 26
tags 26
trom@@ 26
zyklen 26
skeptisch 26
männlichen 26
athle@@ 26
doppelte 26
lehrte 26
volkes 26
ordentlich 26
sudan 26
rollt 26
nervenzelle 26
cool@@ 26
hten 26
folgendermaßen 26
sehvermögen 26
zweier 26
verteidigungs@@ 26
lierte 26
kampf@@ 26
geren 26
syn@@ 26
befestigt 26
lächer@@ 26
hochzeit 26
190@@ 26
parasiten 26
kyros 26
gewässer 26
südpol 26
optische 26
bedeutsam 26
jungfrau 26
schlan@@ 26
temp@@ 26
lierung 26
verun@@ 26
down@@ 26
gesellschaft@@ 26
leichten 26
kiefer 26
euren 26
reser@@ 26
ritu@@ 26
umbringen 26
elektron@@ 26
fundamentalen 26
gravi@@ 26
top 26
charakteri@@ 26
ineinander 26
kenntnisse 26
abschneiden 26
vibri@@ 26
weisst 26
wohingegen 26
zufälligen 26
begegnung 26
zeitig 26
cu@@ 26
ankün@@ 26
hinterkopf 26
bieren 26
versteckte 26
erzogen 26
dynamische 26
entscheidungs@@ 26
kaner 26
rump@@ 26
gestör@@ 26
aufzugeben 26
unterir@@ 26
liebe@@ 26
verwirr@@ 26
kompromis@@ 26
energies@@ 26
mien 26
kaffee@@ 26
verg@@ 26
kosovo 26
ansah 26
schmelzen 26
bruce 26
tivität 26
ungsa@@ 26
beugen 26
rey 26
sprä@@ 26
fossilien 26
schme@@ 26
zap@@ 26
affe 26
tank@@ 26
keni@@ 26
erweise 26
banjo 26
blühen 26
ückt 26
asia@@ 26
möglich@@ 26
board 26
dergleichen 26
ernährungs@@ 26
herausfand 26
fab@@ 26
längere 26
ali 26
wiki@@ 26
striert 26
sensor 26
molekularen 26
besucher 26
geringsten 26
freut 26
mem 26
entscheidet 26
erfolgreicher 26
gemeinsames 26
asche 26
trennt 26
zusprechen 26
abgeben 26
carl 26
arden 26
gift@@ 26
hiervon 26
besorgen 26
organischen 26
eigung 26
hlen@@ 26
eingriff 26
wegzu@@ 26
schnurr@@ 26
waschmaschine 26
7.@@ 26
berech@@ 26
leitete 26
schauspiel@@ 26
beur@@ 26
befanden 26
schütz@@ 26
versor@@ 26
kostete 26
itäre 26
tomo@@ 26
itä@@ 26
faser 26
südlichen 26
tradition@@ 26
anpassungs@@ 26
mischer 26
kanische 26
lädt 26
gelten 26
verabschie@@ 26
notizen 26
angefertigt 26
zwin@@ 26
angemessen 26
haft@@ 26
funktions@@ 26
auswahlmöglichkeiten 26
berücksichtigen 26
berlin 26
anstrengungen 26
statt@@ 26
kleber 26
deines 26
sommer@@ 26
globus 26
zusammenbringen 26
generiert 26
anatomie 26
bizar@@ 26
server 26
genoms 26
lizenz 26
café 26
clinton 26
mädchens 26
shakespeare 26
phänomene 26
propaganda 26
psychische 26
sprich@@ 26
oliver 26
dichten 26
geor@@ 26
ler-@@ 26
satz@@ 26
tageslicht 26
kurven 26
meeresboden 26
rinde 26
äußere 26
under 26
anbauen 26
drahtlose 26
laser 26
modus 26
formation 26
zahlreiche 26
fi 26
barrel 26
lateinamerika 26
ginge 26
sli@@ 26
besaß 26
anstrengung 26
mobilität 26
2012 26
professoren 26
up-@@ 26
pingu@@ 26
bedürf@@ 26
moderner 26
ausbruch 26
edi@@ 26
dee 26
zigar@@ 26
ai@@ 26
patent 26
moore 26
keines@@ 26
satelli@@ 26
schaltkreis 26
tivi@@ 26
ds@@ 26
konzer@@ 26
neter 26
glühbirnen 26
mität 26
lande@@ 26
zeichne 26
dos 26
tunes@@ 26
shar@@ 26
francis 26
wettbewerbs@@ 26
hieren 26
fisches 26
selbstmord 26
drittes 26
riesenha@@ 26
wäldern 26
kos@@ 26
thunfische 26
fischerei@@ 26
riefen 26
anek@@ 26
diplomat 26
stigt 26
geborenen 26
körner 26
evolutionäre 26
erhöhten 26
sitzung 26
raster 26
wußte 26
orien 26
--- 26
dünn 26
außergewöhn@@ 26
sank 26
gela@@ 26
schlauch 26
informieren 26
verdrah@@ 26
schießt 26
starker 26
insekt 26
designen 26
bedrohungen 26
absol@@ 26
älterer 26
abstrakte 26
gemein 26
tul@@ 26
leidenschaften 26
fahrts@@ 26
idealen 26
lebenser@@ 26
wright 26
übernimmt 26
format 26
portrait 26
hierarchie 26
anderthalb 26
ansammlung 26
materielle 26
hormone 26
zurückzukehren 26
kisten 26
vermischt 26
dorf@@ 26
wohltä@@ 26
klarheit 26
abgeord@@ 26
ringe 26
elefant 26
onnen 26
weis@@ 26
phot@@ 26
überleben@@ 26
manö@@ 26
antreibt 26
ärger@@ 26
einschränkung 26
tho@@ 26
wirkungen 26
komponi@@ 26
jazz 26
av 26
orange 26
marsch 26
ernährt 26
unangenehm 26
zwangsläufig 26
arbeitern 26
briten 26
konserva@@ 26
gesprächen 26
allen@@ 26
aufgegeben 26
dumme 26
wissenschaftlicher 26
verursa@@ 26
glu@@ 26
hinterfragen 26
schiffen 26
europä@@ 26
zellul@@ 26
gend@@ 26
weckt 26
bilder@@ 26
fülle 26
selbster@@ 26
schweben 26
train@@ 26
jefferson 26
führungen 26
gefügt 26
gon@@ 26
gesto@@ 26
abfolge 26
rem 26
clever 26
wirtschaften 26
ator@@ 26
fokussiert 26
arb@@ 26
tromm@@ 26
saft 26
grauen 26
brunnen 26
erwär@@ 26
erfolgreichen 26
schick@@ 25
schwierigsten 25
detailli@@ 25
90er 25
gehä@@ 25
liebes@@ 25
kno@@ 25
mitgliedern 25
retro@@ 25
darwin@@ 25
wach 25
facebook-@@ 25
geniale 25
hop@@ 25
ings@@ 25
verursachte 25
bär 25
spontan@@ 25
organisi@@ 25
leuchten@@ 25
umfassende 25
dom 25
quad@@ 25
auftauchte 25
dank@@ 25
westküste 25
trag 25
busch 25
wohlhab@@ 25
vorhersehbar 25
feind@@ 25
massa@@ 25
befehl 25
lon@@ 25
vorberei@@ 25
rose 25
engen 25
scans 25
op 25
hirns 25
verschiebung 25
erfolge 25
aspe@@ 25
dumm@@ 25
einfachsten 25
herauskommen 25
ägypter 25
horn 25
erwachsenen@@ 25
weitergeben 25
effizi@@ 25
enzen 25
brennstoff@@ 25
gröss@@ 25
wirksam 25
ams 25
stolper@@ 25
80@@ 25
einsicht 25
berufe 25
malari@@ 25
kais@@ 25
assoziiert 25
strömen 25
genu@@ 25
dreieinhalb 25
ausgangspunkt 25
tiefsee 25
enor@@ 25
zuhörer 25
pflicht 25
sagst 25
impor@@ 25
stal@@ 25
stest 25
unerwartete 25
pakistan@@ 25
verges@@ 25
bruch@@ 25
pünkt@@ 25
element@@ 25
heili@@ 25
gram@@ 25
bangalore 25
exempl@@ 25
automaten 25
re-@@ 25
kultivi@@ 25
julian 25
hindernis 25
fortzu@@ 25
dol@@ 25
interviewer 25
wendepunkt 25
anda 25
wörter@@ 25
nischen 25
pädago@@ 25
künstlerische 25
ahmen 25
paket 25
übungen 25
pflanz@@ 25
nachhaltigen 25
grafik@@ 25
frisch 25
tions-@@ 25
produktiv 25
betrie@@ 25
pool 25
kennedy 25
verklein@@ 25
kommerzielle 25
herzkrankheiten 25
grupp@@ 25
vermächtnis 25
reist 25
high@@ 25
befasst 25
stipendium 25
basierten 25
nehmt 25
lupe 25
ple@@ 25
ebay 25
ausgerichtet 25
ganzer 25
geleistet 25
speisen 25
braun 25
universitäts@@ 25
chtern@@ 25
fröh@@ 25
präsenz 25
hinzugefügt 25
geheimen 25
weichen 25
schütt@@ 25
knei@@ 25
baus 25
shei@@ 25
anrei@@ 25
stimmten 25
mechan@@ 25
unglaub@@ 25
ärgert 25
kus@@ 25
klettert 25
auslän@@ 25
reagi@@ 25
va-@@ 25
infektions@@ 25
üs@@ 25
handgelenk 25
dächer 25
tauchte 25
bla@@ 25
osteuropa 25
stchen 25
vitamin 25
fang@@ 25
halter 25
unden 25
hender 25
wehr 25
meeren 25
religiö@@ 25
baumwolle 25
tanten 25
mals 25
nötige 25
abläuft 25
geschrie@@ 25
promin@@ 25
cap@@ 25
gemeinnützige 25
alistischen 25
streichen 25
libanon 25
gipf@@ 25
zeichen@@ 25
vertik@@ 25
moment@@ 25
zigern 25
part@@ 25
animationen 25
zimmern 25
mythen 25
klären 25
forum 25
beängstigend 25
wiederherzustellen 25
deutsche 25
anthropolo@@ 25
beiseite 25
pittsburgh 25
gelö@@ 25
lade 25
pfad 25
höl@@ 25
saison 25
merkwür@@ 25
barry 25
rische 25
basis@@ 25
neuron 25
wilden 25
mord 25
riss 25
vogelgrippe 25
ologisch 25
ausgerottet 25
uhr@@ 25
96 25
geben@@ 25
hässlich 25
antworteten 25
einhundert 25
reichlich 25
momenten 25
lim@@ 25
behauptung 25
vermö@@ 25
by@@ 25
hervorrufen 25
kopien 25
lungs@@ 25
demonstriert 25
2015 25
bou@@ 25
aktionen 25
überraschen 25
glied@@ 25
scheiben 25
regnet 25
wahrzunehmen 25
wille 25
szenen 25
5-@@ 25
.org 25
smo@@ 25
sauber@@ 25
gewinnung 25
vention 25
geheimnis@@ 25
wund@@ 25
patenti@@ 25
ws 25
verlangsamt 25
normen 25
kompetenz 25
gewidmet 25
verwandelte 25
cortex 25
ica 25
herausforder@@ 25
zufolge 25
inhalts@@ 25
geomet@@ 25
feier@@ 25
ikon@@ 25
gesang 25
äthiop@@ 25
boom@@ 25
kreativer 25
folter 25
aufwachen 25
geringen 25
auslöst 25
base@@ 25
zukünf@@ 25
irren 25
anlegen 25
antreiben 25
portraits 25
vielver@@ 25
jünger 25
söhne 25
positives 25
stundenlang 25
grünes 25
ordent@@ 25
warnung 25
betroffenen 25
myzel 25
erendes 25
triebene 25
innern 25
satzes 25
waisen@@ 25
ersatz@@ 25
einsparungen 25
vollste 25
vorgänge 25
warm 25
statten 25
dokumentiert 25
green 25
m. 25
vergeben 25
erforder@@ 25
materiellen 25
titelseite 25
1970 25
varianten 25
soldat 25
fallschirm 25
nathan 25
bestanden 25
geschäftsmodell 25
disziplinen 25
rekru@@ 25
abilität 25
instru@@ 25
ähnlichkeit 25
intellektu@@ 25
örtliche 25
wohltätigkeit 25
instinktiv 25
lauten 25
pfleger 25
verarbeitet 25
spür@@ 25
aufgeb@@ 25
hormon 25
bunker 25
bremsen 25
tätigkeiten 25
adop@@ 25
geres 25
dad 25
ibm 25
vorgeht 25
intensive 25
zucht 25
yn@@ 25
journal 25
triebenen 25
verstär@@ 25
60@@ 25
nummern 25
sinnen 25
dokumentieren 25
programms 25
stellige 25
dauerhaft 25
kopier@@ 25
klagen 25
psychiater 25
ausserhalb 25
konferenzen 25
gewissheit 25
innovativ 25
aufruf 25
wachen 25
aufklärung 25
sons 25
que@@ 25
schwim@@ 25
force 25
befehle 25
lebensstil 25
krankenschwester 25
inta@@ 25
setzungen 25
versammeln 25
trinkt 25
ähneln 25
jahrhunderten 24
fehlern 24
verkür@@ 24
stückchen 24
cks@@ 24
elternteil 24
ax@@ 24
out@@ 24
bewusste 24
erdöl 24
begrenzung 24
bezir@@ 24
steri@@ 24
gebt 24
tödlich 24
aero@@ 24
1980ern 24
idi@@ 24
geschäftsführer 24
weitem 24
hal 24
weiser 24
kindergarten 24
wanderung 24
schach@@ 24
frühe@@ 24
verwei@@ 24
teln 24
signatur 24
knö@@ 24
100-@@ 24
grade 24
hass 24
konzentri@@ 24
michigan 24
stadi@@ 24
sth@@ 24
handwerk@@ 24
kilogramm 24
76 24
künfte 24
berü@@ 24
0.@@ 24
verlegen 24
sem 24
stützen 24
schlau@@ 24
herauskommt 24
gebenen 24
ethnische 24
verbringt 24
meta@@ 24
lebensweise 24
erober@@ 24
erdbe@@ 24
kalifor@@ 24
träum@@ 24
manipuliert 24
wirkungs@@ 24
high-@@ 24
beigetragen 24
alaska 24
entinnen 24
zaun 24
erhit@@ 24
ausbreitung 24
wohnt 24
tten@@ 24
sebastian 24
erreich@@ 24
entzün@@ 24
technologischen 24
glat@@ 24
wecken 24
äf@@ 24
antikörper 24
offiziell 24
under@@ 24
todesfälle 24
97 24
pos@@ 24
hüb@@ 24
verantwor@@ 24
untergang 24
meinungs@@ 24
fund@@ 24
terror@@ 24
ausschalten 24
zeitraff@@ 24
regulierung 24
gänzlich 24
karikatur 24
gericht@@ 24
auti@@ 24
tedtalk 24
annäher@@ 24
vernünftige 24
womöglich 24
e. 24
bewusster 24
elend 24
unternehmens 24
visueller 24
installiert 24
wirbel 24
verbrau@@ 24
fresser 24
trainer 24
män@@ 24
fö@@ 24
bewertet 24
unsicht@@ 24
rischen 24
lachten 24
ox@@ 24
verhe@@ 24
rechtzeitig 24
uh 24
zunahme 24
designt 24
fieber 24
diversität 24
mittags 24
fehlende 24
kreatur 24
marathon 24
veranstal@@ 24
trö@@ 24
körperlich 24
psychologische 24
biologischer 24
höhlen@@ 24
zusammengesetzt 24
versicherungs@@ 24
ökologische 24
fundament@@ 24
drachen 24
gewohn@@ 24
vereinbarung 24
eintausend 24
historiker 24
gärten 24
günstig 24
säuren 24
angenehme 24
kibera 24
nör@@ 24
verfüg@@ 24
gesetzte 24
nem 24
news 24
herrn 24
orium 24
depressionen 24
gau@@ 24
quallen 24
sj 24
beruhigen 24
gendsten 24
gps 24
magische 24
brokkoli 24
effektive 24
sieg 24
letzt 24
nike 24
neurolo@@ 24
gewiss 24
statistisch 24
mineralien 24
parallel 24
sandwich 24
bend 24
einmali@@ 24
münze 24
warn@@ 24
50. 24
schockiert 24
hervorra@@ 24
amm@@ 24
finanzkrise 24
belegen 24
instin@@ 24
standar@@ 24
notiz@@ 24
impfung 24
geg@@ 24
52 24
rechenleistung 24
äufe 24
50er 24
synthetische 24
unabhängigen 24
boom 24
überaus 24
fäll@@ 24
atom 24
assi@@ 24
beat@@ 24
geist@@ 24
strassen 24
keith 24
feder 24
hemd 24
sputnik 24
kanad@@ 24
pennsylvania 24
einsichten 24
repor@@ 24
norm 24
gefangenen 24
gesichtern 24
franzö@@ 24
stopp@@ 24
gemalt 24
ewi@@ 24
russischen 24
seg@@ 24
spartner 24
slum 24
ärztin 24
proportional 24
worben 24
gewebe@@ 24
grab 24
tust 24
ultra@@ 24
bits 24
astronomie 24
reflektiert 24
erleuchtung 24
ethische 24
bedien@@ 24
verband 24
schock@@ 24
ares 24
kleidet 24
dominiert 24
hunger@@ 24
kaninchen 24
itären 24
folglich 24
abhängen 24
umdrehen 24
alist 24
variation 24
eingebau@@ 24
nigen 24
täuscht 24
deka@@ 24
bestimmung 24
fres@@ 24
hür@@ 24
beleu@@ 24
wöch@@ 24
abweichung 24
jah@@ 24
bewege 24
palästina 24
entwarf 24
unterbrechen 24
gil@@ 24
tech@@ 24
konzerne 24
mitbringen 24
ent-@@ 24
dampf@@ 24
unterschieden 24
kunden@@ 24
stich 24
schützer 24
dramati@@ 24
gleichermaßen 24
glaubens@@ 24
ktiv@@ 24
überwältigend 24
wun@@ 24
hühner 24
himmels 24
differen@@ 24
lama 24
singt 24
mittlere 24
scan@@ 24
software@@ 24
utop@@ 24
hotels 24
geduld 24
ay 24
weihnachten 24
schulbildung 24
drastisch 24
demokrati@@ 24
unglaublicher 24
schär@@ 24
gebe@@ 24
budgets 24
beliebige 24
katastrophal@@ 24
hebel 24
spreng@@ 24
biologe 24
enthüll@@ 24
krimin@@ 24
praktischen 24
ausgestorben 24
abend@@ 24
sauer 24
operations@@ 24
rechenschaft 24
anpas@@ 24
dramatische 24
dau@@ 24
geistige 24
genauigkeit 24
cousins 24
analysis 24
stringtheorie 24
piloten 24
syrien 24
hunderttausend 24
ägyp@@ 24
dalai 24
sturz 24
scharf 24
maßstä@@ 24
aussicht 24
syndrom 24
wache 24
frak@@ 24
let 24
enzyklopädie 24
fund 24
andro@@ 24
bakterien@@ 24
korrup@@ 24
verschwanden 24
erbar 24
traten 24
angenehm 24
stämmen 24
ima@@ 24
zerstörer@@ 24
philanthropie 24
daumen 24
gebro@@ 24
fünfte 24
blüte 24
1980 24
intro@@ 24
data 24
coca-cola 24
helm 24
stem@@ 24
wech@@ 24
partei@@ 23
typischerweise 23
agen 23
val 23
flusses 23
nachahmen 23
geheime 23
säm@@ 23
bevor@@ 23
rädern 23
nobelprei@@ 23
werben 23
zugelassen 23
serviert 23
blockiert 23
misch@@ 23
schrei 23
blutgefäße 23
schlauer 23
blogger 23
ausschau 23
aufgeteilt 23
ameisen@@ 23
einbauen 23
khan 23
bring@@ 23
geheim 23
fie@@ 23
konservativen 23
meditation 23
löste 23
aufpassen 23
intrin@@ 23
herkommt 23
versorgungs@@ 23
amerikanern 23
kulturell 23
tödlichen 23
ene@@ 23
überrasch@@ 23
gehende 23
einkommens 23
talk 23
engel 23
günstiger 23
neurowissenschaftler 23
arktis 23
gewer@@ 23
weswegen 23
komplizier@@ 23
besor@@ 23
tibet 23
zusammenspiel 23
zigen 23
erleiden 23
neander@@ 23
ingenieurs@@ 23
fürchter@@ 23
umgeht 23
ansteckend 23
griech@@ 23
zurufen 23
variante 23
orchest@@ 23
anleitung 23
bauchspeicheldrü@@ 23
insulin 23
stickstoff@@ 23
konstant 23
wesent@@ 23
gkeits@@ 23
vertierte 23
konzert 23
eu 23
konkurri@@ 23
gefährlichen 23
esses 23
radikal@@ 23
1991 23
erneuerbaren 23
guta@@ 23
rich@@ 23
abwesenheit 23
mäßigen 23
to-@@ 23
natasha 23
genial 23
sow@@ 23
tee@@ 23
einverstanden 23
medizinischer 23
warfen 23
direkten 23
energiequ@@ 23
glüh@@ 23
giftigen 23
igte 23
magen 23
abe 23
funktionsweise 23
jähriges 23
beschrän@@ 23
linear 23
frequenzen 23
obersten 23
teleskope 23
stlich 23
regulieren 23
führern 23
chungen 23
community 23
bieter 23
mobile 23
traum@@ 23
od@@ 23
belohnungen 23
verschie@@ 23
reaktoren 23
verbrannt 23
vorträgen 23
zehntel 23
trauer 23
völli@@ 23
rauszu@@ 23
1,3 23
witz@@ 23
8.000 23
bekämpfung 23
bemerkten 23
simpel 23
kompliziertes 23
spezifisch 23
trin@@ 23
empfindlich 23
behindert 23
schwäch@@ 23
integration 23
ausbilden 23
pfa@@ 23
porno@@ 23
super-@@ 23
chterung 23
trick@@ 23
einfl@@ 23
geschichtenerzähler 23
yves 23
mikr@@ 23
betrachtete 23
angst@@ 23
strukturi@@ 23
apps 23
totale 23
spin@@ 23
öster@@ 23
50ern 23
trieb@@ 23
musikstück 23
‟ 23
bewerben 23
karikaturen 23
no 23
besprechen 23
bündel 23
protesti@@ 23
resistent 23
hohes 23
spannende 23
gebnisse 23
spanne 23
hübsch 23
reste 23
teter 23
bte 23
schüchtern 23
erhol@@ 23
befestigen 23
gehenden 23
äl@@ 23
ökolog@@ 23
monterey 23
rachel 23
offener 23
sno@@ 23
bedeutenden 23
kooperieren 23
ventionen 23
28@@ 23
bün@@ 23
ausgeführt 23
ofen 23
billige 23
jackson 23
mac@@ 23
geschlossenen 23
armuts@@ 23
überge@@ 23
automati@@ 23
museen 23
vorgehen 23
wiederbele@@ 23
pst 23
besaßen 23
zusammenzubringen 23
ökonom 23
unterdrücken 23
pfe@@ 23
zar@@ 23
intelligenter 23
nahrungsmittel@@ 23
spra@@ 23
gehörte 23
ertem 23
browser 23
cents 23
magneten 23
fg 23
lett 23
elementar@@ 23
mechanische 23
beijing 23
schwangerschaft 23
hawking 23
aufzeigen 23
korrigieren 23
wanderte 23
ungewöhn@@ 23
rechtfertigen 23
fes@@ 23
datum 23
künstliches 23
publikums 23
ausgesprochen 23
nachbar 23
mix@@ 23
vieh 23
zuver@@ 23
paradies 23
vereinigung 23
nieren 23
pump@@ 23
tsch 23
beweis@@ 23
chts@@ 23
rechnungen 23
vorgeschlagen 23
wurf 23
afro@@ 23
terweise 23
pol 23
luxus 23
achte 23
überla@@ 23
matt 23
verbrachten 23
zeitungs@@ 23
externe 23
katastrophen@@ 23
ot 23
unerwartet 23
greifbar 23
essi@@ 23
kompletten 23
untersuchte 23
wärts@@ 23
mechanisch 23
namibia 23
istischen 23
erforsch@@ 23
vergan@@ 23
minderheit 23
wissenschaft@@ 23
lations@@ 23
festi@@ 23
gemeinsamkeiten 23
phtal@@ 23
yl@@ 23
fehlte 23
verstop@@ 23
terien 23
gewandt 23
table@@ 23
ingt 23
komment@@ 23
qualitäten 23
1984 23
cluster 23
erderwärmung 23
schoss 23
seen 23
stadien 23
reine 23
versuch@@ 23
täts@@ 23
geringe 23
jo 23
flexibel 23
dokument 23
belegt 23
quantenmechanik 23
prozessor 23
ushahidi 23
magischen 23
sprung@@ 23
hinsehen 23
rhyth@@ 23
töteten 23
hydr@@ 23
pferde 23
silber@@ 23
kon 23
chr. 23
operieren 23
kollaps 23
ritual 23
gendste 23
iniert 23
beha@@ 23
terror 23
lautsprecher 23
instab@@ 23
papiere 23
stimuliert 23
psychischen 23
detail@@ 23
garantiert 23
zittern 23
ström@@ 23
kak@@ 23
marketing@@ 23
2.0 23
sonderlich 23
erkenne 23
dp 23
akzeptanz 23
rosling 23
oll 23
versammlung 23
abnehmen 23
stapeln 23
iken 23
fda 23
zahlen@@ 23
notfall@@ 23
fallschir@@ 23
langle@@ 23
nachkommen 23
wickelt 23
stacheln 23
pel@@ 23
schleu@@ 23
geschlafen 23
fair@@ 23
demut 23
iron@@ 23
wehren 23
missbrauch 23
met 23
schnellste 23
gheit 23
blindheit 23
akademischen 23
ambi@@ 23
oo@@ 23
reichsten 23
aufregung 23
testoster@@ 23
stuhl@@ 23
sexuellen 23
nützliches 23
urbane 23
hetero@@ 23
gespr@@ 23
südamerika 23
chemik@@ 23
belä@@ 23
blöcke 23
kör@@ 23
biot@@ 23
nobelpreis 23
installieren 23
wunderbarer 23
währenddessen 23
verspreche 23
saurier 23
kommerzi@@ 23
halte@@ 23
ile 23
epo@@ 23
luther 23
greifenden 23
flexi@@ 23
onale 23
pfeiler 23
anfälli@@ 23
spektrums 23
verteidigen 22
glamour@@ 22
authentizität 22
bäcker@@ 22
funde 22
asteroid 22
unbekannt 22
ostafrika 22
cho@@ 22
korrek@@ 22
ation@@ 22
richtiger 22
stammbaum 22
stehenden 22
verknüpf@@ 22
gefeiert 22
tage@@ 22
ziegen 22
formuliert 22
christus 22
frisst 22
speicher@@ 22
ky 22
erlebnisse 22
alphabet 22
apollo 22
verrückter 22
sori@@ 22
tabelle 22
bevölk@@ 22
vordergrund 22
jen@@ 22
unbeabsichti@@ 22
ative 22
galerien 22
linksliber@@ 22
maske 22
verzi@@ 22
etzt 22
misstr@@ 22
ny@@ 22
faden 22
addi@@ 22
ktur 22
luden 22
pflegen 22
sigen 22
yu@@ 22
selbsthilfe@@ 22
oben@@ 22
zusammensch@@ 22
amer@@ 22
argumen@@ 22
organen 22
protozelle 22
minü@@ 22
bade@@ 22
bewegten 22
truppe 22
widersprüch@@ 22
tempest 22
farmen 22
zunimmt 22
dänemark 22
russen 22
irration@@ 22
alar@@ 22
schema 22
misser@@ 22
zugehörigkeit 22
äumen 22
beheben 22
brüdern 22
möbel@@ 22
molekü@@ 22
fris@@ 22
deprimiert 22
fliegenden 22
et-@@ 22
anschließen 22
provo@@ 22
chirurg@@ 22
zapfen 22
umfragen 22
treibung 22
hacken 22
laser@@ 22
imp@@ 22
bes 22
ungeachtet 22
freundliche 22
netter 22
engli@@ 22
who 22
gebär@@ 22
sauberes 22
kenden 22
dieb@@ 22
angeben 22
wurzelt 22
umzuwandeln 22
ereignissen 22
zehnmal 22
ftet 22
beschränkungen 22
topo@@ 22
höhen@@ 22
massiv 22
british 22
eilen 22
sky 22
unzählige 22
nst 22
digitales 22
jüdischen 22
lich-@@ 22
sonntag 22
inspirierte 22
ngos 22
geschicht@@ 22
komman@@ 22
booten 22
zusamment@@ 22
überlebenden 22
meilen@@ 22
pfle@@ 22
fossile 22
tsam 22
unschul@@ 22
erreichten 22
unfähig 22
hur@@ 22
intensiv@@ 22
qui@@ 22
els@@ 22
äter 22
drauf@@ 22
annt 22
dankbarkeit 22
leistet 22
ivan 22
iden 22
dynamischen 22
lexi@@ 22
nes@@ 22
konzipi@@ 22
empfehlen 22
gewebes 22
datei 22
herunterladen 22
verwirk@@ 22
fels@@ 22
eigentü@@ 22
kollektive 22
starr@@ 22
fuss@@ 22
umgibt 22
watson 22
innovative 22
förmig 22
stone 22
bezieh@@ 22
geburt@@ 22
heilmittel 22
ks@@ 22
modell@@ 22
kten@@ 22
grundi@@ 22
grenzen@@ 22
spielern 22
erkun@@ 22
impulse 22
mittag 22
witzig 22
digten 22
vergewaltigung 22
dreieck 22
aqu@@ 22
mör@@ 22
enger 22
gefiel 22
kürzer 22
herausge@@ 22
sonst@@ 22
gase 22
technologi@@ 22
kurzfri@@ 22
training@@ 22
unterhaltungs@@ 22
berufen 22
digkeit 22
orientierung 22
maten 22
positiver 22
sequenzierung 22
rissen 22
intelligentes 22
äus@@ 22
erfolgreich@@ 22
source 22
spor@@ 22
japan@@ 22
black@@ 22
tamiflu 22
aha 22
überprüft 22
schöpfen 22
jährlichen 22
beruflich 22
reichhal@@ 22
aufzeichnen 22
zuviel 22
grü@@ 22
stange 22
gesamtheit 22
wac@@ 22
begegnet 22
nachah@@ 22
verbundenen 22
ston 22
hineinzu@@ 22
reise@@ 22
hubschrau@@ 22
mad@@ 22
sischen 22
freundes 22
900 22
vorlieben 22
warren 22
ssen@@ 22
toronto 22
verlor@@ 22
abstimmung 22
anfällig 22
verantwort@@ 22
angegriffen 22
generi@@ 22
gestri@@ 22
180 22
bewundern 22
vorbereiten 22
lehrplan 22
orientierten 22
geehrt 22
flus@@ 22
leiden@@ 22
verträge 22
alle@@ 22
betrogen 22
maxim@@ 22
engineering 22
unsicher 22
terie 22
kunstwerk 22
jonglieren 22
kleider@@ 22
jur@@ 22
dreck 22
bezahlte 22
facht 22
peng 22
zellen@@ 22
transplantation 22
drückte 22
langlebigkeit 22
seltene 22
charak@@ 22
zeremonie 22
lady 22
vermehren 22
terr@@ 22
machbar 22
selbstvertrauen 22
zivil@@ 22
spitz@@ 22
gruse@@ 22
elo@@ 22
bali 22
gewöhnen 22
erwarte 22
hauen 22
notaufnahme 22
stür 22
mi 22
neocortex 22
verän@@ 22
cas@@ 22
laun@@ 22
gekostet 22
hens@@ 22
passten 22
splan@@ 22
weggehen 22
25.000 22
wiederauf@@ 22
unterscheidung 22
knöpfe 22
optimieren 22
belohnen 22
errei@@ 22
benötigten 22
verwalten 22
fonds 22
gründet 22
tate 22
datensatz 22
spitzen@@ 22
bestechung 22
ahnen 22
technolog@@ 22
ruhen 22
checkliste 22
herzens 22
them@@ 22
twitter@@ 22
packte 22
lou@@ 22
fertigkeiten 22
mck@@ 22
erschließen 22
gebor@@ 22
gliches 22
schreckliches 22
betritt 22
rasen 22
geldes 22
lippen 22
fußball@@ 22
bewässer@@ 22
gegenseitige 22
rauf 22
armstrong 22
schüsse 22
vorbeu@@ 22
kathedrale 22
allgegenwärtig 22
vorherigen 22
eingebracht 22
sig 22
häuft 22
glichkeit 22
beteiligung 22
voraussetzung 22
schuh@@ 22
micro@@ 22
tivem 22
operiert 22
subsahar@@ 22
wider 22
willkür@@ 22
alp@@ 22
zipcar 22
gerade@@ 22
ruiniert 22
kredit 22
river 22
hungen 22
griffe 22
unfair 22
arin 22
damali@@ 22
präsent 22
tationen 22
häufigsten 22
ups 22
mmern 22
verdun@@ 22
bosnien 22
seli@@ 22
persönlichkeiten 22
vin@@ 22
riskieren 22
ash@@ 22
aufgezogen 22
honig 22
erwarteten 22
man-@@ 22
schwa@@ 22
you 22
arkti@@ 22
eil 22
fs@@ 22
gesi@@ 22
blockieren 22
nun@@ 22
ihu@@ 22
betrachter 22
spirituellen 22
ama 22
statue 22
realisierte 22
drungen 22
ffekt 22
artikeln 22
kaulquapp@@ 22
fügte 22
farben@@ 22
stechen 22
begrenzten 22
gesinn@@ 22
klippe 22
moeg@@ 22
forderungen 22
susan 22
prothesen 22
8. 22
einheit@@ 22
derart 22
hingabe 22
verschwendet 22
brecher 22
preisen 22
goldenen 22
inne 22
privilegi@@ 22
geschwister 22
schreitet 22
frü@@ 22
nahrungskette 22
ji@@ 22
trauen 22
mas 22
gänz@@ 22
geschni@@ 22
erhöhte 22
bewertung 22
isoli@@ 22
schub 22
wag@@ 22
laufenden 22
herausstellte 22
ii 22
notwendigerweise 22
wilson 22
erzielt 22
wassers 22
befru@@ 22
loy@@ 22
tums 22
zweifellos 22
fünftel 22
verpackung 22
wis@@ 22
ermordet 22
ethanol 22
wiedersehen 22
brut@@ 22
trost 22
höherer 22
ungsprogramm 22
ueber@@ 22
zwe@@ 22
amazonas 22
entzündung 22
variablen 22
verkörpert 22
bloße 22
sweise 21
weitergehen 21
elektron 21
antwortet 21
läufi@@ 21
bedürfnissen 21
then 21
einbezogen 21
lebendige 21
atmosp@@ 21
autonomie 21
produzier@@ 21
drä@@ 21
elektri@@ 21
barem 21
qualle 21
wars 21
shu@@ 21
vorschläge 21
aquarium 21
kate 21
thr@@ 21
ro 21
leicht@@ 21
einzufangen 21
fertiggestellt 21
völkermord 21
1989 21
wood 21
geliebt 21
undeutlich 21
schmecken 21
siehe 21
stößt 21
trainings@@ 21
tasten 21
rituale 21
esch@@ 21
os@@ 21
französisch 21
bestimmter 21
kaffe@@ 21
lebensmitteln 21
produzent 21
vernetzen 21
allt 21
hineinge@@ 21
basier@@ 21
vergröß@@ 21
geschenkt 21
akzent 21
bananen 21
heiratete 21
ausser 21
portugal 21
begründet 21
schlagan@@ 21
evan 21
stungen 21
brad 21
otte 21
korallenriffe 21
glied 21
tern@@ 21
diejenige 21
pus 21
poni@@ 21
vernetzt 21
spektro@@ 21
jeweiligen 21
schlafzimmer 21
kar 21
image 21
auffälli@@ 21
hunder@@ 21
disney 21
verb 21
schützt 21
mili@@ 21
fußball 21
abhandlung 21
zustande 21
vietnam 21
sexual@@ 21
einflöß@@ 21
genauen 21
vt 21
fassten 21
pfeil 21
beharr@@ 21
tank 21
arab@@ 21
kopfschmerzen 21
be-@@ 21
reserv@@ 21
ron@@ 21
geschie@@ 21
graham 21
meistern 21
sätz@@ 21
nordo@@ 21
höch@@ 21
stem 21
fischer@@ 21
gesegnet 21
zusammenzuarbeiten 21
schwam@@ 21
seltsames 21
eignen 21
ata 21
verdeutlichen 21
64 21
ampu@@ 21
norman 21
hin- 21
renaissance 21
beherr@@ 21
erträge 21
leop@@ 21
generator 21
werkzeug@@ 21
vor-@@ 21
stiger 21
durchge@@ 21
verlierer 21
pathie 21
wohnwagen 21
berichtete 21
antike 21
wahres 21
auseinandersetzung 21
auflösen 21
kühlung 21
iq 21
py@@ 21
arabisch 21
taste 21
carnegie 21
bmw 21
revolutionen 21
flow 21
edinburgh 21
beobachteten 21
drehe 21
extrem@@ 21
grundstück 21
studentin 21
triebs@@ 21
kontam@@ 21
koch 21
ham 21
fili@@ 21
entscheidung@@ 21
lebensdauer 21
ein- 21
erectus 21
freigesetzt 21
biotechnologie 21
austral@@ 21
vergangen 21
einher@@ 21
kuli@@ 21
steigende 21
albern 21
konsi@@ 21
wahlmöglichkeiten 21
rus@@ 21
ktor@@ 21
mais@@ 21
than@@ 21
arch@@ 21
notwen@@ 21
hübsche 21
ipod 21
dirigenten 21
interaktiv 21
abschied 21
religiös 21
sammlungen 21
videospiel 21
verließen 21
mosle@@ 21
hasst 21
änden 21
universelle 21
vorherrsch@@ 21
iten 21
pflegt 21
dsten 21
bten 21
deter 21
bör@@ 21
oktopus 21
unterhal@@ 21
irre 21
übereinstimmen 21
öffnung 21
zugs@@ 21
forderte 21
begrüßen 21
bühnen@@ 21
eigert 21
dak@@ 21
bür@@ 21
makro@@ 21
jar@@ 21
unterneh@@ 21
ha-@@ 21
redak@@ 21
frisch@@ 21
vent@@ 21
ures 21
intimität 21
spie@@ 21
kleid 21
teppiche 21
mass@@ 21
bräuchten 21
santa 21
fassung 21
fans 21
jüngsten 21
hervorheben 21
nähert 21
barriere 21
umkreisen 21
ets 21
modern@@ 21
synästhesie 21
verabschieden 21
merkwürdige 21
schlachten 21
lichtgeschwindigkeit 21
tät@@ 21
szenarien 21
analphab@@ 21
offizielle 21
tante 21
web-@@ 21
energiever@@ 21
xt 21
steigen@@ 21
drehten 21
älen 21
irak@@ 21
schwieriges 21
paradig@@ 21
krisen 21
schwierig@@ 21
ereien 21
wertung 21
unterhalts@@ 21
kerle 21
nord-@@ 21
esst 21
realistisch 21
veteranen 21
dab@@ 21
feste 21
unausweich@@ 21
leugnen 21
bekanntes 21
proze@@ 21
dur 21
klebeband 21
meetings 21
arischen 21
aufenth@@ 21
kamele 21
gefäl@@ 21
reputation 21
adap@@ 21
holly@@ 21
emily 21
hinab 21
denjenigen 21
staunen 21
tscher@@ 21
125 21
besiegen 21
arien 21
umsatz 21
verblei@@ 21
oberfläch@@ 21
leds 21
bräuchte 21
ursprünge 21
blocks 21
segel@@ 21
milchstraße 21
out 21
sorten 21
imperi@@ 21
hochwer@@ 21
angerufen 21
fasz@@ 21
entwürfe 21
unterschätzen 21
verwickelt 21
sho@@ 21
gebete 21
erweiterte 21
schlamm 21
beschäf@@ 21
übel 21
shand@@ 21
schoß 21
explosionen 21
zufällige 21
keram@@ 21
400.000 21
kopf-zahl-@@ 21
zige 21
neugierde 21
disku@@ 21
bemüht 21
leone 21
winziger 21
juri@@ 21
vermischen 21
verfein@@ 21
üpp@@ 21
zurückge@@ 21
ideologie 21
act 21
konkurrieren 21
buckel@@ 21
präzision 21
findung 21
cheryl 21
cop@@ 21
brooklyn 21
recycling 21
südafri@@ 21
klüger 21
regisse@@ 21
kse 21
perio@@ 21
lagos 21
noti@@ 21
mäßige 21
längst 21
gewusst 21
ausger@@ 21
anblick 21
billion 21
refor@@ 21
fixiert 21
louis 21
angreifen 21
mensch-@@ 21
bittet 21
löchern 21
pro-@@ 21
beit 21
seitige 21
tender 21
a. 21
bedenkt 21
spielzeuge 21
modelli@@ 21
verständnis@@ 21
verschwenden 21
herzinfarkt 21
kumu@@ 21
erwar@@ 21
sili@@ 21
netzwerk@@ 21
belü@@ 21
stetig 21
hinteren 21
vorschriften 21
einfalls@@ 21
konzentrierten 21
surfen 21
wirtschaftliches 21
extra-dimensionen 21
andauernd 21
beam@@ 21
netzhaut 21
fötus 21
beschleunigung 21
not 21
hierhin 21
gesteckt 21
ethisch 21
stunts 21
fuss 21
öls 21
zweifel@@ 21
begehren 21
stap@@ 21
glass 21
arbeitslosigkeit 21
kugeln 21
sebene 21
grand 21
boten 21
sauberer 21
vermark@@ 21
insel@@ 21
zusammensetzung 21
verläss@@ 21
schum@@ 21
1996 21
zuallererst 21
erheben 21
bom@@ 21
anzieh@@ 21
erstreckt 21
herzer@@ 21
luf@@ 21
sprobleme 21
1945 21
jahrhunder@@ 21
iel 21
welch 21
ange 21
brillante 21
gesie@@ 21
aufmerk@@ 21
matte 21
kansas 21
neil 21
ohne@@ 21
öffentliches 21
agu@@ 21
befreiung 21
erwi@@ 21
emotionales 21
vernunft 21
bekommst 21
anern 21
hunde@@ 21
schan@@ 21
blich 21
finanziell 21
wandeln 21
außerirdische 21
kürze@@ 21
englisch@@ 21
hie@@ 21
blutdruck 21
hellen 21
bär@@ 21
liberia 21
plün@@ 21
elementen 21
spanisch 21
schlepp@@ 21
dste 21
werkstatt 21
verni@@ 21
auskommen 21
riski@@ 21
vorräte 21
alber@@ 21
14. 21
regenerieren 21
magi@@ 21
solltest 21
gelenkt 21
bischen 21
ala 21
fahrzeugen 21
blätter@@ 21
agnes 21
disches 21
anne 21
digitaler 21
ender@@ 21
kosmischen 21
erfolgsgeschichte 21
errungenschaften 21
akademiker 21
klässler 21
sul@@ 21
entwicklung@@ 21
galt 21
tchen 21
vergleiche 21
falt@@ 21
verschreiben 21
landwirtschaftlichen 21
bedienung 21
vergewal@@ 21
aufzus@@ 21
festgehalten 21
gehör@@ 21
agno@@ 21
frische 21
kramp@@ 21
eigentums@@ 21
cli@@ 21
pa 21
whit@@ 21
gedeihen 21
kokain 21
fünfzig 21
kontinente 21
trank 21
umt 21
berry 20
bewertungen 20
kton@@ 20
wien 20
klugen 20
gerte 20
highschool 20
richteten 20
ständigkeit 20
koopera@@ 20
angesprochen 20
album 20
unglück 20
5.@@ 20
kost 20
kontroverse 20
familienplanung 20
vel@@ 20
aliens 20
altmo@@ 20
arizona 20
komplex@@ 20
diskre@@ 20
bundesstaat 20
cnn 20
aufbaut 20
cooper 20
maria 20
schmer@@ 20
karri@@ 20
med 20
atur@@ 20
fluores@@ 20
küssen 20
distan@@ 20
grenzt 20
kennenlernen 20
realisiert 20
nel@@ 20
verlieben 20
delta 20
ungleichgewicht 20
aufgaben@@ 20
bearbeitung 20
sechst@@ 20
furcht 20
lakota 20
recher@@ 20
jahreszeiten 20
kalender 20
enthusiasmus 20
baumwoll@@ 20
zusammenfassung 20
aims 20
wähle 20
ironischerweise 20
clay 20
eingreifen 20
derzeitige 20
min 20
position@@ 20
erkennung 20
stipen@@ 20
verlegt 20
acker@@ 20
sim@@ 20
illegale 20
spiele@@ 20
östlichen 20
aufwachsen 20
steigenden 20
zuneh@@ 20
kiribati 20
überprüf@@ 20
erziehen 20
genommen@@ 20
plätzen 20
süße 20
mathematisches 20
montag 20
kling@@ 20
verlu@@ 20
sektoren 20
verbringe 20
rest@@ 20
umkehr@@ 20
kt-@@ 20
kry 20
verti@@ 20
strieren 20
färben 20
kompromiss 20
phantom-@@ 20
verdamm@@ 20
tierarten 20
leug@@ 20
but 20
rep@@ 20
tilien 20
klavier@@ 20
billigen 20
dokumen@@ 20
verstümm@@ 20
action@@ 20
columbia 20
names 20
ätern 20
kennengelernt 20
häufi@@ 20
treibhaus@@ 20
86 20
mikrofon 20
heimischen 20
com 20
müsse 20
krieg@@ 20
yp 20
klimaanlage 20
rot@@ 20
lan 20
tasse 20
nasen@@ 20
frösche 20
harmon@@ 20
beauftragt 20
aufnimmt 20
angelangt 20
zutrifft 20
spaltung 20
dvd 20
angelegt 20
betä@@ 20
beobachter 20
metast@@ 20
problematisch 20
bombar@@ 20
bertie 20
angezeigt 20
kultureller 20
enkel@@ 20
demokratien 20
geschäftswelt 20
fanta@@ 20
mittler@@ 20
zusammensetzen 20
klon@@ 20
orts@@ 20
tech-@@ 20
individuell 20
heimlich 20
schwerpunkt 20
grun@@ 20
technologie@@ 20
besitz@@ 20
neu-@@ 20
140 20
lagerungen 20
bevölkerungswachstum 20
green@@ 20
zwecken 20
stalt 20
beseitigt 20
muse@@ 20
imitiert 20
reb@@ 20
sonnensystems 20
fru@@ 20
abwärts 20
ethnischen 20
ash 20
genannte 20
titanic 20
noten@@ 20
flachen 20
klebt 20
außergewöhnliches 20
platzt 20
griff@@ 20
plänen 20
verleger 20
smar@@ 20
dünger 20
unterdrück@@ 20
atmet 20
chromosom 20
1986 20
dallas 20
ang-@@ 20
gescheitert 20
drucks 20
handvoll 20
1993 20
menschlichem 20
verdanken 20
fortfahren 20
mari@@ 20
hoffnungslos 20
nordkorea 20
anischer 20
diri@@ 20
nördlichen 20
substan@@ 20
schnecken 20
iere 20
beschäftige 20
kerne 20
immen@@ 20
grundsätze 20
rezeptor 20
hing@@ 20
liebend 20
deutsch 20
anrufe 20
körpersprache 20
mary 20
teur 20
erfuhren 20
reinigen 20
zeilen 20
vorstell@@ 20
stent 20
vorherzusagen 20
änge 20
prize 20
viereinhalb 20
käfig 20
gängen 20
gefror@@ 20
me-@@ 20
depressiv 20
peln 20
barrieren 20
schadstoffe 20
miss 20
coch@@ 20
japanische 20
fertigkeit 20
zugegeben 20
lis 20
asiens 20
society 20
bs@@ 20
demnach 20
ult 20
echo@@ 20
hosent@@ 20
zauberer 20
mechanischen 20
sorgte 20
mers 20
ear@@ 20
infra@@ 20
ira@@ 20
kari@@ 20
rent@@ 20
schüssel 20
yle 20
gelagert 20
ground 20
interessierten 20
1982 20
weißer 20
ands 20
hammer 20
provinz 20
fotogra@@ 20
desaster 20
lebensspanne 20
gebühr 20
schatten@@ 20
feldes 20
gewannen 20
reform 20
cat@@ 20
geliefert 20
darbiet@@ 20
ons@@ 20
rätsel@@ 20
beiträge 20
sehnen 20
erschaff@@ 20
pete 20
weinte 20
akteur 20
abgesch@@ 20
stars 20
aufwärts 20
lassung 20
gesün@@ 20
spürte 20
led 20
hervorragende 20
todes 20
east 20
company 20
norwegen 20
spaghet@@ 20
dj 20
begangen 20
flüssig 20
biolumineszenz 20
supraleiter 20
trocknet 20
doug 20
ota 20
hörer 20
stöcke 20
law 20
ansteigen 20
psychopath@@ 20
lässig 20
wissenschaftliches 20
jeans 20
präfron@@ 20
elisab@@ 20
gewartet 20
digitalisieren 20
malediven 20
schauspielerin 20
xe 20
heitser@@ 20
erheb@@ 20
jazz@@ 20
fakultät 20
die@@ 20
kritisch 20
anfänger 20
falken 20
zurückbringen 20
kümmerte 20
nord 20
zufrieden@@ 20
nchen 20
beleuchtet 20
zitieren 20
haftigkeit 20
stimu@@ 20
150.000 20
o.k. 20
gesteu@@ 20
professionellen 20
bestellen 20
unbewusst 20
kameraden 20
atrazin 20
dän@@ 20
politik@@ 20
zeitgenöss@@ 20
lor@@ 20
assistenten 20
prozessen 20
gründlich 20
schwingen 20
ausgedacht 20
unschuldig 20
bleibe 20
tigte 20
nordameri@@ 20
sprozess 20
sb 20
forscht 20
physiologie 20
trenn@@ 20
fertige 20
ruder 20
siv 20
gyrus 20
erm@@ 20
getrei@@ 20
verlasse 20
chel@@ 20
mount 20
gelei@@ 20
ballons 20
männer@@ 20
massachusetts 20
tans 20
gestoppt 20
bens@@ 20
psyche 20
sperren 20
stun@@ 20
zwingt 20
bildhau@@ 20
grundsätz@@ 20
transfor@@ 20
futter@@ 20
einfangen 20
dokumentar@@ 20
hattest 20
ablaufen 20
alo@@ 20
auftaucht 20
früherkennung 20
anonym 20
verändernde 20
projektion 20
helikopter 20
wichtig@@ 20
prozentige 20
knete 20
lernens 20
bi 20
meen 20
metaphor@@ 20
vertikale 20
quadrate 20
energie-@@ 20
brennt 20
begeister@@ 20
mathe@@ 20
hervorzubringen 20
flüssen 20
geistigen 20
recherche 20
liger 20
abgeschnitten 20
böden 20
250.000 20
chtig 20
lebender 20
fürsorge 20
variable 20
quantifi@@ 20
würdigkeit 20
betracht@@ 20
arten@@ 20
nische 20
nanotechnologie 20
hill 20
sporen 20
angehalten 20
beherrscht 20
dave 20
nigerianischen 20
grosses 20
matisch 20
eingang 20
tigkeiten 20
pilzen 20
erwider@@ 20
betreibt 20
lerne 20
schon@@ 20
hamburger 20
eimer 20
verwirrend 20
mysterium 20
orgasmus 20
erfanden 20
enceladus 20
gehor@@ 20
kranken 20
enthüllen 20
verhandeln 20
prozessoren 20
ideal 20
kratie 20
ney 20
abschluss@@ 20
sicheres 20
vo 20
kugel@@ 20
tedx@@ 20
captcha 20
sydney 20
kreuzung 20
einwohnern 20
kontr@@ 20
honig@@ 20
dich@@ 20
pix@@ 20
gesendet 20
häuser@@ 20
penis 20
asthma 20
gestürzt 20
gezahlt 20
choreo@@ 20
cartoons 20
za 20
umkehren 20
open-@@ 20
ozeano@@ 20
befrei@@ 20
geschahen 20
zuverlässig 20
franzosen 20
dou@@ 20
manipulation 20
zusagen 20
1,2 20
abkürz@@ 20
geliebten 20
bedingt 20
lehrer@@ 20
al-qaida 20
überschreiten 20
erwerben 20
philip 20
werbes@@ 20
trete 20
hende 20
gummi@@ 19
verbre@@ 19
attraktiv 19
täter 19
montana 19
zivi@@ 19
she@@ 19
flüchtlinge 19
zivilgesellschaft 19
areal 19
ausbreitet 19
stürme 19
taiwan 19
henden 19
great 19
diana 19
papi@@ 19
überstehen 19
omie 19
biolumines@@ 19
day 19
tattoo 19
yn 19
tzellen 19
ringen 19
innova@@ 19
110 19
begeistern 19
wired 19
firmen@@ 19
erschwing@@ 19
expli@@ 19
stimmi@@ 19
schmilzt 19
hippo@@ 19
vorstellt 19
uno 19
fairness 19
rieben 19
vieh@@ 19
moma 19
gehoben 19
medienunternehmen 19
ausländische 19
umstri@@ 19
migration 19
stockwerke 19
chil@@ 19
touri@@ 19
röntgen-@@ 19
) 19
aufspüren 19
beteili@@ 19
stören 19
veranstaltungen 19
elfen@@ 19
typisches 19
erhältlich 19
seele@@ 19
anschaue 19
gebrau@@ 19
schlugen 19
fell 19
schreit 19
glänz@@ 19
transa@@ 19
unheim@@ 19
entfernungen 19
bern@@ 19
mte 19
post-@@ 19
außerirdischen 19
ischerweise 19
südasien 19
geister 19
neanderthaler 19
käufer 19
gutem 19
astrolab@@ 19
freundlichkeit 19
sus@@ 19
angenehmer 19
zauber 19
aufrechter@@ 19
anordnung 19
raumschiff 19
missionen 19
expan@@ 19
öffneten 19
smartphone 19
bundesstaaten 19
ehrlichkeit 19
blutgefässe 19
rsw 19
winziges 19
beste@@ 19
fähiger 19
stop 19
vorsicht 19
venezuela 19
verring@@ 19
lichtjahre 19
primzahl 19
red@@ 19
widerstehen 19
zität 19
brilliant 19
einschalten 19
sou@@ 19
elite 19
williams 19
ums@@ 19
transistoren 19
vernetzten 19
selbstmordattent@@ 19
eindrucks@@ 19
migräne 19
15.000 19
gesundes 19
lingu@@ 19
schimpanse 19
begeg@@ 19
steu@@ 19
ind 19
türk@@ 19
theater@@ 19
atombombe 19
empfindet 19
dezentr@@ 19
auffor@@ 19
bereitete 19
fünf-@@ 19
betten 19
minister@@ 19
zac@@ 19
weites 19
royal 19
meiß@@ 19
hilfsorganisationen 19
bruchs 19
steller 19
rasi@@ 19
versprochen 19
kennenzulernen 19
dinnen 19
skelettmuskeln 19
erklärten 19
cer@@ 19
vermittler 19
fluktuationen 19
trocken 19
12.000 19
mythologie 19
stickstoff 19
gesamtes 19
verbergen 19
überwacht 19
gebi@@ 19
rennt 19
boss 19
1970ern 19
mana@@ 19
kriminellen 19
nackt 19
ries@@ 19
vernichten 19
sis 19
kongress@@ 19
authenti@@ 19
quat@@ 19
spannen 19
nerin 19
mitfühlend 19
thes@@ 19
rationen 19
spazieren 19
notwendigen 19
risse 19
gerichts@@ 19
fire@@ 19
häufigste 19
beeinträch@@ 19
orleans 19
rien 19
konservative 19
emails 19
sump@@ 19
mehrmals 19
bemerk@@ 19
zähler 19
ausschlag@@ 19
präz@@ 19
bruttoinlandsprodu@@ 19
merkten 19
vorsorge 19
glücks@@ 19
identitäten 19
laborat@@ 19
leidenschaftlich 19
teszler 19
ethischen 19
gegenstück 19
hypothesen 19
symphonie 19
puppe 19
mächte 19
phänom@@ 19
athei@@ 19
heißer 19
schlussfolgerung 19
netzen 19
gange 19
metalle 19
lebensform 19
ekel@@ 19
college-@@ 19
journali@@ 19
zenten 19
bl 19
anschluss 19
hrer 19
mannschaft 19
alltägliche 19
ziere 19
graphischen 19
beg@@ 19
kampagnen 19
erkranken 19
ramp@@ 19
laufende 19
hilfe@@ 19
fürchte 19
sony 19
prüfungen 19
verbraucher@@ 19
ärz@@ 19
ostens 19
killer 19
koperni@@ 19
murray 19
ory 19
stit@@ 19
ystem 19
hackt 19
sations@@ 19
sprichwort 19
ruhi@@ 19
überlegte 19
eintritt 19
mächtiges 19
enha@@ 19
kranke 19
kühlschrank 19
allererste 19
dylan 19
ungemein 19
chen-@@ 19
katrina 19
aktiver 19
powerpoint 19
antun 19
wiederzu@@ 19
itali@@ 19
differ@@ 19
isolation 19
umweltschutz 19
schwärmen 19
dent@@ 19
ring@@ 19
ong 19
entschlüsseln 19
house 19
moo@@ 19
versuchung 19
auswendig 19
genes@@ 19
schwierigkeit 19
naturwissenschaften 19
dv@@ 19
akademie 19
traditionell 19
mücken 19
geschw@@ 19
gerüstet 19
karo-@@ 19
inspi@@ 19
indus-schrift 19
talks 19
herange@@ 19
ktiert 19
integrität 19
derzeitigen 19
princeton 19
infrarot@@ 19
öffent@@ 19
steig 19
kommunika@@ 19
beträch@@ 19
richtiges 19
entscheiden@@ 19
favelas 19
profit@@ 19
tugend 19
zack 19
rg 19
wandels 19
roboters 19
aggressiv 19
-system 19
meter-@@ 19
jason 19
artefakte 19
lese@@ 19
missbraucht 19
krebse 19
panbanisha 19
explodierte 19
atlan@@ 19
planten 19
kapitän 19
abli@@ 19
schwach@@ 19
fordere 19
eth 19
fot@@ 19
oi@@ 19
lette 19
partnerschaften 19
großbritanniens 19
endem 19
interven@@ 19
enzy@@ 19
invasi@@ 19
steckten 19
verkünden 19
virus@@ 19
blauflossen@@ 19
funden 19
sser 19
vernünftig 19
prostatakrebs 19
begegnete 19
islamische 19
uv-@@ 19
sugger@@ 19
baby-@@ 19
nullen 19
abgestimmt 19
dünen 19
schwächen 19
vorherseh@@ 19
protozellen 19
bemerkung 19
robot@@ 19
verlorene 19
art@@ 19
studenten@@ 19
ego 19
neigt 19
benehmen 19
spritze 19
zeig 19
evolutionären 19
stellen@@ 19
astronauten 19
allerersten 19
richti@@ 19
tol@@ 19
bindet 19
gratis 19
shel@@ 19
verstorbenen 19
verwandlung 19
wohlhabenden 19
geborene 19
gespendet 19
dok@@ 19
market@@ 19
vorbilder 19
beschränken 19
präch@@ 19
impfen 19
umfangrei@@ 19
kim 19
zahn 19
vorzüge 19
werfer 19
glücklich@@ 19
starrt 19
vollzeit@@ 19
kell@@ 19
schleifen 19
improvisation 19
fettleibig 19
all-@@ 19
flat@@ 19
splan 19
warteten 19
genuss 19
wahrer 19
himalaya 19
pharmazeu@@ 19
1968 19
erwartung 19
eins-@@ 19
mitzuteilen 19
ausflug 19
ökosystemen 19
than 19
lieb 19
behauptungen 19
erstellte 19
erlich 19
strä@@ 19
uchen 19
taxi 19
i. 19
erwähne 19
reserven 19
hafen 19
einzustellen 19
wegnehmen 19
ersatz 19
teilchenphysik 19
geräuschen 19
gesellschaftliche 19
eingesperrt 19
umwandlung 19
mittelklasse 19
gestimmt 19
simon 19
lierten 19
romantik 19
malt 19
klimakrise 19
bohrer 19
reisten 19
wus@@ 19
diente 19
umar@@ 19
gesprochene 19
konventionelle 19
einklang 19
gereicht 19
gläser 19
schrif@@ 19
zerstörte 19
eur 19
näh@@ 19
cr@@ 19
ausdrücke 19
nötigen 19
gefangene 19
ideo 19
terri@@ 19
una 19
betriebssystem 19
formte 19
glatt 19
seltenen 19
istisch 19
verli@@ 19
fliegende 19
verank@@ 19
erobert 19
fac@@ 19
nadel@@ 19
rettete 19
chinesisches 19
arabien 19
vorlesungen 19
sive 19
säugl@@ 19
stießen 19
hemis@@ 19
kontinu@@ 19
j. 19
mobiltelefon 19
cham@@ 19
dschungel 19
lebensformen 19
ling@@ 19
andy 19
eil@@ 19
korreli@@ 19
einblicke 19
schmuck 19
sst 19
funktionierende 19
selbständig 19
ungslos 19
effektiv@@ 19
buddha 19
ross 19
zusammenhän@@ 19
probi@@ 19
überschwe@@ 19
amino@@ 19
präsent@@ 19
gewisses 19
wähler@@ 19
cyberkriminellen 19
schwäche 19
isse 19
exper@@ 19
canyon 19
austau@@ 19
vorüber@@ 19
prozess@@ 19
sangen 19
elektrisches 19
flücht@@ 19
malerei 19
gedruckt 19
pflanzung 19
apfel@@ 19
freiwilli@@ 19
ultravio@@ 19
enthüllt 19
irrtum 19
wendet 19
pestizide 19
aufsteigen 19
83 19
eriert 19
aff@@ 19
garanti@@ 19
verbesserte 19
tion-@@ 19
ó@@ 19
rohr 19
grossartig 18
existenti@@ 18
jerry 18
achtz@@ 18
industrien 18
hungersnot 18
melan@@ 18
unordnung 18
ferien 18
plans 18
dg 18
cooler 18
beschweren 18
streich@@ 18
gewichts@@ 18
altru@@ 18
ehrfurcht 18
multiplizieren 18
komplexere 18
zusammenfas@@ 18
300.000 18
bow@@ 18
sieh 18
kohlenstoff-@@ 18
30er 18
funktionierten 18
verschwen@@ 18
soviele 18
zusam@@ 18
77 18
schildkröte 18
zerbrechlich 18
multination@@ 18
grössten 18
druckerpresse 18
betreuung 18
vorführung 18
sän@@ 18
scharfen 18
tomaten@@ 18
pubertät 18
zerfallen 18
senkre@@ 18
sars 18
diamanten 18
computerprogramm 18
sue 18
pollen@@ 18
gezählt 18
sequenziert 18
griechischen 18
fünften 18
biene 18
solide 18
erstaunlicherweise 18
fig@@ 18
pps 18
würdet 18
immernoch 18
handels 18
videospielen 18
filter@@ 18
projekt@@ 18
radiowellen 18
ppel 18
senf 18
magnet 18
belt 18
japaner 18
nutzlos 18
erwiesen 18
zimm@@ 18
bester 18
liebhaber 18
zerbrechen 18
schwie@@ 18
anhän@@ 18
hinausgehen 18
schlachtfeld 18
gebra@@ 18
holl@@ 18
ktions@@ 18
südo@@ 18
roy 18
empfän@@ 18
motorrad 18
gewes@@ 18
nepal 18
sige 18
bedanken 18
legi@@ 18
doodlen 18
beschwerden 18
beutel 18
happy 18
anen 18
zeugnis 18
masken 18
nuklearen 18
ungerechtigkeit 18
indirekt 18
iraner 18
pazifi@@ 18
pfl@@ 18
proto@@ 18
kalk@@ 18
sch-@@ 18
recyc@@ 18
patho@@ 18
eignet 18
gan 18
onie 18
schlaue 18
davon@@ 18
big@@ 18
feucht@@ 18
inwie@@ 18
fit 18
unvorstellbar 18
kampfes 18
kürzen 18
volt 18
dot@@ 18
unvermeidbar 18
kommerziellen 18
schleim 18
nicole 18
stim@@ 18
original@@ 18
sterbe@@ 18
anschau@@ 18
äquivalent 18
langem 18
lehnte 18
nest@@ 18
wärme@@ 18
coolen 18
platzen 18
ooh 18
führungspersön@@ 18
quadratkilometer 18
il-@@ 18
shows 18
partikeln 18
ermäch@@ 18
spenden@@ 18
44 18
anästhesie 18
lokaler 18
strich@@ 18
brennstoffen 18
wähler 18
ergab 18
kie@@ 18
herab 18
beginnend 18
recherch@@ 18
ersti@@ 18
ater@@ 18
hero@@ 18
zurei@@ 18
zugehöri@@ 18
beobacht@@ 18
augenblick@@ 18
naktivität 18
universell 18
verlin@@ 18
neusten 18
gigantischen 18
entfernte 18
gleicher 18
eindeu@@ 18
begrenz@@ 18
puppen 18
schlech@@ 18
gouver@@ 18
belege 18
einzelheiten 18
49 18
nukleare 18
berührte 18
geantwortet 18
insassen 18
achtung 18
essens 18
nieren@@ 18
dler 18
450 18
westens 18
delphine 18
power 18
zwei- 18
system@@ 18
umfassen 18
inform@@ 18
cy 18
logi@@ 18
jacke 18
verme@@ 18
druckt 18
strich 18
si 18
moskitonetze 18
virale 18
ausdenken 18
kunstwerke 18
wolf 18
karibik 18
partner@@ 18
hospital 18
erfreut 18
bracht 18
mona@@ 18
erlangt 18
entfern@@ 18
bono 18
unterdrückt 18
priorität 18
pupp@@ 18
jemandes 18
ipad 18
anziehungskraft 18
anfühlen 18
gordon 18
komponisten 18
hebe 18
vereinfachen 18
konnektivität 18
sänger 18
klienten 18
träumt 18
möbeln 18
verrück@@ 18
nm 18
zurückgreifen 18
schrecken@@ 18
überwiegend 18
rice 18
herrschte 18
mathematisch 18
6,@@ 18
besessenheit 18
galak@@ 18
rapi@@ 18
zufügen 18
angestellt 18
transition 18
einigermaßen 18
erhalte 18
go-@@ 18
gesellschafts@@ 18
mobilisieren 18
reproduzieren 18
kleb@@ 18
derjenige 18
invest@@ 18
cameron 18
vergesst 18
entwick@@ 18
schalen 18
reu@@ 18
back@@ 18
hältst 18
darstellungen 18
gedruck@@ 18
langfristigen 18
auszeit 18
volk@@ 18
rebel@@ 18
weiterentwicklung 18
co-@@ 18
lobby 18
übermitteln 18
pflaster 18
darwins 18
margaret 18
zunehmen@@ 18
therapie@@ 18
mitter@@ 18
präsidentschafts@@ 18
angetan 18
atten 18
außenwelt 18
nter 18
schlechteste 18
inhalten 18
bevölker@@ 18
eintrag 18
gebrochenen 18
reinig@@ 18
süßigkeiten 18
informierte 18
stechnologie 18
detroit 18
rah@@ 18
pte 18
was@@ 18
schilder 18
ria 18
guinea 18
eindring@@ 18
entdecker 18
ewigkeit 18
sequenzieren 18
lohn@@ 18
geräts 18
führungskräfte 18
jährliche 18
kometen 18
vorfall 18
anter 18
wölfe 18
gemeinschafts@@ 18
esischen 18
konsumiert 18
konsument 18
äquator 18
rechenmaschine 18
prinzipiell 18
erfinder@@ 18
dritter 18
täusch@@ 18
täuschungen 18
todesstrafe 18
gos-@@ 18
mmm 18
termin@@ 18
beliebtesten 18
flexibilität 18
auslöser 18
fäl@@ 18
gespült 18
besagte 18
hörern 18
uk 18
pazi@@ 18
aktivist 18
teilchen@@ 18
jon 18
schildkröten 18
wiederver@@ 18
ke-@@ 18
la-@@ 18
schütter@@ 18
nairobi 18
ehemaligen 18
prostitu@@ 18
ausgesucht 18
stiker 18
untersu@@ 18
zeital@@ 18
bedacht 18
sw@@ 18
que 18
aufbau@@ 18
ausrichtung 18
geriet 18
sum 18
derjenigen 18
gefäße 18
inten@@ 18
ziege 18
katoren 18
dämp@@ 18
orö@@ 18
verdammten 18
immobilien@@ 18
anthropologen 18
balanci@@ 18
versus 18
priva@@ 18
holi@@ 18
gegebenheiten 18
bohren 18
gezü@@ 18
schem 18
rückenmark 18
grundlegendes 18
dreiecke 18
gner 18
fiction 18
faszinierenden 18
produzierte 18
lila 18
akten 18
geschei@@ 18
zugreifen 18
bahnbrechende 18
fröhlich 18
gewässern 18
hälter 18
hex@@ 18
unterdrückung 18
chene 18
führungsper@@ 18
chendes 18
veröffentlichung 18
altet 18
freiheiten 18
crowd@@ 18
zep@@ 18
mischt 18
gelegte 18
hühner@@ 18
paras@@ 18
illusionen 18
gehörten 18
vagina-@@ 18
studiere 18
emotion 18
segen 18
darle@@ 18
landwir@@ 18
tröpf@@ 18
parlament@@ 18
forsche 18
informationstechnologie 18
fernen 18
statisti@@ 18
erwischen 18
vorurteile 18
babbage 18
amateur@@ 18
zufalls@@ 18
innovativen 18
world@@ 18
fenster@@ 18
bender 18
neo@@ 18
pos 18
kontrover@@ 18
repräsen@@ 18
dehnt 18
offiziellen 18
saudi 18
schin@@ 18
einschrän@@ 18
drei- 18
gleiten 18
bak@@ 18
transzenden@@ 18
run@@ 18
garantieren 18
‚ 18
haltungs@@ 18
anwendungs@@ 18
geistig 18
füllte 18
gemäß@@ 18
vere 18
äugige 18
swa@@ 18
vortra@@ 18
flüchtling@@ 18
zustimmung 18
source-@@ 18
ktisch 18
verschicken 18
ttest 18
sein@@ 18
soeben 18
säkul@@ 18
eingeben 18
strate@@ 18
ziffern 18
guckt 18
verga@@ 18
programmierung 18
gespürt 18
stoffwechsel@@ 18
schnelles 18
besuchten 18
legend@@ 18
veraltet 18
getrunken 18
tagsüber 18
bohrt 18
link@@ 18
grönland 18
foxo 18
unternehmern 18
omet@@ 18
muschel 18
zorn 18
reißt 18
co2-emissionen 18
passiv 18
gefängnisse 18
ideal@@ 18
ächlich 18
dürfte 18
werfe 18
zurückzukommen 18
erschossen 18
öl-@@ 18
hall@@ 18
gefroren 18
grös@@ 18
begrüßt 18
mittel-@@ 18
erfolgt 18
tedster 18
or-@@ 18
hierzu 18
rekonstruieren 18
vernetz@@ 18
flori@@ 18
gestützt 18
gigantische 18
rang 18
cro@@ 18
schlussfol@@ 18
prie@@ 18
verd@@ 18
ungeheure 18
phantom-arm 18
chemo@@ 18
sz@@ 18
160 18
ausseh@@ 18
hänge 18
etablieren 18
unvorstell@@ 18
monade 18
gels 18
akteure 18
hausti@@ 18
weitrei@@ 18
rede@@ 18
umwand@@ 18
70@@ 18
sier@@ 18
eingerichtet 18
millionen-@@ 18
nachthimmel 18
gedächtnis@@ 18
phosphor@@ 18
chirurgischen 18
sehkraft 18
läss@@ 18
gefühls@@ 18
unterkunft 18
medical 18
mund@@ 18
ena 18
sanft 18
profitiert 18
improvisieren 18
potentiellen 18
ungsproble@@ 18
max 18
7.000 18
gefoltert 18
kleidungs@@ 18
komite@@ 18
beiträgt 18
eingefangen 18
impul@@ 18
ausbeu@@ 18
g. 18
ausgeschlossen 18
mühle 18
gefäß 18
vorhersag@@ 18
fertigung 18
seifen@@ 18
kulissen 18
verwaltungs@@ 18
vorstellungs@@ 18
gesichtsausdrücke 18
vulkan 18
kreide 18
stiftungen 18
tax@@ 18
fotografierte 18
meda@@ 18
sterberate 18
ticket 18
ku 18
heizen 18
abgrund 18
menschenmenge 18
mitarbeitern 18
ungedul@@ 18
hartnäck@@ 18
wolken@@ 18
sri 18
zoll@@ 18
gesessen 18
haupt 18
mit-@@ 18
barack 18
ct-@@ 18
ypen 18
oto@@ 18
korrid@@ 18
alphab@@ 18
festgelegt 18
gell@@ 18
fertigten 18
vermutung 18
hinterlässt 18
rod 18
immer@@ 18
erschwinglich 18
geschmacks@@ 18
kälte 18
kodieren 18
berufung 18
dorfes 18
rohre 18
annimmt 18
mahmoud 18
organisch 18
aufzuhören 18
möglicher 18
schlechtesten 18
verdreifacht 18
beachtung 18
nützen 18
zuhört 18
stecke 18
datenbanken 18
komplettes 18
schöpfer 18
kratische 18
technischer 18
liebl@@ 18
konfiguration 18
karikaturi@@ 18
miniatur@@ 18
replizieren 18
tanzten 18
zeitgenössische 18
lkws 18
synapsen 18
mierten 18
verschafft 18
palette 18
kippen 18
aufstand 18
sick@@ 18
guardian 18
yr 18
ther 18
ani 18
fotografien 18
inst@@ 18
lotterie 18
ungsmittel 18
soli@@ 17
verhinder@@ 17
illegal@@ 17
krö@@ 17
militärischen 17
ek 17
fassade 17
dächern 17
elegant 17
infolge 17
tropen 17
einzelteile 17
lebensstandard 17
infizierten 17
schlagzeile 17
übernahm 17
sexper@@ 17
lasche 17
scherz 17
dünnen 17
mamma 17
pentagon 17
aufgefordert 17
erlaub@@ 17
bedauern@@ 17
wahrscheinlichkeiten 17
wahrhaft 17
geschäftsmodelle 17
bestraft 17
mancher 17
früchten 17
äußern 17
zuzugeben 17
exzell@@ 17
entes 17
mittelschicht 17
einschlagen 17
az@@ 17
rührt 17
schaf 17
costa 17
gekennzeichnet 17
skarte 17
elektronen@@ 17
kataly@@ 17
ander 17
schwarm 17
untersuch@@ 17
niederlage 17
zweitgrößte 17
abgespielt 17
hervorgebracht 17
frontal@@ 17
gerechnet 17
fleder@@ 17
derte 17
zip 17
landeten 17
idiot 17
ätzung 17
caltech 17
technologischer 17
umstand 17
verbrecher 17
eiern 17
prinz 17
fron@@ 17
feri@@ 17
gese@@ 17
line@@ 17
verdiente 17
aufgeklär@@ 17
interagiert 17
paradox@@ 17
ini 17
kündigte 17
ewige 17
verinner@@ 17
kacheln 17
schwingungen 17
medienlandschaft 17
mik@@ 17
galois 17
3,5 17
kolon@@ 17
fledermaus 17
schwebt 17
steins 17
verdau@@ 17
dach@@ 17
primzahlen 17
kämpften 17
clo@@ 17
verblüfft 17
massenvernicht@@ 17
ansässigen 17
irgendwer 17
ausgang 17
allo@@ 17
sprechenden 17
geschmol@@ 17
besprochen 17
märchen 17
rezen@@ 17
standardis@@ 17
dend 17
alltags@@ 17
verzeihen 17
salat 17
flache 17
innovations@@ 17
motors 17
elektrischer 17
aufzug 17
philadelphia 17
pack@@ 17
lüge 17
erseits 17
gremium 17
bomben@@ 17
anwei@@ 17
argentinien 17
rho@@ 17
interaktive 17
juan 17
quäl@@ 17
naiv 17
inhaf@@ 17
perman@@ 17
ho 17
lock 17
1992 17
zwil@@ 17
spann@@ 17
modells 17
phantas@@ 17
durchqu@@ 17
tokyo 17
kreation@@ 17
überraschenden 17
lhc 17
erholt 17
geschichten@@ 17
gemeinde@@ 17
geeig@@ 17
lokalisieren 17
dokt@@ 17
ruhige 17
überschritten 17
verschoben 17
großzügigkeit 17
tional 17
tem@@ 17
1990ern 17
beeinträchtigt 17
zusammenhänge 17
sitzungen 17
vereinig@@ 17
risd 17
peit@@ 17
hurri@@ 17
respektiert 17
tafeln 17
eleanor 17
neur 17
undurch@@ 17
biologisches 17
restau@@ 17
u-bahn@@ 17
startet 17
redest 17
mächtiger 17
akzeptabel 17
dimensional 17
durchdringen 17
delfin 17
bers 17
aufnahme@@ 17
zoo 17
obst 17
abzuschließen 17
verleiht 17
änderten 17
deprimier@@ 17
1957 17
karen 17
bürste 17
verr@@ 17
antiretro@@ 17
-bewegung 17
pistole 17
delphin 17
siven 17
ketten@@ 17
authentisch 17
bler 17
senkrebs 17
erschöpft 17
13. 17
begrenzen 17
inhal@@ 17
gespart 17
stifte 17
wendig 17
relativitäts@@ 17
erachtens 17
melo@@ 17
cousin 17
erkäl@@ 17
sibi@@ 17
erens 17
beh@@ 17
einzuführen 17
ergreifen 17
prob@@ 17
eite 17
passierten 17
ungewöhnlichen 17
frühjahr 17
parken 17
unglücklichen 17
aktuell 17
glückske@@ 17
pest 17
roger 17
opo@@ 17
nenner 17
rutsch@@ 17
glich@@ 17
disziplin@@ 17
nachdenke 17
schmelz@@ 17
viktori@@ 17
liess 17
dawkins 17
ausführung 17
stücks 17
urteile 17
darstell@@ 17
darfur 17
berichter@@ 17
erbaut 17
weltrekord 17
lymph@@ 17
angio@@ 17
naturschutz 17
lastwagen 17
krawat@@ 17
lung@@ 17
play@@ 17
hinterließ 17
plankton 17
geschenke 17
busse 17
ut 17
gesteuerte 17
flughäfen 17
ungläu@@ 17
gedenk@@ 17
wägen 17
gewähren 17
joy@@ 17
stunden@@ 17
illi@@ 17
lett@@ 17
bedauer@@ 17
aufweist 17
intelle@@ 17
abstammung 17
mete@@ 17
kord 17
mail 17
entschlossen@@ 17
diego 17
.s. 17
usd 17
adiposit@@ 17
assen@@ 17
aneinander 17
brothers 17
instinkt 17
70.000 17
vermehr@@ 17
genü@@ 17
guru 17
loszuwerden 17
amanda 17
londoner 17
fahrung 17
zelebri@@ 17
flach@@ 17
player 17
hinauf@@ 17
farbigen 17
starbucks 17
imker 17
prägte 17
simulationen 17
entwirft 17
mechanik 17
dokum@@ 17
außensei@@ 17
gefördert 17
tifi@@ 17
eini@@ 17
barkeits@@ 17
abstrakten 17
antere 17
etabliert 17
wendungen 17
nano-@@ 17
hinausgeht 17
benutzung 17
hochauf@@ 17
verkündet 17
schnü@@ 17
iler 17
reiches 17
termin 17
unwohl 17
theke 17
moses 17
aluminium@@ 17
radik@@ 17
briga@@ 17
interviewen 17
dele@@ 17
heitlich 17
anwender 17
zuwachs 17
britan@@ 17
alko@@ 17
willkürlich 17
illen 17
passage 17
erstellten 17
jas@@ 17
bewusst@@ 17
schrittweise 17
hi-@@ 17
herauskam 17
anhört 17
ellieren 17
weißes 17
heiligkeit 17
beanspru@@ 17
abenteu@@ 17
mütter@@ 17
fliehen 17
absolventen 17
gary 17
abweichungen 17
sichtig 17
geraden 17
internationaler 17
eder 17
spektr@@ 17
implemen@@ 17
isolieren 17
gesetzten 17
cassini 17
schildern 17
stisch@@ 17
zigaretten 17
bän@@ 17
unterhaltungen 17
migranten 17
belange 17
insulinresistenz 17
ausch 17
vegas 17
artigkeit 17
optimale 17
sofor@@ 17
befra@@ 17
regieren 17
förmigen 17
schwul 17
blaues 17
mix 17
charakteristika 17
stres@@ 17
technologen 17
gitar@@ 17
kätzchen 17
haustiere 17
verstreut 17
königs@@ 17
gerichte 17
haw@@ 17
hochschule 17
zuverlässi@@ 17
überwältigende 17
listet 17
tseite 17
durchbrechen 17
zugrunde@@ 17
schwefelwasserstoff 17
skop 17
ment-@@ 17
wahrsten 17
technisches 17
willens 17
psychologe 17
love 17
klarer 17
trivi@@ 17
verlangte 17
recycl@@ 17
nützliche 17
slager 17
inti@@ 17
gleicht 17
teur@@ 17
zweifeln 17
wüsten 17
cul@@ 17
tuberkulose 17
rekord 17
veranstalten 17
walker 17
aussahen 17
urbanen 17
rezepte 17
senioren 17
unken 17
karton 17
eliminieren 17
bit 17
ay@@ 17
laute 17
1983 17
verschwör@@ 17
erschütter@@ 17
produktiven 17
leo 17
behandel@@ 17
arr@@ 17
stud@@ 17
mobili@@ 17
wertes 17
dentum 17
amsterdam 17
kunft 17
savanne 17
komischen 17
pit@@ 17
nieder 17
essentiell 17
aktien@@ 17
abra@@ 17
u.s.-@@ 17
zielte 17
eindrücke 17
ington 17
beunruhigend 17
ganzheit@@ 17
wundervolles 17
nose 17
wertschätzen 17
abgebaut 17
frequ@@ 17
reagan 17
verbun@@ 17
seligkeit 17
weltanschau@@ 17
gen. 17
uen 17
korrespon@@ 17
30@@ 17
übertrieben 17
nordafrika 17
ausland@@ 17
bös@@ 17
konventionellen 17
spulen 17
zensur 17
.... 17
kapazitäten 17
aufnahm 17
bräu@@ 17
gesundheitswesens 17
explodiert 17
überwach@@ 17
venter 17
schicke 17
vollständigen 17
bla 17
haupts@@ 17
nutzer@@ 17
zenti@@ 17
kennen@@ 17
gemäl@@ 17
grüner 17
vokab@@ 17
92 17
wart 17
ausgegangen 17
multipli@@ 17
entwarfen 17
gefährdete 17
profi@@ 17
übel@@ 17
schwin@@ 17
explodieren 17
interpretiert 17
erfährt 17
cheln 17
30. 17
norden-bombenzielgerät 17
gelächter 17
verflo@@ 17
kehrten 17
ommen 17
unterrichte 17
phan@@ 17
mondes 17
genies 17
58 17
bedeutungen 17
fortsetzen 17
school-@@ 17
tierwelt 17
vorrat 17
abholzung 17
psychologischen 17
resonanz 17
leich@@ 17
last@@ 17
kosmologie 17
russ@@ 17
effizienten 17
regelrecht 17
kommuniziert 17
zurückgeht 17
liberalen 17
strassen@@ 17
falsches 17
yale 17
eingebunden 17
enthielt 17
bonobos 17
begün@@ 17
koen@@ 17
gär@@ 17
emotion@@ 17
augenlicht 17
kissen 17
unterrichts@@ 17
lös@@ 17
reiter 17
städtische 17
cholera 17
kanälen 17
mutige 17
mücke 17
bereu@@ 17
embry@@ 17
nichtsdestotrotz 17
reflexi@@ 17
.com. 17
presse@@ 17
wolkenkrat@@ 17
flag@@ 17
indianer 17
holten 17
geschwindigkeits@@ 17
87 17
auffä@@ 17
onk@@ 17
ttes 17
rex 17
ablehnen 17
bewusstseins@@ 17
nirgends 17
chender 17
echtz@@ 17
dros@@ 17
gestopft 17
treffer 17
marks 17
73 17
nonverb@@ 17
priv@@ 17
ann@@ 17
regenwasser 17
reib@@ 17
liessen 17
lier 17
a-afrika 17
uhren 17
nehm@@ 17
transpor@@ 17
beabsichti@@ 17
vertrautheit 17
ministeri@@ 17
künstlerischen 17
straßenrand 17
schlimmen 17
appeti@@ 17
ästhe@@ 17
hiert 17
erfordern 17
ultimativen 17
fahrer@@ 17
hafen@@ 17
betreff@@ 17
favoriten 17
fester 17
hären 17
angeordnet 17
verkündete 17
bizarre 17
ressourcen@@ 17
schokoladen@@ 17
folge@@ 17
bißchen 17
gerweise 17
größerer 17
verfügbarkeit 17
verbundenheit 17
cen@@ 17
nimmst 17
besei@@ 17
grausam 17
wirtschaftskrise 17
lässi@@ 17
romane 17
gebil@@ 17
gefär@@ 17
japanisch 17
ble 17
tierrei@@ 17
59 17
gb 17
99@@ 17
nachdachte 17
sohn@@ 17
wärts 17
seel@@ 17
gesichts 17
för@@ 17
ellinie 17
vorm 17
hipp@@ 17
membran@@ 17
schottland 17
schutzgebiete 17
west-@@ 16
lyn@@ 16
son-@@ 16
ana@@ 16
input 16
dopamin@@ 16
dnis 16
zeits@@ 16
noah 16
6.@@ 16
natalie 16
jennifer 16
maden 16
u.n. 16
pink 16
zuschauer@@ 16
hose 16
behör@@ 16
eigen 16
ros@@ 16
freud 16
einges@@ 16
deep 16
gott@@ 16
atheist 16
konfer@@ 16
qatar 16
nland 16
lover 16
station@@ 16
meth@@ 16
bach@@ 16
pein@@ 16
bewäl@@ 16
studios 16
sorry 16
57 16
rebecca 16
grace 16
expansion 16
sober@@ 16
bess@@ 16
pepsi 16
joel 16
cus 16
vention@@ 16
domini@@ 16
jets 16
performance 16
bemerkens@@ 16
62 16
jill 16
exter@@ 16
red 16
w. 16
websites 16
christopher 16
open-source 16
experiments 16
übergeben 16
freaks 16
arkansas 16
linux 16
.a. 16
black 16
sticks 16
favor@@ 16
zensiert 16
action 16
akade@@ 16
hung@@ 16
tos 16
fox 16
änder@@ 16
überträgt 16
völker@@ 16
reno@@ 16
zuständen 16
versa@@ 16
thun@@ 16
allge@@ 16
origam@@ 16
r-@@ 16
ktar 16
östro@@ 16
sag@@ 16
extremi@@ 16
geschäf@@ 16
barung 16
media-@@ 16
zugute 16
imitation 16
vill@@ 16
prüf@@ 16
absurd 16
bibli@@ 16
200-@@ 16
archite@@ 16
senator 16
mentor 16
zweige 16
äqu@@ 16
brannt 16
fibon@@ 16
acci@@ 16
zuschau@@ 16
zufälle 16
lie 16
nicholas 16
verl@@ 16
ape@@ 16
brill@@ 16
myth@@ 16
rang@@ 16
divi@@ 16
stick 16
vet@@ 16
latte 16
invasion 16
darpa 16
manus@@ 16
kuba 16
sook 16
versu@@ 16
chtigkeit 16
clar@@ 16
zwangs@@ 16
juli@@ 16
segment 16
ziemliche 16
ffe 16
7,@@ 16
beschleun@@ 16
wood-@@ 16
sofa 16
cit@@ 16
isaac 16
prozenti@@ 16
deser@@ 16
kids 16
unt 16
mobi@@ 16
gestü@@ 16
eva 16
überraschen@@ 16
motive 16
tzer 16
colorado 16
qualit@@ 16
stunt@@ 16
1976 16
glä@@ 16
1918 16
1500 16
ba-@@ 16
doha 16
bb 16
hst 16
zutat 16
gier 16
öhnen 16
pier@@ 16
tika 16
tta 16
geregt 16
koff@@ 16
dreidimension@@ 16
rönt@@ 16
ments 16
übereinstimmung 16
fon@@ 16
äußert 16
manage@@ 16
ever@@ 16
anwäl@@ 16
jo-@@ 16
fundamental 16
genei@@ 16
philippe 16
östlich 16
transpar@@ 16
aimee 16
46 16
aufklär@@ 16
zuversicht 16
treasure 16
dollar@@ 16
bhutan 16
lake 16
bo-@@ 16
asse@@ 16
grie@@ 16
goliath 16
oscar 16
quadra@@ 16
iq@@ 16
parkinson 16
sinnig 16
winden 16
saf@@ 16
offizi@@ 16
ätz@@ 16
wood@@ 16
abwei@@ 16
relative 16
titan@@ 16
budd@@ 16
verzer@@ 16
gecko 16
controller 16
wom@@ 16
univer@@ 16
manipu@@ 16
phas@@ 16
5,@@ 16
tonne 16
zunu@@ 16
struk@@ 16
galileo 16
ti 16
gebäu@@ 16
200@@ 16
1975 16
akti@@ 16
15-@@ 16
chr@@ 16
wesens 16
lyri@@ 16
bulg@@ 16
beinhal@@ 16
benutz@@ 16
199@@ 16
jet 16
56 16
zufälligerweise 16
ktieren 16
hormon@@ 16
ruf@@ 16
stil@@ 16
science-@@ 16
bai@@ 16
ästhetische 16
verle@@ 16
mir@@ 16
zusätzliches 16
ld 16
pipeline 16
andauern@@ 16
zusammengearbeitet 16
met@@ 16
lichte 16
shor@@ 16
eames 16
anor@@ 16
gebü@@ 16
tags@@ 16
cds 16
betroff@@ 16
hea@@ 16
abu 16
überraschte 16
edward 16
arts 16
prior@@ 16
1985 16
torna@@ 16
saat@@ 16
überraschenderweise 16
ferti@@ 16
cd 16
user 16
mental 16
gespü@@ 16
entschei@@ 16
ön@@ 16
por 16
phoeni@@ 16
äpfel 16
nagel 16
walter 16
diver@@ 16
wuß@@ 16
besu@@ 16
werks 15
libr@@ 15
ett@@ 15
rabbi 15
marine 15
buck@@ 15
highway 15
songs 15
intelligen@@ 15
stigmati@@ 15
tum@@ 15
foot@@ 15
ity-@@ 15
erneuer@@ 15
rehabilitation 15
gros@@ 15
jonas 15
ando 15
gemä@@ 15
eur@@ 15
nee@@ 15
hyp@@ 15
lag@@ 15
gehr@@ 15
madagas@@ 15
dings 15
anas 15
biomimi@@ 15
oxid 15
moskitonet@@ 15
gegenwärtig 15
toile@@ 15
verwir@@ 15
gelä@@ 15
stif@@ 15
essenti@@ 15
eve 15
california 15
orthodo@@ 15
mon 15
tiers 15
beauf@@ 15
extremis@@ 15
ssern 15
sty@@ 15
port 15
get 15
modul@@ 15
ores 15
side@@ 15
architekton@@ 15
av@@ 15
ram 15
erfin@@ 15
folgen@@ 15
wachst@@ 15
well@@ 15
schizop@@ 15
könn@@ 15
sort 15
kümmer@@ 15
arran@@ 15
mac 15
beck 15
femin@@ 15
hierarch@@ 15
verzei@@ 15
außer@@ 15
gebur@@ 15
ara 15
ross@@ 15
konzent@@ 15
nikol@@ 15
bergs 15
sin 15
gent 15
yo 15
films 15
kins 15
koll@@ 15
arena 15
aa 15
pflan@@ 15
rna 15
tung@@ 15
ari 15
protest 15
tling 15
wack@@ 15
mitglie@@ 15
mins 15
schrank 15
bigkeit 15
philipp@@ 15
wide 15
lerin 15
chat@@ 15
redwoods 15
redwood-@@ 15
frau@@ 15
persön@@ 15
robust 15
zimbabwe 15
boy@@ 15
karl 15
webs 15
1973 15
master@@ 15
mozart 15
muti@@ 15
motiva@@ 15
hitler 15
esi@@ 15
jeder@@ 15
erwachsen@@ 15
mage 15
wais@@ 15
ris 15
vibra@@ 15
sh 15
simulator 15
algebra 15
beob@@ 15
sopa 15
ital 15
seits 15
langley 15
alfred 15
intervention 15
business@@ 15
seit@@ 15
pessimi@@ 15
display 15
hnen@@ 15
ballast 15
styro@@ 15
echnet 15
tain@@ 15
page 15
mmert 15
timing 15
tattoos 15
ance 15
mitfühl@@ 15
venus 15
unab@@ 15
radius 15
ona 15
schwanger@@ 15
prag@@ 15
dez@@ 15
plant 15
fokus@@ 15
anatom@@ 15
evange@@ 15
miller 15
gy@@ 15
begrü@@ 15
skelett@@ 15
k. 15
prog@@ 15
funk 15
nullsummen@@ 15
gefäng@@ 15
53 15
palm 15
universi@@ 15
see-@@ 15
sanit@@ 15
kupp@@ 15
jersey 15
verdeut@@ 15
äs@@ 15
beethoven 15
ular 15
shoots 15
monitor 15
fos 15
gewand@@ 15
ubuntu 15
google-@@ 15
flan@@ 15
lossen 15
auto-@@ 15
vergnü@@ 15
expedi@@ 15
mög@@ 15
oregon 15
8.@@ 15
minu@@ 15
gradu@@ 15
ton-@@ 15
ope 15
geset@@ 15
muni@@ 15
dium 15
iker 15
tennessee 15
nevada 15
überwälti@@ 15
ret@@ 15
susie 15
cl@@ 15
miner@@ 15
nin@@ 15
uniform 15
cad@@ 15
taxi@@ 15
ök@@ 15
dopp@@ 15
daf-2 15
routin@@ 15
anth@@ 15
dubai 15
pot 15
quarti@@ 15
delph@@ 15
jag@@ 15
romo 15
illeg@@ 15
veget@@ 15
arier 15
lord 15
fungi 15
cancer 15
beängsti@@ 15
wehr@@ 15
adres@@ 15
ward 15
bron@@ 15
ddt 15
carbon@@ 15
anna 15
sisch 15
sioux 15
gefil@@ 15
screen 15
wn 15
avenue 15
spring@@ 15
mierte 15
museums 14
kine@@ 14
photoshop 14
harv@@ 14
neutral 14
ipods 14
festivals 14
plato 14
ful@@ 14
dale 14
moham@@ 14
bilität 14
8-@@ 14
janine 14
trade 14
39 14
häus@@ 14
marco 14
uc@@ 14
cocktail 14
internation@@ 14
legiti@@ 14
lithium 14
herrsch@@ 14
somalia 14
oly@@ 14
68 14
tumors 14
afghani@@ 14
besser@@ 14
event 14
greg 14
wich 14
stere@@ 14
inje@@ 14
cel@@ 14
eduardo 14
methodi@@ 14
hof@@ 14
hudson 14
key 14
strat@@ 14
bihar 14
mos@@ 14
stream 14
1987 14
touch@@ 14
sound 14
legal 14
ñ@@ 14
nich@@ 14
dul@@ 14
170 14
sop@@ 14
saul 14
botswana 14
richte 14
toyota 14
schwing@@ 14
kyoto 14
ye 14
größenor@@ 14
archimedes 14
jac@@ 14
fers 14
mosp@@ 14
häre 14
thy 14
symptom 14
kurzweil 14
miami 14
6-@@ 14
flickr 14
ferin 14
84 14
ends 14
60-@@ 14
kis@@ 14
gelenk 14
berfläche 14
imper@@ 14
4.@@ 14
zig@@ 14
arro@@ 14
mexico 14
ban 14
sha 14
ank 14
sy 14
biolo@@ 14
filme@@ 14
ng 14
bemü@@ 14
steuropa 14
roosevelt 14
expo 14
burger 14
mission@@ 14
verlan@@ 14
künf@@ 14
cent@@ 14
metri@@ 14
date 14
netra 14
barbara 14
versi@@ 14
megawatt 14
solly 14
tools 14
etten 14
dnis@@ 14
ces 14
butter@@ 14
90@@ 14
behaup@@ 14
pande@@ 14
khmer 14
pop-@@ 14
teppi@@ 14
harris 14
dote 14
mem@@ 14
therapeu@@ 14
jargon 14
clu@@ 14
gehö@@ 14
aggressi@@ 14
bbc 14
eb@@ 14
bay@@ 14
side 14
diab@@ 14
entation 14
bias 14
bia 14
stechnolo@@ 14
windows 14
vision@@ 14
kepler 14
hu 14
op-@@ 14
ec@@ 14
1949 14
glü@@ 14
morph@@ 14
emis@@ 14
expertise 14
dierte 14
programm@@ 14
algorith@@ 14
tedglobal 14
intel 14
sean 14
fert 14
inno@@ 14
a.@@ 14
konvention@@ 14
29@@ 14
resi@@ 14
association 14
moun@@ 14
vio@@ 14
ain 14
meme@@ 14
extra-@@ 14
bra 14
demen@@ 14
prostat@@ 14
therape@@ 14
aden@@ 14
kehr 14
homini@@ 14
such 14
insi@@ 14
sationen 14
aktiv@@ 14
argumentation 14
eigent@@ 14
zau@@ 14
simpl@@ 14
epilep@@ 14
gehry 14
village 14
fond 14
förmi@@ 14
lisa 14
leads 14
nazis 14
barbar@@ 14
dd 14
ju 14
leist@@ 14
ps@@ 14
tai@@ 14
julie 14
terrain 14
barri@@ 14
retina 14
kle 14
elizabeth 14
our@@ 14
-up 14
numer@@ 14
trip 14
zk 14
era 14
drum 14
sapiens 14
movember 14
vernünf@@ 14
ungefä@@ 14
lies 14
telescope 14
bedeu@@ 14
proteom@@ 14
hyperbo@@ 14
roots 14
rory 14
cock@@ 14
formal@@ 14
gando 14
machine 14
autobio@@ 14
tox@@ 14
amphi@@ 14
nukle@@ 14
skype 14
broadmoor 14
visi@@ 14
bour@@ 14
carter 14
glori@@ 14
ih@@ 14
dir@@ 14
interpre@@ 14
rupt 14
ila 14
e.@@ 14
natür@@ 14
oprah 14
portland 14
mali@@ 14
100@@ 14
sequen@@ 14
nanometer 14
tw@@ 14
js 14
jazeera 14
dimitri 14
indu@@ 14
solar 14
trägen 14
fernse@@ 14
chop@@ 14
provin@@ 14
hydra@@ 14
1978 14
lay@@ 14
außerir@@ 14
economist 14
audio 14
pam@@ 14
stanley 14
grey 14
jam@@ 14
biet@@ 14
41 14
gad@@ 14
übri@@ 14
ex-@@ 14
reed 14
marker 14
hertz 14
map 14
reflex 14
geschwindi@@ 14
logarith@@ 14
bahnbrech@@ 14
spray 14
tenden@@ 14
shred@@ 14
hindu@@ 14
transi@@ 14
adoption 14
tickets 13
ato@@ 13
faszin@@ 13
ergie 13
universal 13
lind@@ 13
ster-@@ 13
blutgefä@@ 13
diam@@ 13
t-shirt 13
wiegend 13
floss 13
lap@@ 13
tha 13
54 13
manu@@ 13
frank@@ 13
matthew 13
gefühl@@ 13
osaurus 13
00 13
abc 13
manifestation 13
kabul 13
cle@@ 13
iles 13
windet 13
tha@@ 13
adrenal@@ 13
batman 13
one@@ 13
erklär@@ 13
istanbul 13
survey 13
rän@@ 13
ar-@@ 13
aura 13
crick@@ 13
mcdon@@ 13
ü 13
chop 13
physikal@@ 13
pic@@ 13
vaginas 13
enthusiast@@ 13
shirt 13
tera 13
fossi@@ 13
queen 13
sole 13
keyboard 13
chi 13
negatives 13
ony@@ 13
network 13
zwöl@@ 13
danny 13
cover 13
mantra 13
luke 13
essig 13
lossen@@ 13
boy 13
marin@@ 13
u.@@ 13
widersprü@@ 13
phi@@ 13
orthop@@ 13
cp 13
word 13
kara@@ 13
jan 13
aph@@ 13
cra@@ 13
ursprün@@ 13
power@@ 13
synchr@@ 13
orni@@ 13
tors 13
redwood 13
biom@@ 13
cyber-@@ 13
maximum 13
sichten 13
laster 13
fana@@ 13
stefan 13
odysseus 13
our 13
sad@@ 13
hou@@ 13
premi@@ 13
alex@@ 13
sergey 13
vs 13
biomedi@@ 13
transforma@@ 13
è@@ 13
essex 13
betre@@ 13
guer@@ 13
make@@ 13
sally 13
cello 13
hadron 13
collider 13
free@@ 13
diff@@ 13
ergeb@@ 13
field 13
berau@@ 13
í@@ 13
i.@@ 13
pipa 13
robben 13
jimmy 13
hul@@ 13
pedi@@ 13
gesp@@ 13
helix 13
charis@@ 13
isra@@ 13
ce-@@ 13
rap@@ 13
remix 13
rich 13
slogan 13
verbunden@@ 13
trink@@ 13
pers@@ 13
plas@@ 13
vinci 13
fluktu@@ 13
white 13
einkauf@@ 13
67 13
bond 13
hig@@ 13
mahatma 13
urkn@@ 13
ulose 13
til 13
acumen 13
asym@@ 13
penny 13
browne 13
picasso 13
car 13
cybor@@ 13
mitta@@ 13
bangladesh 13
urhe@@ 13
1800 13
res 13
74 13
photo 13
ier 13
gour@@ 13
halts@@ 13
you@@ 13
opera@@ 13
dog@@ 13
lobby@@ 13
gla@@ 13
dra 13
ct@@ 13
chu 13
nom@@ 13
pflich@@ 13
vie@@ 13
inie 13
video-@@ 13
inhab@@ 13
brain@@ 13
servi@@ 13
79 13
jama@@ 13
agiert 13
1969 13
selbstmor@@ 13
yl 13
allererst 13
abhol@@ 13
zahlte 13
appli@@ 13
zufälli@@ 13
connecticut 13
ält 13
akadem@@ 13
spru@@ 13
yes 13
nollywood 13
eingeschrän@@ 13
deck 13
mister 13
1974 13
fbi 13
ansamm@@ 13
poe@@ 13
mangro@@ 13
‒ 13
cartoon 13
vancouver 13
verse 13
q 13
enth@@ 13
geckos 13
motiv@@ 13
riffe 13
mor 13
feln 13
eden 13
basketball 13
sk 13
bos@@ 13
deal 13
sweeney 13
transistor 13
religi@@ 13
wirt@@ 13
ement 13
voyager 13
can 13
how 13
ores@@ 13
1965 13
chenen 13
feder@@ 13
lanka 13
urs 13
bul@@ 13
eh 13
bien@@ 13
aje@@ 13
bud@@ 13
käf@@ 13
1967 13
e8 13
heres 13
erleu@@ 13
augu@@ 13
aka 13
onym 13
anom@@ 13
vitam@@ 13
shirky 13
grove 13
academy 13
gem@@ 13
commons 13
verdam@@ 13
supercomputer 13
kanzi 13
semin@@ 13
eter 13
famili@@ 13
alumini@@ 13
serotonin 13
sees 13
agra@@ 13
nommen 13
pur 13
triumph 13
trum@@ 13
c.@@ 13
ni 13
f. 13
mom@@ 13
tra 13
clou@@ 13
o. 13
ome@@ 13
ungeheu@@ 13
tyr@@ 13
tyran@@ 13
georgia 13
mitchell 13
ies 13
tzei@@ 13
warner 13
locker 13
oxyto@@ 13
1962 13
hh@@ 13
81 12
sheila 12
tres@@ 12
hiroshima 12
hip-@@ 12
weblogs 12
fantas@@ 12
schrö@@ 12
ics 12
veter@@ 12
ohio 12
teleskop@@ 12
cky 12
reson@@ 12
mega@@ 12
store 12
reli@@ 12
neutrin@@ 12
rica 12
cape 12
schlüs@@ 12
courage 12
li 12
syner@@ 12
tm 12
ww@@ 12
93 12
onlin@@ 12
bahamas 12
niens 12
gou@@ 12
homo@@ 12
ype 12
brain 12
belohn@@ 12
extro@@ 12
entscheid@@ 12
suey 12
boys 12
your 12
billy 12
ihr@@ 12
foo@@ 12
sty 12
couch 12
82 12
vre 12
uum 12
mans 12
marshmallow 12
öst@@ 12
äten 12
good@@ 12
à 12
winzi@@ 12
chin 12
begren@@ 12
night 12
nick@@ 12
monu@@ 12
mri 12
hard@@ 12
embryo 12
passion 12
dolby 12
flexible 12
1947 12
avi@@ 12
za-@@ 12
thinking 12
valent@@ 12
schr@@ 12
rd 12
seth 12
erfolgrei@@ 12
simul@@ 12
ue@@ 12
dat 12
tner 12
etes 12
pation 12
geschma@@ 12
stenz 12
ald 12
locke 12
n. 12
is-@@ 12
anäs@@ 12
die-@@ 12
mittelt 12
doku@@ 12
fing@@ 12
ration 12
dam 12
milit@@ 12
entwickl@@ 12
1979 12
esther 12
feed 12
mega-@@ 12
klini@@ 12
screen@@ 12
chirur@@ 12
gin 12
inflation 12
oc@@ 12
quarks 12
labyrin@@ 12
begri@@ 12
elvis 12
negroponte 12
insulin@@ 12
engel@@ 12
giga@@ 12
yang 12
andre@@ 12
key@@ 12
bc 12
bonobo 12
dai 12
schir@@ 12
erwei@@ 12
weibo 12
gans 12
jacqueline 12
sequent 12
regul@@ 12
pho@@ 12
cern 12
aturen 12
transmitter 12
h5n1 12
petro@@ 12
gram 12
central 12
chri@@ 12
versicher@@ 12
tzer@@ 12
tree 12
sammel@@ 12
benki 12
nab@@ 12
via 12
exi@@ 12
bec@@ 12
peti@@ 12
platt@@ 12
robin 12
republi@@ 12
biolog@@ 12
stro 12
fitness 12
samuel 12
ario 12
jer@@ 12
nuan@@ 12
davis 12
enter@@ 12
rezero 12
zwungen 12
superstar 12
prostitution 12
nai@@ 12
noch@@ 12
51 12
lifestyle 12
carol 12
ella 12
jor@@ 12
ee 12
interfer@@ 12
aben@@ 12
synthesizer 12
rationale 12
med@@ 12
cha 12
rus 12
kateg@@ 12
cin 12
ziff@@ 12
phoenix 12
potter 12
pots 12
sergio 12
ausreich@@ 12
erieren 12
yland 12
bruno 12
rufus 12
obser@@ 12
stockholm 12
geschen@@ 12
ethi@@ 12
junior 12
jewei@@ 12
puzzle 12
chad 12
lesterland 12
ous@@ 12
ary 12
jack@@ 12
dimen@@ 12
ronald 12
sudhir 12
iphones 12
karikat@@ 12
verlei@@ 12
dc 12
yan 12
mere 12
24-@@ 12
tac@@ 12
kennung 12
jeep 12
random@@ 12
astron@@ 12
has 12
requ@@ 12
ib@@ 12
hein@@ 12
peer-@@ 12
oney 12
brun@@ 12
ola 12
johan@@ 12
smart 12
plo@@ 12
so-@@ 12
brit@@ 12
thin@@ 12
wärmen 12
fts@@ 12
mass 12
hman 12
91 12
montage 12
minnesota 12
alia 12
rm 12
lucy 12
storben 12
amy@@ 12
hawai@@ 12
prägt 12
mun@@ 12
okap@@ 12
hühn@@ 12
89 12
container 12
hock@@ 12
steak 12
oakland 12
rag@@ 12
wies@@ 12
dialo@@ 12
1981 12
ckens 12
colum@@ 12
iro 12
astero@@ 12
high-tech 12
gymn@@ 12
ryan 12
franklin 12
unes 12
molekul@@ 12
sent@@ 12
feyn@@ 12
komple@@ 12
maitreya 12
kay 12
94 12
respe@@ 12
cochrane 12
toaster 12
ging@@ 12
output 12
steam 12
uri@@ 12
bion@@ 12
soft 12
trauma 12
laden@@ 12
gespro@@ 12
tbp 12
chefs 12
ib 12
wahrhaf@@ 12
anga 12
lick@@ 12
coach 12
empire 12
permanent 12
pfel 12
blah 12
sterb@@ 12
terence 12
alhambra 12
card 12
asphalt 12
absur@@ 12
bee 12
technology 12
russell 12
diale@@ 12
therap@@ 12
gman 12
schossen 12
optimal 12
bridge 12
phen@@ 12
uli@@ 12
women 12
ket 12
sm 12
ust 12
diskus@@ 12
arith@@ 12
pran@@ 12
smartphones 12
prototyp@@ 11
holocaust 11
enco@@ 11
derweise 11
john@@ 11
denten 11
8,@@ 11
verknü@@ 11
thermo@@ 11
sponsor@@ 11
agra 11
introver@@ 11
scot@@ 11
inner 11
philanthrop@@ 11
peru 11
lings 11
nive@@ 11
peter@@ 11
group 11
tast@@ 11
cephal@@ 11
sal 11
gungs@@ 11
kenya 11
autop@@ 11
zy 11
figu@@ 11
millen@@ 11
gelöscht 11
differenti@@ 11
chau@@ 11
cer 11
alexandria 11
-mann 11
ice 11
unternehmen@@ 11
echnolo@@ 11
sousa 11
hyderabad 11
faul@@ 11
illinois 11
hem 11
dl 11
1988 11
zet@@ 11
deen 11
isla@@ 11
lem 11
esot@@ 11
beobach@@ 11
veröffentlich@@ 11
passive 11
12-@@ 11
phili@@ 11
ili@@ 11
63 11
eman@@ 11
bonnie 11
profile 11
kathe@@ 11
ri 11
affe@@ 11
wall@@ 11
sutherland 11
row 11
hysi@@ 11
vens 11
balls 11
dow@@ 11
gap@@ 11
upp@@ 11
ema@@ 11
aussen 11
ace 11
quantita@@ 11
bad@@ 11
scratch 11
gabriel 11
grö@@ 11
fter 11
babylon@@ 11
fahr 11
ira 11
marc 11
palästin@@ 11
marshall 11
gate 11
sci@@ 11
glenn 11
ukra@@ 11
sburg 11
pure 11
yam@@ 11
separ@@ 11
tedx 11
usc 11
work 11
dep@@ 11
america 11
bug 11
lov@@ 11
gun@@ 11
gurus 11
erik 11
turbin@@ 11
wit@@ 11
tragö@@ 11
minimum 11
rhex 11
immense 11
präsi@@ 11
dentin 11
over@@ 11
tatsäch@@ 11
konkurr@@ 11
auß@@ 11
da-@@ 11
operative 11
dah 11
vege@@ 11
esti@@ 11
avatar 11
osama 11
sponsor 11
bonus 11
mittl@@ 11
genes 11
mitochondri@@ 11
letzten@@ 11
hansen 11
jabbar 11
fft 11
drama 11
hypo@@ 11
kim@@ 11
kies 11
traumati@@ 11
mississippi 11
webcam 11
fin 11
ansässi@@ 11
pack 11
spoo@@ 11
sir@@ 11
bj 11
käl@@ 11
remix@@ 11
entsch@@ 11
argent@@ 11
dauern@@ 11
triceratops 11
resistenz 11
portal 11
arms 11
martha 11
accenture 11
nancy 11
lider 11
storbenen 11
ral@@ 11
aid 11
nobyl 11
quo 11
ellip@@ 11
blogo@@ 11
würfe 11
toll@@ 11
galapagos 11
full 11
erosion 11
40-@@ 11
road@@ 11
kraten 11
5,000 11
meg@@ 11
indus 11
dge 11
score 11
camp 11
gould 11
logos 11
oecd 11
neugi@@ 11
kahn 11
splashy 11
nahme@@ 11
spani@@ 11
primitive 11
building 11
expres@@ 11
separate 11
ley@@ 11
mann@@ 11
carolyn 11
chol@@ 11
gespen@@ 11
iran-@@ 11
emmanuel 11
marathons 11
pole 11
sound@@ 11
sogenan@@ 11
arma@@ 11
pasta 11
united 11
library 11
medicine 11
notation 11
anthony 11
igkeiten 11
tus 11
gi 11
elef@@ 11
gilbert 11
smi@@ 11
hol 11
channel 11
roll 11
tell 11
intelligent@@ 11
kh 11
stress@@ 11
iden@@ 11
zipi@@ 11
multi-@@ 11
table 11
66 11
stehung 11
plau@@ 11
t-shirts 11
stigma 11
fat@@ 11
fix@@ 11
enzyme 11
cow@@ 11
creative 11
zon@@ 11
j.@@ 11
stand-up 11
feed@@ 11
án 11
look 11
haber 11
noma@@ 11
hub@@ 11
ble-@@ 11
justin 11
leon@@ 11
cohen 11
psychopa@@ 11
erlei 11
lak@@ 11
nk 11
sla@@ 11
saurus 11
georgetown 11
cri@@ 11
entin 11
villa 11
paro@@ 11
raket@@ 11
irri@@ 11
helen 11
aorta 11
theat@@ 11
boeing 11
barefoot 11
nug@@ 11
basket@@ 11
dm@@ 11
clips 11
o.@@ 11
anger 11
falt 11
resour@@ 11
tide 11
brid@@ 11
metaboli@@ 11
78 11
stero@@ 11
brow@@ 11
chand@@ 11
hamp@@ 11
broad@@ 11
bewä@@ 11
disson@@ 11
ela 11
nervö@@ 11
schlacht@@ 11
geschwi@@ 11
dney 11
dead 11
synapse 11
boards 11
alarm 11
graffiti 11
lesters 11
strato@@ 11
ernest 11
virgin 11
kin 11
patrick 11
its 11
stick@@ 11
dka 11
mad 11
manchester 11
kick 11
ames 10
judy 10
pat 10
piano 10
auschwitz 10
ros 10
hus@@ 10
turi@@ 10
chro@@ 10
austr@@ 10
sala@@ 10
jere@@ 10
richards 10
blan@@ 10
report 10
wy@@ 10
nature 10
session 10
tradi@@ 10
erkl@@ 10
ct 10
tb 10
β@@ 10
tium 10
td 10
missouri 10
hes 10
ak-@@ 10
quot@@ 10
now 10
jordan@@ 10
po 10
share 10
minto 10
atives 10
sle@@ 10
verpac@@ 10
galaxi@@ 10
infor@@ 10
non-@@ 10
jordans 10
gosla@@ 10
list 10
pad 10
mini-@@ 10
seymour 10
indiana 10
militä@@ 10
call@@ 10
lot 10
adoles@@ 10
demo 10
eye 10
ambulan@@ 10
unaids 10
hmt 10
value 10
dennis 10
idy@@ 10
riverside 10
semester 10
marcus 10
thin 10
netflix 10
if 10
water@@ 10
evelyn 10
cargill 10
troffen 10
versums 10
kerala 10
ese@@ 10
ep 10
celine 10
michel@@ 10
cir@@ 10
home 10
reka 10
taylor 10
hillary 10
71 10
inging 10
mao 10
cradle 10
dyson 10
ima 10
ic 10
jähr@@ 10
chromosom@@ 10
sediment 10
stomatopo@@ 10
comedi@@ 10
teraby@@ 10
rockefeller 10
tch@@ 10
usi@@ 10
rüstung 10
carson 10
jes@@ 10
friedman 10
mation 10
wey 10
sorgfäl@@ 10
ole@@ 10
gurt 10
beauftra@@ 10
foren@@ 10
shot 10
email 10
ely 10
arte@@ 10
main@@ 10
lk@@ 10
bp 10
tahrir 10
shir@@ 10
jury 10
wards 10
bobby 10
1966 10
brie@@ 10
clark 10
dennett 10
peripher@@ 10
eal 10
gelegen@@ 10
ning 10
geiger 10
mcluhan 10
oklahoma 10
fotografi@@ 10
rett 10
emergen@@ 10
deregu@@ 10
ages 10
eck 10
jordan 10
geschaff@@ 10
army 10
nano 10
israelis 10
conne@@ 10
eni@@ 10
konkur@@ 10
shilfe 10
novogratz 10
unruhi@@ 10
gigkeit 10
tell@@ 10
vermeer 10
verhei@@ 10
viol@@ 10
fettlei@@ 10
unterschei@@ 10
dant 10
shal@@ 10
comp@@ 10
tata 10
oec@@ 10
gand@@ 10
zhou 10
jesse 10
plot@@ 10
single 10
intuitive 10
fant@@ 10
monter@@ 10
hilfrei@@ 10
tarahumara 10
usda 10
admini@@ 10
superno@@ 10
face@@ 10
ils 10
budapest 10
week 10
have 10
lucas 10
pari@@ 10
beginn@@ 10
math@@ 10
performan@@ 10
copyright 10
650 10
wales 10
milzt 10
press 10
popu@@ 10
invol@@ 10
fellow 10
laparo@@ 10
makoko 10
maje@@ 10
bars 10
gratu@@ 10
independent 10
parab@@ 10
alligator 10
selam 10
doberfläche 10
parade 10
drucker@@ 10
stuart 10
sagmeister 10
byr@@ 10
coun@@ 10
care 10
inn 10
amazon@@ 10
antibio@@ 10
ada 10
quit@@ 10
deri@@ 10
ght-@@ 10
eira 10
stelli@@ 10
saddam 10
orie 10
comic 10
matri@@ 10
proz@@ 10
ceo 10
exxon 10
imagin@@ 10
beverly 10
spit@@ 10
etc 10
motion 10
point 10
oxy@@ 10
zel 10
elefan@@ 10
gorillas 10
aka@@ 10
events 10
prop@@ 10
profess@@ 10
uruguay 10
gespei@@ 10
dus 10
schlimm@@ 10
hend 10
trance 10
suns 10
gupta 10
oth@@ 10
repres@@ 10
mafi@@ 10
austin 10
woods 10
beatles 10
play 10
lynn 10
zi 10
levi@@ 10
optimist 10
sation 10
regimes 10
superman 10
turbul@@ 10
lev@@ 10
bring 10
198@@ 10
gaga 10
galvao 10
feiert 10
dt 10
irrational 10
bestand@@ 10
arbeitsp@@ 10
insky 10
kw@@ 10
bing 10
diaspora 10
thal@@ 10
dehy@@ 10
asp@@ 10
portu@@ 10
10,000 10
happ@@ 10
pipelines 10
lol 10
sta 10
leton 10
singul@@ 10
corn@@ 10
episode 10
metro@@ 10
victoria 10
hygiene 10
young 10
dum@@ 10
dog 10
cl 10
loh 10
grin@@ 10
dwell 10
überzeug@@ 10
enthi@@ 10
malcolm 10
maps 10
repertoire 10
ey@@ 10
verdrei@@ 10
infr@@ 10
einspar@@ 10
papu@@ 10
mubarak 10
alisa 10
vaku@@ 10
butter 10
waff@@ 10
icons 10
maker 10
babysi@@ 10
dy-@@ 10
au-prince 10
aviv 10
veranst@@ 10
leg 10
nbc 10
mathematica 10
back 10
rap 10
giraffe 10
old 10
cholester@@ 10
michoac@@ 10
rup@@ 10
south@@ 10
court 10
id@@ 10
greenpeace 10
skulp@@ 10
sell@@ 10
stereot@@ 10
lac@@ 10
urspr@@ 10
bmi 10
spring 10
nerds 10
pc@@ 10
fusi@@ 10
institu@@ 10
maga@@ 10
yahoo 10
fäng@@ 10
harlem 10
camp@@ 10
zent 10
pluri@@ 10
signi@@ 10
charlotte 10
mandel@@ 10
codi@@ 10
selten@@ 10
belo@@ 10
ino 10
rig 10
rifu@@ 10
stimuli 10
no-@@ 10
nega@@ 10
eno 10
hungers@@ 10
mies 10
kilome@@ 10
eson 10
1940 10
ite@@ 10
hills 10
ghet@@ 10
hob@@ 10
ass@@ 10
modu@@ 10
bilbao 10
shire 10
unic@@ 10
domesti@@ 10
wick 10
win-@@ 10
edison 10
able 10
gefan@@ 10
boyle 10
ikea 10
fax 10
legal@@ 10
opp@@ 10
hindi 10
fundam@@ 10
ide 10
arsenal 10
cynthia 10
ison 10
atlas 10
phil 10
läufig 10
football 10
andal 10
aida 10
sas@@ 10
relation@@ 10
madison 10
typo@@ 10
zon 10
tech 10
fortune 10
pper@@ 9
tty 9
cab@@ 9
hart@@ 9
corporation 9
techno@@ 9
wan 9
salman 9
brutal 9
aba 9
messen@@ 9
pacific 9
nap@@ 9
psychop@@ 9
nib@@ 9
wee@@ 9
buff@@ 9
romegal@@ 9
linus 9
chy@@ 9
rem@@ 9
australi@@ 9
hunt 9
homer 9
way@@ 9
regenerative 9
dama@@ 9
human 9
spare 9
d.@@ 9
curtis 9
archet@@ 9
otto 9
ite 9
off 9
lob@@ 9
helikop@@ 9
enriquez 9
minster 9
steel 9
tedwomen 9
tow@@ 9
hy 9
jean-@@ 9
michel 9
cras@@ 9
guatemala 9
designers 9
marduk 9
collins 9
dow 9
teddy 9
aw@@ 9
volvo 9
nyu 9
bell@@ 9
lux 9
rats 9
country 9
vernicht@@ 9
88 9
ibu@@ 9
barcode 9
fracking 9
pascal 9
arthritis 9
wöl@@ 9
gewis@@ 9
malaysia 9
vage 9
marx 9
750 9
jab@@ 9
völ@@ 9
iso@@ 9
deng 9
manifest 9
bowl 9
andes 9
turn@@ 9
jacques 9
whitney 9
aaron 9
ahmed 9
stelligen 9
cocktails 9
headset 9
ables 9
pinker 9
down-@@ 9
muffin 9
( 9
bronze 9
over 9
kuwait 9
ways 9
cornell 9
lear@@ 9
english 9
hlich 9
geo-@@ 9
holfen 9
semble 9
sensible 9
marie 9
xen@@ 9
360 9
einwohn@@ 9
tn@@ 9
illa 9
lex@@ 9
ura 9
alan@@ 9
tk 9
hamlet 9
emper@@ 9
apartheid 9
andau@@ 9
gaza 9
energe@@ 9
models 9
ji 9
mellon 9
queensland 9
demor@@ 9
book@@ 9
opec 9
schimpan@@ 9
samt 9
verne@@ 9
stage 9
365 9
mauriti@@ 9
bury 9
prax@@ 9
pont 9
head 9
seroton@@ 9
fle 9
dod@@ 9
gles 9
good 9
ecuad@@ 9
emer@@ 9
analog 9
cafeteria 9
haven 9
millenni@@ 9
horror 9
bras 9
het@@ 9
airbnb 9
echo 9
besi@@ 9
champag@@ 9
home@@ 9
integra@@ 9
kaluza 9
module 9
supralei@@ 9
mah 9
ürf@@ 9
wilder@@ 9
ungehe@@ 9
orion 9
rockwell 9
sequ@@ 9
gentleman 9
patrio@@ 9
achil@@ 9
ernsth@@ 9
berk@@ 9
hussein 9
mae@@ 9
vili@@ 9
rick@@ 9
mid@@ 9
peace 9
rät@@ 9
jacob@@ 9
buffet 9
busin@@ 9
altos 9
synago@@ 9
scre@@ 9
altar 9
foli@@ 9
banal 9
ader 9
padd@@ 9
dor 9
oz 9
kleiber 9
angola 9
berücksichti@@ 9
locks 9
sari 9
gui@@ 9
senegal 9
chuck 9
allison 9
18-@@ 9
shakespe@@ 9
natu@@ 9
oper@@ 9
houston 9
office 9
epiphy@@ 9
pyg@@ 9
onal 9
plutonium 9
diag@@ 9
warm@@ 9
sense 9
vivian 9
pis@@ 9
holland 9
rami@@ 9
sis@@ 9
craft 9
pore 9
shekhar 9
cleveland 9
pl 9
elli 9
ml 9
ita 9
temper@@ 9
tica 9
regener@@ 9
randi 9
garden 9
ipcc 9
casey 9
dates 9
woo@@ 9
hoo 9
zumin@@ 9
destens 9
paraly@@ 9
soft@@ 9
melt 9
hna 9
tofu 9
p. 9
80-@@ 9
yi 9
fibro@@ 9
christ 9
proteins 9
1953 9
tora@@ 9
# 9
bike 9
br 9
public 9
tool 9
torium 9
baxter 9
testet 9
robicsek 9
bang 9
magnes@@ 9
derartu 9
book 9
kentucky 9
bess 9
gesu@@ 9
shaw 9
king@@ 9
aggression 9
jurassic 9
greg@@ 9
symme@@ 9
heroin 9
mug@@ 9
einfühl@@ 9
fred 9
berners-lee 9
beau 9
streut 9
tribun@@ 9
tou@@ 9
restri@@ 9
marsh@@ 9
stimul@@ 9
yochai 9
nashville 9
worth 9
trek 9
hiv-positive 9
quant@@ 9
caroline 9
philips 9
equ@@ 9
kler 9
nee 9
aly@@ 9
rockett 9
ranger 9
phar@@ 9
mast 9
edith 9
iowa 9
jahrel@@ 9
adams 9
46@@ 9
herbie 9
himi 9
veri@@ 9
vernun@@ 9
ktu@@ 9
wachs 9
gni@@ 9
hydropho@@ 9
gger 9
ezra 9
pianist 9
chev@@ 9
crick 9
feature 9
solo 9
schwefel@@ 9
lyn 9
stunt 9
awi 9
nerv@@ 9
cell@@ 9
walt 9
schlus@@ 9
tyranno@@ 9
mails 9
gedei@@ 9
tiso@@ 9
popcorn 9
jessica 9
core@@ 9
drake 9
psychopath 9
pli@@ 9
erkrank@@ 9
blind@@ 9
dis 9
pyth@@ 9
alition 9
latr@@ 9
maslow 9
isis 9
christian 9
sep@@ 9
festh@@ 9
gets 9
automobile 9
ting 9
kodi@@ 9
sala 9
alberto 9
million-@@ 9
invasive 9
shmi 9
neumann 9
fried 9
na-@@ 9
paula 9
thro@@ 9
zetas 9
geschri@@ 9
mail@@ 9
240 9
vene@@ 9
mbi 9
ablen 9
kath@@ 9
ctor 9
young@@ 9
bal 9
alterna@@ 9
at-@@ 9
ution 9
australopithe@@ 9
alabama 9
terry 9
protot@@ 9
toler@@ 9
oping 9
freak 9
solidar@@ 9
diet@@ 9
surfing 9
myo@@ 9
anthropo@@ 9
thermodynam@@ 9
erkan@@ 9
tweets 9
jean 9
prozac 9
mosa@@ 9
indire@@ 9
bik 9
crack 9
lah 9
yin 9
bollywood 9
water 9
cheet@@ 9
orch@@ 9
vine 9
newton@@ 9
budrus 9
1858 9
alis@@ 9
mrs. 9
glän@@ 9
dys@@ 9
najmuddin 9
.org. 9
ae@@ 9
pierre 9
merito@@ 9
bandura 9
plur@@ 9
boli@@ 9
maui 9
raleigh 9
emma 9
rr@@ 9
tivitäts@@ 9
gorilla 9
forbes 9
demie 9
defe@@ 9
macintosh 9
denburg 9
yan@@ 9
maeda 9
rca 9
bu 9
diagra@@ 9
pop 9
endo@@ 9
ee@@ 9
walk 8
bins 8
simpson 8
harr@@ 8
hyper-@@ 8
illusion@@ 8
bingo 8
sser@@ 8
oxi@@ 8
reader 8
pine 8
situ@@ 8
parkin@@ 8
seni@@ 8
parano@@ 8
nih 8
herzin@@ 8
sao 8
paulo 8
radar 8
ende@@ 8
mato@@ 8
part 8
button 8
agent 8
saub@@ 8
castle 8
argu@@ 8
honey 8
potent 8
think 8
lows 8
zukun@@ 8
polymer 8
hospi@@ 8
morgan 8
strings 8
schüs@@ 8
drink 8
low-@@ 8
kiva 8
spekta@@ 8
deutsch@@ 8
shri@@ 8
gabyte 8
pesti@@ 8
allan 8
ampli@@ 8
hc 8
wake 8
ike@@ 8
yoga 8
spider@@ 8
frontal 8
zab@@ 8
soundtrack 8
phant@@ 8
symph@@ 8
reserve 8
pradesh 8
mr 8
weltre@@ 8
hay@@ 8
vermitt@@ 8
arez 8
brook 8
descartes 8
eeg 8
bands 8
empath@@ 8
law@@ 8
plu@@ 8
angel 8
better 8
esa@@ 8
ming 8
kompon@@ 8
dev@@ 8
robinson 8
wi-fi 8
thi@@ 8
max@@ 8
first 8
sat 8
dameri@@ 8
tennis 8
ausbrei@@ 8
mt@@ 8
hardy 8
monum@@ 8
ht@@ 8
mäch@@ 8
adri@@ 8
spam 8
ci 8
mobs 8
large 8
rhino@@ 8
idol 8
errungen@@ 8
rush 8
crew 8
repu@@ 8
race 8
agency 8
tzung 8
vul@@ 8
middle 8
lo 8
rier 8
sever@@ 8
täu@@ 8
vc 8
asper@@ 8
improvis@@ 8
anonymous 8
frö@@ 8
sachs 8
laura 8
chlor@@ 8
recy@@ 8
clin@@ 8
stat 8
grades 8
frost 8
cau@@ 8
apartment 8
borough 8
bewerk@@ 8
after 8
chim@@ 8
spee@@ 8
kiki 8
cis@@ 8
and-@@ 8
cox 8
best 8
check@@ 8
vac@@ 8
europ@@ 8
degra@@ 8
synäs@@ 8
gymnosop@@ 8
tahri@@ 8
chinese 8
terrori@@ 8
by-@@ 8
lein@@ 8
catherine 8
glen@@ 8
phone 8
theatre 8
stattet 8
rs 8
1850 8
pig@@ 8
züglich 8
myhrvold 8
volu@@ 8
obs@@ 8
whole 8
gegent@@ 8
routine 8
dating 8
euro@@ 8
mechanical 8
turk 8
chor@@ 8
hannah 8
airlines 8
hopkins 8
sauer@@ 8
wri@@ 8
cour@@ 8
daphne 8
car-@@ 8
minimal 8
satur@@ 8
manhat@@ 8
outsour@@ 8
distri@@ 8
fraser 8
lolcats 8
gus@@ 8
unterhalt 8
low 8
pants 8
mahl@@ 8
symp@@ 8
sea 8
embr@@ 8
artill@@ 8
verdopp@@ 8
illin 8
kick@@ 8
acre 8
reti@@ 8
turbo 8
leviathan 8
ischer@@ 8
skydiving 8
anim@@ 8
job@@ 8
dley 8
chat 8
unbelie@@ 8
sargas@@ 8
era@@ 8
wingsuit 8
ac 8
subtra@@ 8
chester 8
heal@@ 8
lawrence 8
town 8
plum@@ 8
mp 8
mountain 8
rebellion 8
kings 8
dot 8
wal-@@ 8
sprodu@@ 8
mind-wandering 8
view 8
u.s.@@ 8
willig 8
pearl 8
harbor 8
11@@ 8
ret 8
opi@@ 8
kid 8
buddh@@ 8
ft-@@ 8
flick@@ 8
alei@@ 8
königrei@@ 8
bed@@ 8
oter 8
huh 8
transfer 8
gue 8
ingo 8
peak 8
bemer@@ 8
ony 8
tanks 8
holo@@ 8
add@@ 8
eit@@ 8
lets 8
fuller 8
bine 8
clubs 8
parlam@@ 8
th-@@ 8
muti 8
brochen 8
lär@@ 8
troy 8
trilli@@ 8
thri@@ 8
dum 8
down 8
captain 8
müs@@ 8
intra@@ 8
desktop 8
sleep 8
terminal 8
umgeb@@ 8
pani@@ 8
hop 8
kill@@ 8
ucla 8
mainstream 8
kev@@ 8
masch@@ 8
ces@@ 8
atlantic 8
dood@@ 8
know-how 8
kindle 8
immuns@@ 8
rhet@@ 8
jenige 8
gefol@@ 8
archive 8
chlorop@@ 8
ultimati@@ 8
children 8
hard 8
vernach@@ 8
gestür@@ 8
felt 8
kartoff@@ 8
pessi@@ 8
t.b. 8
light 8
fortgeschri@@ 8
fir@@ 8
saint 8
bass 8
sushi 8
pads 8
sanghamit@@ 8
sourcing 8
bulldo@@ 8
ires 8
zzy 8
@ 8
mapping 8
barmherzi@@ 8
ori 8
mp3 8
angt 8
ops 8
dal 8
ati 8
quantitative 8
ament 8
epi@@ 8
matthieu 8
calci@@ 8
portion 8
ram@@ 8
guitar 8
his@@ 8
oops 8
benö@@ 8
ultra-@@ 8
atu@@ 8
blues 8
muff@@ 8
stereotyp@@ 8
tedmed 8
limit 8
sophi@@ 8
rotation 8
aer@@ 8
atoms 8
vani@@ 8
perrt 8
wells 8
boltzmann 8
golden 8
navigation 8
baugh 8
w.@@ 8
wh@@ 8
pastor 8
brunel 8
icon 8
tic 8
whiskey 8
witness 8
habitat 8
moglobin 8
church 8
curriculum 8
zerem@@ 8
aa@@ 8
gon 8
huntington 8
langfri@@ 8
haha@@ 8
zide 8
hobby 8
1,000 8
emi@@ 8
dioxid 8
ous 8
kobe 8
jose 8
wisconsin 8
aurora 8
lien 8
lifes@@ 8
iv 8
parado@@ 8
xon 8
dist@@ 8
regional 8
rift 7
passen@@ 7
dissi@@ 7
connect@@ 7
harn@@ 7
pag@@ 7
lium 7
colle@@ 7
knee 7
irgen@@ 7
charakteristi@@ 7
ves@@ 7
präsident@@ 7
pto@@ 7
pay@@ 7
vam@@ 7
ridge 7
little 7
aug@@ 7
dutz@@ 7
phantom@@ 7
other@@ 7
marines 7
suffi@@ 7
ceos 7
mons 7
june 7
mmi@@ 7
angeneh@@ 7
resili@@ 7
terrorist 7
äqui@@ 7
tolerant 7
impact 7
overflow 7
shopping 7
thai 7
leaks 7
22@@ 7
crash 7
white@@ 7
ols 7
klä@@ 7
besag@@ 7
abili@@ 7
boots 7
shared 7
review 7
ug@@ 7
vis 7
dik@@ 7
dilemmas 7
unser@@ 7
sopran@@ 7
instruments 7
security 7
ctus 7
cock 7
gul@@ 7
doc 7
per-@@ 7
workshops 7
dopam@@ 7
aspen 7
strator 7
peer-to-peer 7
face 7
establishment 7
ators 7
vide@@ 7
det@@ 7
quez 7
prim@@ 7
safe@@ 7
schmel@@ 7
slas@@ 7
day@@ 7
dinner 7
tro 7
chap@@ 7
dodo 7
urlau@@ 7
content 7
cru@@ 7
samar@@ 7
lun@@ 7
philosophi@@ 7
kid@@ 7
babb@@ 7
herzinfar@@ 7
hoe 7
program@@ 7
gefühls 7
energ@@ 7
live@@ 7
gegeben@@ 7
gle 7
pie 7
dirty 7
menop@@ 7
work@@ 7
arre@@ 7
plane 7
label 7
kopf-@@ 7
2,000 7
ttel 7
alph@@ 7
uit 7
klebe@@ 7
cowboy 7
chur@@ 7
acr@@ 7
multitasking 7
what 7
broo@@ 7
beck@@ 7
poll@@ 7
16-@@ 7
zin 7
red-@@ 7
appl@@ 7
vali@@ 7
inklu@@ 7
mola 7
blue@@ 7
180@@ 7
wende@@ 7
desk 7
hirshhorn 7
autonom@@ 7
mell@@ 7
irrelevant 7
base 7
zusätz@@ 7
ence 7
thor@@ 7
sandwiches 7
aah 7
onet@@ 7
johns 7
antor 7
usen 7
shop 7
mich@@ 7
tourist 7
nichts@@ 7
infan@@ 7
pyrami@@ 7
szen@@ 7
nirgend@@ 7
erien 7
auditorium 7
manufacturing 7
publik@@ 7
oul 7
dör@@ 7
joy 7
trivial 7
od 7
birthday 7
dokument@@ 7
laboratory 7
organs 7
boar@@ 7
amit@@ 7
steurop@@ 7
ering 7
seller 7
ago 7
[...]
