, 196073
. 154721
und 72195
die 66049
sie 45550
das 44118
ich 43221
der 42274
ist 39820
es 37531
wir 36208
in 34043
zu 31163
&quot; 22452
ein 22310
eine 20433
von 20393
nicht 20019
dass 19586
den 17212
mit 16205
wie 15322
auf 14515
sich 13385
sind 13155
aber 12993
? 12929
: 12852
haben 12696
man 12550
für 12494
was 12315
wenn 12085
er 11153
als 11040
so 10704
an 10669
diese 10586
war 10505
um 9812
im 9284
also 8938
dem 8552
einen 8244
uns 7938
können 7871
hier 7743
werden 7300
hat 7138
aus 7106
oder 7018
des 6786
über 6708
auch 6475
kann 6393
einer 6355
sehr 6228
dann 6090
einem 6008
nur 5903
wird 5845
– 5805
gibt 5674
ihnen 5520
mich 5479
menschen 5396
sehen 5227
sein 5176
etwas 4942
dieser 4834
habe 4831
noch 4828
nach 4694
mir 4460
-- 4274
mehr 4130
alle 4110
vor 4097
bei 4036
welt 3967
meine 3883
nun 3810
machen 3762
ihre 3750
leben 3739
zum 3707
- 3655
weil 3633
wirklich 3620
wurde 3617
dies 3558
dieses 3553
da 3476
tun 3285
immer 3256
jetzt 3251
am 3211
wissen 3173
durch 3160
ihr 3144
unsere 3142
hatte 3024
keine 3012
ver@@ 3002
zeit 2991
leute 2939
-@@ 2934
viel 2904
sagte 2848
viele 2821
diesem 2792
einfach 2736
du 2736
denn 2723
sagen 2722
zwei 2721
eines 2701
dinge 2700
diesen 2678
alles 2650
waren 2638
bin 2589
müssen 2577
jahren 2548
andere 2497
art 2467
würde 2377
wo 2376
anderen 2364
mein 2359
er@@ 2344
damit 2327
geht 2288
vielleicht 2270
bis 2265
gut 2260
ge@@ 2253
zur 2241
selbst 2238
mal 2222
an@@ 2214
ab@@ 2133
jahre 2118
muss 2044
heute 2016
warum 1983
schon 1978
be@@ 1928
ja 1928
ein@@ 1918
geschichte 1916
möchte 1910
aus@@ 1910
einige 1906
tatsächlich 1863
all 1860
macht 1853
wieder 1838
gehen 1826
un@@ 1813
dort 1756
denken 1756
davon 1754
ganz 1748
auf@@ 1740
ten 1732
genau 1712
kinder 1701
&apos; 1692
lassen 1688
drei 1687
hatten 1670
te 1654
ihn 1648
paar 1635
jahr 1601
seine 1589
könnte 1588
darüber 1584
werde 1579
kommen 1573
wollen 1564
meiner 1541
ob 1514
wurden 1491
ihren 1469
problem 1466
gab 1457
weg 1456
gemacht 1444
teil 1428
beispiel 1426
ende 1422
jeder 1419
geben 1416
! 1416
frage 1412
denke 1403
während 1401
kein 1390
glaube 1385
finden 1367
kommt 1361
natürlich 1355
doch 1343
vor@@ 1339
dazu 1333
neue 1332
wäre 1332
unser 1330
; 1330
unserer 1328
vom 1322
s 1317
über@@ 1307
sogar 1305
nichts 1301
einmal 1294
weiß 1289
tag 1285
weiter 1282
arbeit 1282
stellen 1280
ohne 1279
gerade 1273
denen 1266
zwischen 1260
zeigen 1255
sondern 1244
ihrer 1243
dafür 1240
erste 1236
sieht 1226
passiert 1223
prozent 1220
würden 1214
nie 1212
vielen 1205
land 1201
zurück 1201
verstehen 1181
unter 1174
will 1165
millionen 1163
große 1160
ersten 1151
daran 1150
bild 1145
ganze 1145
konnte 1144
ent@@ 1135
nehmen 1134
en 1123
etwa 1120
fragen 1118
idee 1115
en@@ 1101
sagt 1092
sollte 1090
ziemlich 1083
sprechen 1082
arbeiten 1080
bekommen 1079
letzten 1072
ging 1060
dabei 1055
wollte 1046
kam 1044
meisten 1042
sollten 1041
geld 1038
seite 1036
könnten 1036
meinem 1032
bringen 1027
frauen 1027
wichtig 1021
meinen 1016
welche 1009
wasser 1008
sache 1002
sch@@ 989
kleinen 968
daten 965
danke 964
zusammen 962
technologie 962
weise 957
darauf 957
besser 953
k@@ 947
weniger 945
eigentlich 945
s@@ 942
dollar 940
ung 940
gen 938
gesehen 935
system 918
lernen 912
dachte 909
kleine 905
brauchen 905
menge 904
vier 901
ganzen 899
bedeutet 898
glauben 897
ihm 890
jemand 888
großen 887
sten 885
um@@ 876
zu@@ 871
nein 868
raum 866
unseren 865
mann 858
jedes 851
versuchen 847
ihrem 846
gehirn 844
ins 828
frau 818
schauen 818
jeden 816
fall 816
ab 810
10 806
gute 805
gesagt 804
ort 803
t 801
unter@@ 800
grund 800
keinen 799
essen 797
seit 792
wer 790
nutzen 788
ter 786
zukunft 784
zeigt 782
fast 773
a 772
spielen 768
t@@ 764
später 756
fünf 753
indem 751
... 751
eigenen 749
erde 747
ungefähr 747
beim 746
gegen 740
heraus 739
allen 738
person 738
kind 738
schaffen 736
funktioniert 736
hätte 735
bauen 735
wahrscheinlich 734
seiner 734
richtig 730
mutter 729
ge 726
20 723
jede 722
wenig 720
halten 719
probleme 719
arten 718
pro 715
erzählen 712
z@@ 710
sicher 706
heißt 704
dank 698
ungen 697
form 696
g@@ 688
sah 687
konnten 687
liche 687
bisschen 685
liebe 683
ische 682
helfen 681
schule 679
schnell 678
oft 678
los 675
ern 673
in@@ 667
begann 667
lange 666
punkt 665
neuen 664
moment 663
genug 663
i 663
ungs@@ 658
afrika 655
reden 655
e@@ 654
re@@ 654
teilen 654
körper 653
ch@@ 652
möglich 651
nächsten 651
ideen 650
licht 648
stadt 647
überall 646
eren 645
erst 644
de 641
okay 640
lang 639
stehen 637
manchmal 637
unserem 635
lich 635
d@@ 634
buch 634
projekt 633
% 631
gruppe 630
euch 629
darum 629
seinen 627
al@@ 626
end 626
liegt 623
ere 623
anders 623
milliarden 622
leuten 620
o@@ 618
je 617
ischen 615
lichen 615
gehört 612
hin 611
ste 605
bevor 605
sagten 604
planeten 604
computer 603
anderes 602
chen 601
energie 601
enden 601
nach@@ 601
durch@@ 600
ok 597
kennen 597
se@@ 597
machte 593
st 593
nennen 593
sei 591
ert 590
führen 589
verändern 589
el@@ 588
hören 587
mädchen 584
i@@ 581
de@@ 581
entwickelt 580
tat 577
unternehmen 573
deshalb 573
besonders 572
weit 571
steht 570
minuten 569
n@@ 568
informationen 566
oben 564
e 563
usa 562
isch 562
bilder 559
natur 557
seinem 556
wissenschaft 556
bereits 555
namens 553
erreichen 552
familie 552
antwort 551
verschiedene 551
30 551
benutzen 549
a@@ 548
gar 546
gerne 543
musste 541
haus 541
sechs 539
sprache 535
m@@ 534
f@@ 533
indien 533
geschichten 532
lebens 532
b@@ 531
klar 531
wert 530
50 529
recht 528
musik 527
dich 526
di@@ 526
gleich 525
gefühl 525
100 524
braucht 524
tes 523
oh 523
g 523
st@@ 520
new 519
darin 518
erkennen 517
spiel 515
lage 515
hand 515
design 513
li@@ 513
niemand 511
p@@ 510
ti@@ 509
einzige 508
hätten 508
möglichkeit 508
ma@@ 506
wegen 505
eins 505
augen 505
verhalten 504
irgendwie 503
treffen 502
besten 502
hin@@ 500
innerhalb 500
bewegen 499
gott 499
soll 499
kopf 495
ar@@ 494
vater 494
vorstellen 494
o 493
sage 493
ändern 491
gebäude 491
stunden 491
zellen 491
internet 490
gesellschaft 489
zusammen@@ 486
schreiben 486
patienten 486
zurück@@ 485
jedem 484
sachen 484
ger 484
stück 484
stellt 479
r@@ 477
beiden 477
kindern 476
tiere 476
h@@ 476
regierung 475
ro@@ 475
mit@@ 475
wollten 474
bitte 473
m 472
setzen 471
erhalten 469
gleiche 469
menschlichen 468
länder 468
le@@ 466
entwickeln 466
schwer 466
unglaublich 466
herum 464
einigen 463
daher 462
bringt 461
obwohl 461
beginnen 461
gern 460
verschiedenen 459
erte 459
film 459
china 458
ziehen 457
dir 457
alt 456
bar 456
licher 455
alen 453
gt 452
verändert 452
hoch@@ 452
nächste 452
ei@@ 451
überhaupt 451
führt 451
l@@ 450
hoch 450
kunst 449
damals 449
sen 448
universum 448
glück 447
männer 447
gleichen 446
verwenden 446
lesen 445
hause 440
ausge@@ 440
u@@ 439
versucht 438
angst 437
or@@ 437
tut 436
aller 436
bewegung 434
fand 433
lässt 432
eltern 432
wirtschaft 432
unten 431
wohl 431
nämlich 431
getan 430
gen@@ 430
kamen 430
la@@ 429
15 426
k 426
junge 426
falls 425
ken 425
fahren 423
auto 423
fühlen 419
wort 419
weitere 419
sinn 419
letzte 418
groß 418
hilfe 417
teile 416
kurz 416
stelle 415
möglichkeiten 415
stand 415
staaten 414
menschliche 410
ko@@ 410
zahlen 409
kultur 408
fähigkeit 407
unterschied 407
jedoch 406
ra@@ 406
worden 405
her 405
her@@ 404
schön 403
nachdem 402
entwicklung 402
zwar 401
lösung 400
dingen 399
roboter 399
tragen 399
nimmt 398
em 398
zer@@ 397
dessen 397
allem 396
erfahrung 395
tage 395
am@@ 394
ted 394
eher 394
au@@ 393
ange@@ 393
modell 392
betrachten 391
eigene 391
erten 390
meines 390
es@@ 389
muster 389
kraft 389
fliegen 388
lehrer 386
falsch 386
york 386
lösen 386
ä@@ 386
krebs 386
zweite 386
mag 386
interessant 385
kosten 385
ziel 385
anfang 385
prozess 383
2 382
beste 382
deren 382
on 382
wahr 381
wasser@@ 381
stellte 381
guten 381
maschine 381
erinnern 381
woche 380
genommen 379
ger@@ 379
jungen 378
neu 378
te@@ 377
richtung 376
bleiben 376
grunde 376
ben 376
kaufen 376
boden 375
genauso 374
ri@@ 374
publikum 374
welches 374
solche 373
mussten 373
kt 373
thema 372
nahm 371
hinter 370
tieren 370
sieben 370
laufen 370
fragte 369
schließlich 369
wissenschaftler 369
se 368
ten@@ 368
zahl 368
sollen 367
y@@ 366
ie 364
direkt 364
video 364
bereich 364
verbindung 364
danach 364
namen 362
schul@@ 361
alter 361
sterben 361
größte 361
wären 359
ne 358
hast 357
zuvor 357
platz 357
struktur 357
&#91; 356
bildung 356
wusste 355
monate 354
auszu@@ 354
&#93; 354
neues 354
gebaut 353
40 353
gedanken 353
anderer 352
zen 352
autos 352
ur@@ 351
formen 350
bau@@ 349
zuerst 348
plötzlich 348
alten 348
mache 347
manche 346
freunde 346
wochen 345
besteht 345
zehn 344
ischer 343
reise 343
scheint 343
ihres 342
ale 342
ter@@ 342
größe 342
b 341
z 341
beginnt 341
zi@@ 340
genannt 340
gewesen 340
sa@@ 339
bi@@ 339
luft 338
funktionieren 337
s-@@ 337
technologien 337
möchten 337
liches 337
den@@ 336
sehe 336
gefunden 336
bereit 334
suchen 333
völlig 333
nen 333
erschaffen 333
lebens@@ 332
schwierig 332
welt@@ 332
anzu@@ 332
aussehen 331
gene 331
ta@@ 331
theorie 331
legen 330
draußen 330
wei@@ 330
material 330
en-@@ 329
technik 329
anfangen 328
schritt 328
be 328
fest 328
reihe 327
tages 326
le 326
geworden 326
bist 326
markt 326
men 325
sen@@ 325
findet 325
1 325
jahrhundert 324
passieren 324
ni@@ 323
krieg 323
brachte 322
bücher 321
niemals 321
acht 320
wachsen 320
team 320
as 320
stimme 319
der@@ 319
ländern 319
beide 319
studenten 318
forschung 318
firma 318
gingen 317
kleines 317
glücklich 317
anzahl 316
situation 316
jemals 316
amerika 315
gemeinschaft 314
daraus 314
mensch 314
n 313
bekommt 313
miteinander 313
morgen 312
gruppen 312
tisch 312
nachdenken 311
on@@ 311
ck@@ 311
si@@ 311
fanden 311
aufgabe 311
hand@@ 311
erklären 311
schen 311
bekannt 311
unseres 310
me@@ 309
gegeben 308
kon@@ 308
gesch@@ 308
tatsache 308
verwendet 308
ens 308
egal 307
3 307
wahrheit 307
foto 307
schrieb 307
größten 307
l 307
gesundheit 307
gelernt 306
krankheit 305
gezeigt 305
d 305
5 304
geboren 304
karte 304
eln 303
oberfläche 303
ne@@ 302
leicht 301
kontrolle 301
sk@@ 301
weg@@ 300
mittel 300
gebracht 300
bare 300
gerät 299
hälfte 299
interessiert 299
zeit@@ 299
richtige 298
at@@ 298
bewusst 298
soziale 298
schlecht 297
rolle 296
sp@@ 296
stimmt 296
ts 296
allein 296
entfernt 296
geschrieben 295
vorstellung 294
umgebung 294
vortrag 294
lo@@ 293
städte 293
gebiet 293
ru@@ 292
erung 292
mi@@ 292
verbunden 292
grund@@ 291
kleiner 291
regeln 291
anstatt 290
systeme 289
schulen 289
chten 288
generation 288
veränderung 288
finde 288
kan@@ 288
benutzt 288
selbst@@ 288
meinung 288
jemanden 287
ding 287
erreicht 287
straße 286
ka@@ 286
mitte 286
bedeutung 286
meter 286
heutzutage 285
stark 285
u 285
pa@@ 285
aufzu@@ 284
einfache 284
fehler 284
ges 284
is 283
he@@ 283
pflanzen 283
offensichtlich 282
ku@@ 282
labor 282
freund 281
hoffe 281
links 281
revolution 281
absolut 281
mögen 281
komplett 281
bewegt 281
sicherheit 279
heraus@@ 279
25 279
machten 279
voll 278
ak@@ 278
lei@@ 278
beziehung 278
politik 278
einge@@ 277
mon@@ 277
blick 277
verloren 277
gekommen 277
bekam 277
versuche 277
dachten 276
cht 276
erzählt 275
zeige 275
da@@ 275
nacht 275
ha@@ 274
bilden 274
isches 274
fähigkeiten 274
tischen 273
spricht 273
haupt@@ 273
wann 273
tier 273
preis 273
nennt 272
rest 272
linie 272
men@@ 271
gi@@ 271
vereinigten 271
che 270
seiten 270
elle 270
gegenüber 270
tigen 270
v@@ 270
trotzdem 268
ansehen 268
folgen 268
th@@ 267
wieder@@ 267
tet 266
ständig 266
ges@@ 266
gel@@ 266
arbeitet 265
sofort 265
spiel@@ 265
testen 264
normalerweise 264
liegen 264
ber@@ 264
lieben 264
me 264
gesamte 263
sonst 263
gesicht 263
sonne 263
einzelne 263
wichtige 261
herausforderung 261
bei@@ 260
bar@@ 260
h 260
geschieht 260
ähnlich 260
sorgen 260
studie 260
fangen 260
statt 259
gewinnen 259
sicht 259
wer@@ 258
ene 258
hei@@ 258
mo@@ 257
erfolg 257
rei@@ 257
hal@@ 257
aufge@@ 257
punkte 256
tiert 256
kom@@ 256
programm 256
mitgefühl 256
passierte 255
ch 255
ell 255
taten 254
fen 254
realität 254
begannen 254
information 254
na@@ 253
tier@@ 253
hoffnung 253
kannst 252
ergebnis 252
voller 252
alte 252
größer 251
entscheidungen 251
so@@ 251
bo@@ 251
monaten 251
mar@@ 250
tagen 250
einander 250
bevölkerung 250
sprach 250
möglichen 250
gearbeitet 249
hält 249
ben@@ 249
gemeinsam 249
aufmerksamkeit 249
na 249
denkt 249
spiele 249
übrigens 249
tische 249
deine 249
richtigen 249
bald 249
neu@@ 248
grenzen 248
ster 247
vergessen 247
schneller 246
spaß 246
vorher 246
überleben 245
langsam 245
verlieren 245
wussten 245
sobald 245
r 245
tod 244
länger 244
4 244
großer 244
et@@ 244
abzu@@ 243
weltweit 243
experiment 243
— 243
sitzen 242
nachrichten 242
einzu@@ 242
bewusstsein 242
zeiten 242
al 242
sahen 241
ebene 241
t-@@ 241
wesen 241
200 241
80 241
frei@@ 241
öl 241
außer 241
produkt 240
bestimmt 240
industrie 240
ö@@ 240
computer@@ 240
europa 240
orte 240
gutes 240
gesprochen 239
gestellt 239
fallen 239
künstler 238
nahmen 238
anschauen 238
ordnung 238
herauszufinden 238
beispiele 238
großes 238
wahl 238
ser@@ 237
lichkeit 237
beobachten 237
we@@ 237
du@@ 236
führte 236
gleichzeitig 235
evolution 235
medien 235
fa@@ 235
job 235
rück@@ 235
aussieht 234
gung 234
interessante 234
12 234
außerdem 234
tige 234
wieso 234
geschehen 234
us 233
wichtiger 233
messen 233
e-@@ 233
umwelt 232
gte 232
bessere 232
zweiten 232
man@@ 232
farbe 231
sozialen 231
zelle 230
medizin 230
arbeitete 230
bleibt 230
bestimmten 230
versuchte 230
fort@@ 230
baren 229
ke 229
gegangen 229
orten 229
handelt 229
sekunden 229
60 228
firmen 228
einzelnen 228
holen 228
po@@ 228
zentrum 228
demokratie 227
tausende 227
hab 227
lebt 227
mu@@ 227
sprachen 226
500 226
umwelt@@ 226
d-@@ 225
einfluss 225
zwei@@ 225
nachricht 225
methode 225
/ 225
gten 225
arm 225
konzept 224
laden 224
frei 224
krankheiten 224
arzt 224
amerikaner 224
all@@ 223
läuft 223
großartige 223
papier 223
entdecken 223
verbessern 223
designer 223
schaut 223
fällt 223
amerikanischen 223
chte 223
werte 223
rede 223
universität 223
warten 223
spezies 222
zustand 222
sowohl 222
elt 221
dadurch 221
cken 221
vi@@ 221
voll@@ 221
nenne 221
klein 221
dna 221
wi@@ 221
w@@ 221
ber 221
personen 221
to@@ 220
arbeits@@ 220
haut 220
dorf 220
wirklichkeit 220
befinden 220
versch@@ 220
innovation 219
nachzudenken 219
ers 219
klasse 219
nummer 219
wand 218
fahr@@ 218
do@@ 218
zumindest 218
zeug 218
toll 218
feld 218
vergangenheit 218
op@@ 217
david 217
dar@@ 217
strom 216
ung@@ 216
at 216
typ 215
fing 215
suche 215
prinzip 215
weiter@@ 215
werfen 214
is@@ 214
organisation 214
bühne 214
erlaubt 214
herstellen 213
grad 213
verlassen 213
monat 213
inter@@ 213
hinaus 213
mathematik 213
produzieren 213
solchen 213
of 212
version 211
bu@@ 211
fotos 211
menschheit 211
rechts 211
früher 211
j@@ 211
name 211
pro@@ 210
erzeugen 210
dritte 210
setzt 210
gründen 210
worte 210
ellen 210
tung 210
sche 209
stellten 209
behandlung 209
ft 209
diejenigen 209
gründe 209
aufgrund 209
ozean 209
gewalt 208
irgendwo 208
arbeite 208
interesse 208
heit 208
besch@@ 208
geist 208
el 208
dasselbe 208
stre@@ 207
artikel 207
neben 207
tig 207
tz@@ 207
spielt 207
befindet 207
fest@@ 207
super@@ 207
verstand 207
sammeln 206
unmöglich 206
materialien 206
ton 206
» 206
ff@@ 206
antworten 206
wa@@ 206
schüler 205
3@@ 205
entdeckt 205
welcher 205
google 205
18 205
verstanden 205
globalen 204
stunde 204
gefragt 204
öl@@ 204
studien 204
zugang 204
liste 204
traf 203
the 203
sohn 203
selben 203
betrachtet 202
entschieden 202
ler 202
innen 202
2@@ 202
test 202
geschäft 202
« 202
nahrung 202
naja 202
architektur 202
as@@ 202
mikro@@ 201
riesige 201
iert 201
wachstum 201
eben 201
f 201
6 201
ker 201
schicken 200
neun 200
leisten 200
gu@@ 200
ck 200
sinne 200
geschwindigkeit 200
produkte 199
geb@@ 199
lösungen 199
region 199
maschinen 199
hilft 199
leider 199
großartig 199
biologie 199
gang 199
familien 199
c@@ 199
fi@@ 198
kollegen 198
armut 198
himmel 198
zieren 197
entweder 197
eis 197
handeln 197
plan 196
ergebnisse 196
netz 196
tt@@ 196
versuch 196
treten 195
zunächst 195
verständnis 195
freiheit 195
ebenso 195
herum@@ 195
abge@@ 195
stimmen 195
extrem 195
zeigte 195
kaum 195
fällen 194
untersuchen 194
hört 194
enen 194
keiner 194
hiv 194
verbinden 194
8 194
million 193
per@@ 193
spitze 193
schlechte 192
erstens 192
br@@ 192
näher 192
bestimmte 192
beginn 192
vertrauen 192
ster@@ 191
drei@@ 191
ca. 191
deswegen 191
hörte 191
onen 191
tete 191
verkaufen 191
schönheit 191
sh@@ 191
energie@@ 190
ste@@ 190
hielt 190
ebenfalls 190
dein 190
pi@@ 190
bisher 190
gleich@@ 189
chance 189
uhr 189
raus 189
fertig 189
ms 189
entscheiden 189
wichtigste 189
bt 189
reaktion 189
kinder@@ 189
ß@@ 189
ermöglicht 189
ressourcen 189
hundert 188
herz 188
hände 188
bio@@ 188
objekt 188
bedingungen 188
fer@@ 188
komme 188
wider@@ 188
re 187
tiger 187
vier@@ 187
satz 187
außerhalb 187
land@@ 187
bakterien 186
lasst 186
kampf 186
körper@@ 186
meer 186
ner 186
ziert 186
lag 186
unglaubliche 186
retten 186
gesamten 186
lich@@ 185
mer 185
kamera 185
eigen@@ 185
projekte 185
getroffen 185
rechte 185
einfachen 185
drehen 185
kar@@ 185
rechten 185
dern 185
mittel@@ 185
ehrlich 184
ho@@ 184
ki@@ 184
kte 184
endlich 184
druck 184
a-@@ 184
dreht 184
steigen 184
verrückt 184
letztes 184
luft@@ 183
krankenhaus 183
genen 183
nehme 183
unterschiede 183
000 183
gend 183
är@@ 183
erzählte 183
ü@@ 182
erwarten 182
ja@@ 182
reichen 182
gesetz 182
groß@@ 182
war@@ 182
gel 182
kli@@ 182
zeitpunkt 181
armen 181
unterschiedliche 181
erfolgreich 181
bau 181
gehirn@@ 181
us-@@ 181
einzigen 181
km 181
90 181
eller 181
erklärt 180
wege 180
kl@@ 180
c 180
hen 180
ieren 180
pp@@ 180
än@@ 180
geschaffen 180
zeichen 179
erinnere 179
werk 179
lernte 179
eigenschaften 179
kunst@@ 179
leidenschaft 179
auge 179
ar 178
tions@@ 178
landes 178
fisch 178
ke@@ 178
rund 177
straßen 177
schützen 177
kten 177
strukturen 177
typen 177
software 177
zweitens 177
traum 177
gehe 177
erfahren 177
worten 177
su@@ 176
herausfinden 176
virus 176
tief@@ 176
freude 176
masse 176
john 175
hunderte 175
seines 175
ahnung 175
it@@ 175
ses 175
and 175
abend 174
englisch 174
ckt 174
schlagen 174
ot@@ 174
beziehungen 174
geräte 173
stische 173
bezug 173
us@@ 173
pu@@ 173
x 173
kern 173
osten 173
regel 173
westen 172
öffentlichen 172
netzwerk 172
finger 172
brauchte 172
tief 172
langen 172
gedacht 172
par@@ 172
cher 172
18@@ 171
produktion 171
tionen 171
erfunden 171
flugzeug 171
wohin 171
angefangen 171
konferenz 171
ließ 171
gehirns 171
auswirkungen 170
leistung 170
hängt 170
teten 170
bäume 170
leiden 170
globale 170
erleben 170
mehrere 170
geschah 169
auto@@ 169
desto 169
hinter@@ 169
sta@@ 169
verantwortung 169
z.b. 169
ern@@ 169
behandeln 169
fehl@@ 168
herz@@ 168
zug 168
erfahrungen 168
gende 168
gebe 168
sekunde 167
nahe 167
ärzte 167
seien 167
to 167
ts@@ 167
regierungen 167
trifft 167
karten 167
entschied 167
gesellschaften 167
wählen 166
echt 166
stecken 166
tem 166
farben 166
religion 166
weisen 166
genden 166
lie@@ 166
schließen 166
fe@@ 166
büro 166
gegen@@ 165
det 165
gesundheits@@ 165
weiss 165
tr@@ 165
ganzes 165
daten@@ 165
lief 165
chris 165
fragt 165
wichtigsten 165
er-@@ 165
raum@@ 165
fälle 165
runter 165
hinein 164
wohn@@ 164
kt@@ 164
medikamente 164
online 164
sicherlich 164
herzustellen 164
endes 164
verbindungen 164
bel@@ 164
jahrhunderts 164
gaben 164
tern 163
erstaunlich 163
fühlte 163
stattdessen 163
halte 163
öffnen 163
hey 163
geführt 163
ums 163
echte 163
cht@@ 163
neuronen 163
dr. 162
licht@@ 162
loch 162
jemandem 162
werkzeuge 162
fe 162
guter 162
größeren 162
kostet 162
län@@ 161
ismus 161
wunsch 161
waffen 161
fähig 161
äre 161
ig@@ 161
qu@@ 161
geschafft 161
konzentrieren 161
begonnen 161
y 161
veränderungen 161
jene 161
erstes 161
x@@ 161
herzen 161
größere 161
gefühle 160
kal@@ 160
wür@@ 160
tra@@ 160
spreche 160
produziert 160
schöne 160
fühlt 160
fuß 160
tochter 160
existiert 160
kilometer 160
ans 160
genutzt 159
verbringen 159
wenige 159
tri@@ 159
fluss 159
zei@@ 159
alität 159
höhe 159
4@@ 159
beeinflusst 159
verursacht 159
tür 158
komplexität 158
heutigen 158
freunden 158
infrastruktur 158
frühen 158
brot 158
spieler 158
wagen 157
organisationen 157
position 157
amerikanische 157
ir@@ 157
pri@@ 157
stein 157
qualität 157
reich 157
aktivität 157
flug@@ 156
vorbei 156
erzeugt 156
gra@@ 156
one 156
300 156
reisen 156
dung 156
folgendes 156
eigenes 156
fleisch 156
fühle 156
are 156
digen 156
ernst 156
fernsehen 156
dorthin 156
kommunikation 155
wörter 155
nächstes 155
unterstützen 155
wirtschafts@@ 155
stern 154
erlauben 154
fin@@ 154
mp@@ 154
pen@@ 154
führung 154
lu@@ 154
.@@ 153
linken 153
ad@@ 153
zusammenhang 153
funktion 153
ex@@ 153
16 153
physik 153
ften 153
kriegen 153
ment@@ 152
gewicht 152
end@@ 152
schw@@ 152
os 152
ze 152
äu@@ 152
tolle 152
stücke 152
ausdruck 152
sucht 152
ken@@ 152
gewebe 152
arme 152
elles 151
7 151
weiterhin 151
tten 151
begriff 151
nicht-@@ 151
somit 151
mor@@ 151
rate 151
entscheidung 151
kor@@ 151
museum 151
stoff 150
fenster 150
je@@ 150
stolz 150
roten 150
mars 150
kr@@ 150
zog 150
allerdings 150
kreativität 150
gelegenheit 150
steckt 149
quelle 149
hervor@@ 149
einzel@@ 149
gl@@ 149
losen 149
partner 149
sti@@ 149
wind 149
feuer 148
ausbildung 148
systems 148
klingt 148
materie 148
afghanistan 148
chen@@ 148
schluss 148
aufgenommen 148
ted-@@ 148
schü@@ 147
city 147
go@@ 147
por@@ 147
ine 147
vergleich 147
trotz 147
scher 147
sex 147
bin@@ 147
zimmer 147
entstehen 147
hr@@ 147
benötigt 147
hu@@ 147
sch 147
wirst 147
hart 146
bestehen 146
beine 146
filme 146
har@@ 146
universums 146
sozusagen 146
botschaft 146
irgendwann 146
teil@@ 146
fische 146
habt 145
kraft@@ 145
band 145
nochmal 145
menschen@@ 145
selber 145
leid 145
sei@@ 145
scheinen 144
laut 144
soldaten 144
zieht 144
sterne 144
nähe 144
wahrscheinlichkeit 144
ober@@ 144
effekt 144
ender 144
einsatz 144
70 144
einfacher 144
sonnen@@ 144
san@@ 144
sodass 144
perspektive 144
vielfalt 143
kämpfen 143
darf 143
lautet 143
modelle 143
fläche 143
natürliche 143
politischen 143
großbritannien 143
co@@ 143
offen 143
baby 143
modernen 143
ton@@ 143
stra@@ 142
bildern 142
schlag 142
benötigen 142
videos 142
töten 142
for@@ 142
daß 142
weiteres 142
bezahlen 142
frieden 142
bitten 142
politische 142
investieren 141
aufgaben 141
gkeit 141
dagegen 141
ds 141
kontrollieren 141
städten 141
ju@@ 141
erforschen 141
haufen 141
verfügung 141
natur@@ 141
schätzen 141
sal@@ 140
berg 140
mü@@ 140
steigt 140
vermutlich 140
tion@@ 140
dritten 140
einkommen 140
kunden 140
fortschritt 140
schaft 140
gilt 140
bra@@ 140
sparen 140
treiben 140
mal@@ 140
gesetze 140
kenne 140
räume 140
erinnert 140
ansatz 139
dennoch 139
kräfte 139
männern 139
senden 139
code 139
wissenschaftliche 139
werkzeug 139
mond 139
weiteren 139
schutz@@ 139
ol@@ 139
ändert 139
staat 139
sitzt 139
aler 139
mögliche 139
lehr@@ 138
fü@@ 138
folge 138
objekte 138
wand@@ 138
lose 138
schafft 138
vollkommen 138
verkauft 138
fort 138
intelligenz 138
ess@@ 138
london 138
zuhause 138
organismen 138
starb 137
vollständig 137
ation 137
sam@@ 137
hinein@@ 137
20. 137
brechen 137
bewegungen 137
wesentlichen 137
om@@ 137
schutz 137
lö@@ 137
perfekt 137
welchen 137
verfolgen 137
verdienen 137
dr@@ 136
entwickelten 136
ba@@ 136
gestern 136
entlang 136
kontakt 136
methoden 136
em@@ 136
titel 136
problemen 136
kurzem 136
entwerfen 136
wiederum 136
flu@@ 136
hirn@@ 136
son 136
kur@@ 136
reagieren 136
krise 136
prä@@ 136
gewonnen 136
teilchen 136
richard 136
tausend 136
behalten 136
risiko 135
len 135
besitzen 135
oren 135
ließen 135
im@@ 135
ze@@ 135
steuern 135
beschäftigt 135
atmosphäre 135
phänomen 135
volle 135
moleküle 135
and@@ 135
cool 135
fragten 135
ermöglichen 135
ien 135
möglicherweise 135
saß 135
ker@@ 135
durchgeführt 135
ma 135
p 135
gestalten 134
dieselbe 134
herausgefunden 134
mission 134
gemeinde 134
ah 134
k-@@ 134
behandelt 134
mer@@ 134
grenze 134
unbedingt 134
s. 134
str@@ 134
meistens 134
wächst 134
riesigen 134
beschreiben 134
eis@@ 133
lebte 133
lachen 133
11 133
fuhr 133
vision 133
ph@@ 132
schwester 132
hä@@ 132
hergestellt 132
wirkung 132
basis 132
zufällig 132
veröffentlicht 132
hü@@ 132
unterschiedlichen 132
wahre 132
nieder@@ 132
arbeiter 132
lass 131
elemente 131
gelangen 131
19@@ 131
zeichnen 131
v 131
kern@@ 131
win@@ 131
woher 131
davor 131
hauptsächlich 131
setzte 131
milliarde 131
hoffentlich 131
9 130
barkeit 130
letztendlich 130
gefängnis 130
familien@@ 130
zen@@ 130
drittel 130
unterstützung 130
wunderbare 130
emp@@ 130
gehalten 130
del@@ 130
kommunizieren 130
mütter 130
lichsten 130
atom@@ 130
schi@@ 130
kennt 130
ären 129
meilen 129
wuchs 129
lern@@ 129
deutlich 129
basiert 129
pe@@ 129
rein 129
temperatur 129
jahres 129
irgendetwas 129
wohl@@ 129
tre@@ 129
stufe 129
dauert 129
buchstäblich 128
laufe 128
falsche 128
themen 128
tierte 128
trag@@ 128
umgehen 128
bett 128
reicht 128
sommer 128
erstellen 128
dahin 128
los@@ 128
insekten 128
worüber 128
tzen 128
kreis 128
experimente 128
ameisen 128
gesetzt 127
stischen 127
anti@@ 127
jungs 127
verbracht 127
lebten 127
hohe 127
schwarze 127
klimawandel 127
massen@@ 127
baum 127
wunderbar 127
mt 127
kurze 127
14 127
ei 127
wert@@ 127
weder 127
nt 126
wo@@ 126
see 126
berei@@ 126
cke 126
lauf 126
ßen 126
heben 126
fach@@ 126
beeinflussen 126
aufnahme 126
zt 126
bürger 126
scht 126
hohen 126
ecke 126
übertragen 126
täglich 126
zusammenarbeit 126
begeistert 126
präsident 126
sinn@@ 125
entwickelte 125
fu@@ 125
erin 125
hund 125
häuser 125
erzähle 125
lau@@ 125
karriere 125
gelöst 125
erwartet 125
viren 125
pf@@ 125
brauche 125
chs 125
wal@@ 125
tan@@ 125
gest@@ 124
wandel 124
zell@@ 124
geburt 124
sieren 124
ul@@ 124
meeres@@ 124
alleine 124
haft 124
verantwortlich 124
forscher 124
großteil 124
blu@@ 124
knochen 124
dro@@ 123
entsteht 123
gewissen 123
morgens 123
aufhören 123
kümmern 123
hn@@ 123
gedanke 123
y-@@ 123
film@@ 123
haus@@ 123
nannte 123
mis@@ 123
brachten 122
opfer 122
ban@@ 122
könnt 122
handel 122
gefahr 122
ziele 122
verhindern 122
versuchten 122
bildschirm 122
neuer 122
400 122
jobs 122
2000 122
lin@@ 122
betrifft 122
schwimmen 122
experten 122
rücken 122
the@@ 121
erster 121
buch@@ 121
normale 121
rief 121
blut 121
zählen 121
lernt 121
il@@ 121
herr 121
zogen 121
ktion 121
mitten 121
elten 121
verbreitet 121
wow 121
getötet 120
gsten 120
tiefe 120
besseren 120
lä@@ 120
vergleichen 120
des@@ 120
ser 120
normalen 120
passt 120
wel@@ 120
wisst 120
aktiv 120
schla@@ 120
24 120
lieber 120
eu@@ 120
ell@@ 120
japan 120
sin@@ 119
klang 119
ht 119
car@@ 119
vorteil 119
wissenschaftlichen 119
augen@@ 119
wunder@@ 119
legt 119
sozial@@ 119
or 119
bal@@ 119
mengen 119
vögel 119
nutz@@ 119
aids 119
anderem 119
werbung 119
zeitalter 119
kin@@ 119
ran@@ 119
überzeugen 118
passen 118
tue 118
hintergrund 118
raus@@ 118
klein@@ 118
kontext 118
ähnliche 118
offen@@ 118
lebewesen 118
per 118
babys 118
verlangen 118
praktisch 118
total 118
interessieren 117
gebiete 117
standen 117
kalifornien 117
linien 117
spezi@@ 117
relativ 117
arbeiteten 117
kürzlich 117
erstaunliche 117
bemerkt 117
bur@@ 117
mel@@ 117
affen 117
gehabt 117
igen 117
führten 117
stellung 117
bereiche 117
bl@@ 117
landwirtschaft 117
uner@@ 116
existieren 116
vollen 116
hinweg 116
no@@ 116
fährt 116
strei@@ 116
enten 116
erkannte 116
rein@@ 116
13 116
hel@@ 116
markt@@ 116
stisch 116
rau@@ 116
sauerstoff 116
washington 116
ing@@ 116
werten 116
schei@@ 116
brauchten 116
inneren 116
gefähr@@ 116
fiel 116
überzeugt 116
leben@@ 115
5@@ 115
cher@@ 115
gehirne 115
fängt 115
eure 115
pan@@ 115
nation 115
ales 115
träume 115
mm@@ 115
dar 115
moderne 115
tischer 115
geschickt 115
starke 115
irak 115
sub@@ 115
insel 115
weißen 115
geln 115
schnitt 115
überrascht 114
fuß@@ 114
bietet 114
bauern 114
galaxien 114
schaute 114
schönen 114
son@@ 114
finanz@@ 114
verschwinden 114
raten 114
trägt 114
weile 114
normal 114
forschungs@@ 114
gelassen 114
grün 114
drin 114
bild@@ 114
siert 113
glaubt 113
ner@@ 113
tau@@ 113
seitdem 113
aten 113
weißt 113
ansicht 113
10.000 113
wahl@@ 113
stell@@ 113
erhält 113
interagieren 113
älter 113
wirk@@ 113
malen 113
genauer 113
bauten 113
fol@@ 113
gestorben 113
rätsel 113
schmerz 112
pal@@ 112
komplexe 112
annehmen 112
bildungs@@ 112
9@@ 112
gelesen 112
san 112
verwandeln 112
erfinden 112
mehr@@ 112
ches 112
starten 112
sowie 112
bri@@ 112
sel 112
mindestens 112
drüben 112
bezahlt 112
händen 112
tu@@ 112
hi@@ 112
it 112
bedeuten 112
meiste 112
herausforderungen 112
sau@@ 111
null 111
dis@@ 111
cker 111
unterscheiden 111
gespräch 111
operation 111
verbreiten 111
bekamen 111
35 111
gehören 111
institutionen 111
wahrnehmung 111
kulturen 111
musst 111
$ 111
bloß 111
leiten 111
minute 111
les@@ 111
deinen 111
park 111
schwer@@ 111
gefährlich 111
ppen 110
echten 110
lan@@ 110
heisst 110
garten 110
märkte 110
paul 110
dürfen 110
unternehmer 110
150 110
gezogen 110
erscheinen 110
anwenden 110
abhängig 110
stei@@ 110
aufnahmen 110
traditionellen 110
körpers 110
wirken 110
co2 110
he 110
einheit 110
stein@@ 109
schlimmer 109
netzwerke 109
zier@@ 109
schlüssel 109
öffentliche 109
erkenntnis 109
versorgung 109
bürger@@ 109
ß 109
eingesetzt 109
emotionen 109
einsetzen 109
mittleren 109
krank 109
bre@@ 109
hängen 109
fä@@ 108
richten 108
mach 108
details 108
stri@@ 108
7@@ 108
fantastisch 108
landschaft 108
sor@@ 108
gefahren 108
bieten 108
arbeit@@ 108
lauf@@ 108
bank 108
fisch@@ 108
grundlegende 108
aller@@ 108
bedarf 108
bares 108
dach 108
wunder 108
entdeckung 108
ehe@@ 108
einiger 108
regionen 108
geld@@ 108
patient 108
rahmen 108
deten 108
wor@@ 108
las 108
professor 107
wenden 107
schuhe 107
angenommen 107
gegenteil 107
bil@@ 107
westlichen 107
99 107
nen@@ 107
boot 107
kurzen 107
spielte 107
schlechten 107
wald 107
dete 107
bat 107
strategie 107
wichtigen 107
rechts@@ 107
wenigen 107
eindruck 106
bereichen 106
6@@ 106
wen 106
häufig 106
fte 106
nachbarn 106
polizei 106
ft@@ 106
holz 106
notwendig 106
rote 106
gelegt 106
maus 106
ige 106
gei@@ 106
blau 106
identität 106
sprach@@ 106
ani@@ 106
besondere 106
selten 106
gegensatz 106
öffentlichkeit 106
september 106
kü@@ 106
bung 106
tsch@@ 105
lang@@ 105
gegend 105
verhältnis 105
sand@@ 105
charles 105
my@@ 105
lehren 105
national 105
zerstören 105
mund 105
fernseh@@ 105
streben 105
bienen 105
nationen 105
chtet 105
jo@@ 105
soviel 105
bill 105
len@@ 105
gewisse 105
bestimmen 105
handy 105
kurs 105
zeitung 105
natürlichen 105
hoffen 105
graben 104
stoff@@ 104
lieblings@@ 104
gespielt 104
wechseln 104
früh 104
beantworten 104
solch 104
studieren 104
pla@@ 104
schien 104
fahrer 104
erklärung 104
rat 104
schwarzen 104
erter 104
planet 104
lager 104
küste 104
individuen 104
dinosaurier 104
stammt 104
ckte 104
programme 104
charakter 104
teilt 104
teuer 104
ach@@ 104
gem 104
fer 104
aspekt 104
höher 104
nutzt 104
ologen 104
abschluss 104
schau@@ 103
halt 103
erscheint 103
entspricht 103
ant@@ 103
kerl 103
denk@@ 103
verfügbar 103
times 103
grünen 103
durchschnittliche 103
sand 103
entstanden 103
verbrachte 103
ing-@@ 103
unterricht 103
dra@@ 103
vorfahren 103
glas 103
grundsätzlich 103
augenblick 103
rufen 103
signale 103
tal@@ 103
website 103
zerstört 102
regen@@ 102
baut 102
süd@@ 102
angesehen 102
genom 102
fabrik 102
ga@@ 102
tro@@ 102
ac@@ 102
rot 102
nah 102
beweise 102
ren 102
generationen 102
staat@@ 102
quasi 102
hallo 102
berührt 102
iger 102
inspiriert 102
fördern 102
bestand 102
haltung 102
form@@ 102
ag@@ 102
fun@@ 102
blatt 102
england 102
trinken 102
alisiert 102
fr@@ 102
usw. 102
kam@@ 102
folie 101
müsste 101
entworfen 101
college 101
20@@ 101
unge@@ 101
ie@@ 101
hinsicht 101
entwicklungs@@ 101
1@@ 101
halbe 101
mil@@ 101
beschlossen 101
sten@@ 101
fall@@ 101
fl@@ 101
diagramm 101
elektro@@ 101
konflikt 101
erungen 101
elte 101
17 101
gefallen 101
recht@@ 101
viel@@ 101
komplex 101
geändert 101
architekten 101
schicht 101
ach 100
star@@ 100
aufbauen 100
dran 100
gäbe 100
nä@@ 100
aufregend 100
gebeten 100
norden 100
gefällt 100
quellen 100
wind@@ 100
definieren 100
afrikanischen 100
solar@@ 100
elektrizität 100
600 100
weiße 100
video@@ 100
stuhl 100
wirtschaftlichen 99
show 99
tausenden 99
richtungen 99
tel@@ 99
phase 99
geo@@ 99
beobachtet 99
falten 99
unterrichten 99
ob@@ 99
george 99
bis@@ 99
sicherheits@@ 99
blieb 99
verbindet 99
regen 99
drücken 99
verbessert 99
inhalt 99
faktor 99
web 99
gs 99
müll 99
hö@@ 99
definition 99
kindheit 98
kochen 98
sä@@ 98
schaden 98
aufgebaut 98
verfahren 98
spüren 98
erlebt 98
viertel 98
min@@ 98
trau@@ 98
gar@@ 98
herren 98
verteilt 98
reduzieren 98
potential 98
fern@@ 98
tö@@ 98
statistiken 98
vermitteln 98
atmen 98
nor@@ 98
w 98
g-@@ 98
male 98
motor 98
strom@@ 98
ters 98
ität 97
tä@@ 97
ernährung 97
asien 97
langer 97
lektion 97
dig 97
kampagne 97
blauen 97
dlich 97
achse 97
hrt 97
fal@@ 97
tur@@ 97
wirtschaftliche 97
ate 97
bruder 97
digitalen 97
tests 97
lagen 97
bes@@ 97
5.000 97
bende 97
ss 97
theater 97
ssen 96
level 96
mexiko 96
leb@@ 96
erende 96
lustig 96
seltsam 96
führer 96
wobei 96
erd@@ 96
facebook 96
junger 96
druck@@ 96
medizinische 96
tot 96
derzeit 96
school 96
wesentlich 96
rie@@ 96
o-@@ 96
grosse 96
prakti@@ 96
gemeinden 96
politiker 96
geschäfts@@ 96
persönlich 96
berichten 96
wu@@ 96
nützlich 96
wen@@ 96
entdeckte 96
stes 96
online-@@ 95
helden 95
folgt 95
korruption 95
beinahe 95
flü@@ 95
ks 95
achten 95
dunkle 95
früh@@ 95
nord@@ 95
damen 95
mess@@ 95
baute 95
medikament 95
gas@@ 95
erfindung 95
zweck 95
gender 95
stoßen 95
beweisen 95
dischen 95
herunter@@ 95
gew@@ 95
tungen 95
kompliziert 95
don@@ 95
feststellen 95
verlust 95
einrichtungen 95
sätze 95
erwähnt 95
aren 94
ras@@ 94
bein 94
lediglich 94
chter@@ 94
momente 94
vorstellungen 94
nis@@ 94
pfen 94
plan@@ 94
unbe@@ 94
ka 94
krebs@@ 94
ente 94
wüste 94
45 94
gan@@ 94
hör@@ 94
kriege 94
michael 94
persönlichen 94
tze 94
hl@@ 94
heißen 94
james 94
heiten 94
erstellt 94
persönliche 94
nutzung 94
mitarbeiter 94
schlafen 94
gesundheitswesen 94
unterstützt 94
klima@@ 94
cks 94
lied 94
zte 93
stan@@ 93
digitale 93
bedürfnisse 93
kriegs@@ 93
ersetzen 93
faktoren 93
nötig 93
metapher 93
nachts 93
anteil 93
präsentation 93
enorme 93
tiven 93
grüne 93
spiegel 93
springen 93
sowas 93
selbstverständlich 93
rollen 93
fischen 93
dige 93
überlegen 93
ur 93
maßstab 93
2008 93
bildet 93
löcher 93
bekannten 93
vorne 93
großmutter 93
unabhängig 93
ver 93
schrecklich 93
galaxie 93
außen 92
webseite 92
übrig 92
iran 92
wettbewerb 92
menschlicher 92
wä@@ 92
liebte 92
geheimnis 92
fern 92
mitglieder 92
moralische 92
beweis 92
molekül 92
effektiv 92
wofür 92
büchern 92
afrikas 92
ide@@ 92
1,@@ 92
seht 92
innere 92
zauber@@ 92
kaffee 92
nete 92
bro@@ 92
herr@@ 92
tauchen 92
brücke 92
inen 92
besuchen 92
freundin 92
tiges 92
eli@@ 92
bogen 91
teste 91
ball 91
halb 91
schimpansen 91
ons 91
grafik 91
gebraucht 91
stärker 91
beschloss 91
fas@@ 91
zuhören 91
gramm 91
tzt 91
einstein 91
zä@@ 91
ßt 91
lokalen 91
fri@@ 91
beinhaltet 91
mach@@ 91
kra@@ 91
fo@@ 91
kopf@@ 91
australien 91
situationen 91
ologie 91
kö@@ 91
verkehr 91
witz 91
jedenfalls 91
maß@@ 91
singen 91
sto@@ 91
fahrt 91
hinzu@@ 91
irgendjemand 90
chern 90
wellen 90
ha 90
wirkliche 90
nden 90
sektor 90
lichem 90
strahlung 90
wieviel 90
hinten 90
gas 90
stü@@ 90
verteilung 90
zahn@@ 90
samen 90
ruf 90
gras 90
versteht 90
proben 90
bus 90
schalten 90
gesichter 90
erwachsene 90
gesund 90
erkennt 90
schen@@ 90
folgende 90
ley 90
wechsel@@ 90
sitz 90
neuro@@ 90
stärke 90
malaria 90
nigeria 90
fli@@ 90
internet@@ 90
ang@@ 90
telefon 90
ür@@ 90
kreieren 89
forsch@@ 89
text 89
sie@@ 89
brach 89
tt 89
hörten 89
hy@@ 89
barer 89
hau@@ 89
mutter@@ 89
jährigen 89
ungsk@@ 89
hen@@ 89
chemikalien 89
süden 89
schwierigkeiten 89
züge 89
dor@@ 89
1.@@ 89
anwendung 89
grün@@ 89
21. 89
ausmaß 88
prinzipien 88
analyse 88
kul@@ 88
grossen 88
multi@@ 88
meist 88
internationalen 88
schlechter 88
bekomme 88
höre 88
unfall 88
schritte 88
zitat 88
geräusch 88
überraschend 88
anhand 88
beispielsweise 88
sicht@@ 88
kop@@ 88
allgemeinen 88
far@@ 88
freien 88
aufzubauen 88
chti@@ 88
stoffen 88
unterhaltung 88
rennen 88
alisieren 88
entstand 88
für@@ 88
kannte 88
auen 88
einiges 88
ierte 88
diskussion 88
stu@@ 87
han@@ 87
telefon@@ 87
rechnen 87
innen@@ 87
jährige 87
untersuchung 87
seh@@ 87
gebieten 87
voraus@@ 87
dauerte 87
solange 87
speziellen 87
gekauft 87
chemie 87
ven@@ 87
füllen 87
vorhersagen 87
wirkt 87
gh@@ 87
setzten 87
ohren 87
erkannt 87
schuld 87
fel@@ 87
willst 87
müll@@ 87
schauten 87
versagen 87
gegründet 87
hielten 87
0ern 87
kenia 87
fassen 87
element 87
dün@@ 86
interessantes 86
ppe 86
ren@@ 86
pr@@ 86
sam 86
serie 86
greifen 86
anischen 86
anfing 86
blase 86
gie 86
vertraut 86
dan@@ 86
todes@@ 86
zähne 86
verbreitung 86
bedenken 86
untersucht 86
pfund 86
schrift 86
vorzustellen 86
israel 86
saal 86
tel 86
flug 86
tasche 86
positive 86
hnen 86
unglaublichen 86
umge@@ 86
nte 86
kurve 86
sse 86
zivilisation 86
blut@@ 86
mut 86
anstelle 86
gegenwart 86
station 86
ozeane 86
kapital 85
vorhanden 85
genetische 85
75 85
unterschiedlich 85
här@@ 85
woran 85
stammzellen 85
heran@@ 85
verstehe 85
südafrika 85
digt 85
bemerken 85
geräusche 85
klar@@ 85
bahn 85
deutschland 85
gelebt 85
solcher 85
medizin@@ 85
grundlage 85
erwachsenen 85
freund@@ 85
els 85
holz@@ 85
kirche 85
stehe 85
äußerst 85
kle@@ 85
glück@@ 85
wikipedia 85
bezüglich 85
lichste 85
studio 85
gemeinsame 85
weltweiten 85
heim@@ 85
kombination 85
not@@ 85
toten 85
nicht@@ 84
flasche 84
hren 84
darwin 84
gemeinschaften 84
wein@@ 84
2007 84
ent 84
glas@@ 84
kapitel 84
fra@@ 84
vieles 84
willen 84
sat@@ 84
mus 84
center 84
resultat 84
beschäftigen 84
absicht 84
entfernen 84
ausstellung 84
kanada 84
geschenk 84
schreibt 84
stoffe 84
entwicklungsländern 84
kti@@ 84
gän@@ 84
meinte 84
freie 84
momentan 84
müssten 84
spro@@ 84
pfer@@ 84
hierher 84
zeichnung 84
tonnen 84
kat@@ 84
aufnehmen 84
dna-@@ 84
aufs 83
nu@@ 83
halb@@ 83
theit 83
tin 83
beibringen 83
änderungen 83
risiken 83
mitglied 83
tanzen 83
proteine 83
hän@@ 83
inzwischen 83
einfaches 83
religionen 83
19. 83
zus@@ 83
welchem 83
dan 83
nase 83
brust 83
tumor 83
menschliches 83
ll@@ 83
ys 83
tiv 83
alismus 83
medi@@ 83
konzentriert 83
werke 83
felder 83
zucker 83
nah@@ 83
nasa 83
seid 83
plastik 83
dienst 83
lebe 83
wovon 83
8@@ 83
kä@@ 83
gegenseitig 83
fingen 83
akzeptieren 83
zung 83
tungs@@ 83
liefern 83
steve 83
schlüssel@@ 83
zugänglich 83
kleidung 83
ette 83
glaubte 83
hafte 82
che@@ 82
indi@@ 82
big 82
instrument 82
blo@@ 82
psychologie 82
schwieriger 82
weiterer 82
fach 82
merken 82
brasilien 82
hinzu 82
vermeiden 82
erweitern 82
soweit 82
status 82
twitter 82
besessen 82
automatisch 82
fasziniert 82
erhöhen 82
geholfen 82
teams 82
blei@@ 82
pinguine 82
arbei@@ 82
person@@ 82
thomas 82
signal 82
trat 82
schiff 82
physiker 82
schönes 82
tanz 82
dichte 82
lieren 82
ausgeben 82
glücklicherweise 81
positiv 81
stag 81
annahme 81
ße 81
manchen 81
zierte 81
lehre 81
autor 81
rat@@ 81
lebensmittel 81
insbesondere 81
übernehmen 81
sches 81
chinesische 81
mä@@ 81
durchführen 81
schmerzen 81
anten 81
schneiden 81
schatten 81
froh 81
sorge 81
gr@@ 81
drucken 81
wünschte 81
schl@@ 81
besitzt 81
faszinierend 81
las@@ 81
spr@@ 81
dieselben 81
darunter 81
aufre@@ 81
schn@@ 81
fakten 81
chung 81
ant 81
golf 81
mittels 81
zierten 81
darstellen 81
verlauf 81
realen 81
risiko@@ 80
marke 80
rü@@ 80
durchschnitt 80
zunehmen 80
fehlt 80
betrieben 80
100.000 80
debatte 80
stand@@ 80
tradition 80
netz@@ 80
existenz 80
nett 80
internationale 80
elektrische 80
irgendeine 80
schließt 80
ig 80
kontrolliert 80
eng@@ 80
tritt 80
ehr@@ 80
effizienz 80
ernsthaft 80
laptop 80
glücklicher 80
kontinent 80
ali@@ 80
algorithmen 80
ank@@ 80
zweimal 80
haften 80
regierungs@@ 80
blicken 80
zurückzu@@ 80
fürs 79
noten 79
bericht 79
berg@@ 79
verwandelt 79
kabel 79
mittlerweile 79
welten 79
besseres 79
regi@@ 79
literatur 79
konsequenzen 79
aussage 79
heim 79
neten 79
tag@@ 79
dene 79
mehrheit 79
außen@@ 79
1.000 79
fortschritte 79
überwinden 79
leiter 79
enz 79
spektrum 79
perfekte 79
wirft 79
erlebnis 79
gebäuden 79
wohlstand 79
gefangen 79
interaktion 79
fan@@ 79
folgenden 79
high 79
student 79
digung 79
stieg 79
therapie 79
organisieren 79
dimensionen 79
gens 79
komm 79
veränderte 79
lasse 78
kaufte 78
verbrechen 78
führ@@ 78
gewinn 78
dische 78
schau 78
beenden 78
restaurant 78
worauf 78
musik@@ 78
arm@@ 78
ergibt 78
enthält 78
aufgewachsen 78
hunde 78
lächeln 78
lig 78
ausgaben 78
unteren 78
kugel 78
test@@ 78
seltsame 78
besagt 78
armee 78
hof 78
hervor 78
ta 78
ingenieure 78
voraus 78
ursprünglich 78
gebrochen 78
nis 78
straßen@@ 78
tiefen 78
blaue 78
moral 78
motor@@ 78
sichtbar 78
großartigen 78
fantastische 78
11. 78
abstra@@ 78
nahrungs@@ 78
za@@ 78
lügen 77
fen@@ 77
tigkeit 77
vorbei@@ 77
worum 77
organe 77
ertes 77
wir@@ 77
nar@@ 77
medizinischen 77
musiker 77
tab@@ 77
leuchten 77
enorm 77
lebenden 77
pakistan 77
zusätzlich 77
jener 77
graphie 77
mitteln 77
geschäfte 77
volk 77
tot@@ 77
gespräche 77
niedri@@ 77
jung 77
behaupten 77
tja 77
gemeinsamen 77
spen@@ 77
anz 77
starben 77
kap@@ 77
bli@@ 77
entfernung 77
ca@@ 77
epidemie 77
spät 77
tü@@ 76
ähnlichen 76
auseinander 76
schäd@@ 76
funktionierte 76
gewisser 76
betreiben 76
fünf@@ 76
verschmutzung 76
macht@@ 76
farb@@ 76
dauern 76
university 76
ther@@ 76
nachgedacht 76
ffen 76
vogel 76
waffe 76
gottes 76
wahrnehmen 76
chancen 76
west@@ 76
lichkeiten 76
lt 76
zü@@ 76
liert 76
ss@@ 76
afrikaner 76
magie 76
fokus 76
darstellung 76
chaos 76
böse 76
diger 76
bor@@ 76
nde 76
vorzu@@ 76
pas@@ 76
flo@@ 76
zo@@ 76
unver@@ 76
vierte 76
robert 75
hunger 75
räumen 75
enthalten 75
gedicht 75
gewählt 75
tor@@ 75
chter 75
medium 75
anschaut 75
zit@@ 75
sche@@ 75
pferd 75
10@@ 75
zeigten 75
vorher@@ 75
änderung 75
besorgt 75
leistungs@@ 75
einstellung 75
kri@@ 75
genetischen 75
designs 75
liefer@@ 75
bas@@ 75
ve@@ 75
weshalb 75
gesamt@@ 75
krieges 75
national@@ 75
zes 75
sü@@ 75
systemen 75
mau@@ 75
küche 75
branche 75
bibel 75
mikroben 75
büro@@ 75
alternative 75
diert 75
buchstaben 75
zehn@@ 75
derer 74
aktion 74
ökosystem 74
sozi@@ 74
mathematiker 74
wenigstens 74
kameras 74
spar@@ 74
wissenschaften 74
feiern 74
mischen 74
ansieht 74
preise 74
nachzu@@ 74
schu@@ 74
herstellung 74
zahl@@ 74
world 74
ris@@ 74
träumen 74
gro@@ 74
nahen 74
angeht 74
dungen 74
kostenlos 74
gs@@ 74
steine 74
vielmehr 74
programmieren 74
eingeladen 74
igkeit 74
lokale 74
rand 74
francisco 74
x-@@ 74
kümmert 74
sende 74
starken 74
wurzeln 74
gerechtigkeit 74
blau@@ 74
etc. 74
bot@@ 74
üb@@ 74
innovationen 74
schä@@ 74
aufgeregt 74
gemälde 74
ehe 74
höhere 74
chinesen 74
anische 74
lebende 74
indischen 74
milch 74
inspiration 74
landen 74
stil 74
tz 73
tisches 73
potenzial 73
llen 73
verhaltens@@ 73
ven 73
legte 73
bank@@ 73
spuren 73
aktivitäten 73
demo@@ 73
inseln 73
bibliothek 73
zeich@@ 73
verglichen 73
blumen 73
youtube 73
reduziert 73
vorteile 73
männchen 73
katastrophe 73
verschwunden 73
ischem 73
ägypten 73
seele 73
magne@@ 73
ereignis 73
weisheit 73
wechsel 73
b. 73
heits@@ 73
sport 73
ereignisse 73
nten 73
fügen 73
seln 73
miss@@ 73
schaften 73
fis@@ 73
tex@@ 73
computern 73
decken 73
teren 73
pul@@ 73
beschrieben 73
deck@@ 73
stän@@ 73
är 73
fein@@ 73
din@@ 73
entdeckungen 73
zerstörung 73
2010 73
letzter 73
älteren 73
cm 73
sonder@@ 73
bemerkte 73
schwarz 73
vorbereitet 73
hinzufügen 72
bedrohung 72
on-@@ 72
konta@@ 72
brust@@ 72
dargestellt 72
oten 72
resultate 72
kulturelle 72
eindeutig 72
harvard 72
teufel 72
könig 72
verliert 72
hinterlassen 72
womit 72
voneinander 72
leg@@ 72
ik 72
wichtiges 72
hil@@ 72
ast 72
langsamer 72
mitnehmen 72
boston 72
nung 72
winter 72
sport@@ 72
lebendig 72
schlägt 72
beachten 72
vermögen 72
metern 72
fre@@ 72
2005 72
scheinbar 72
arabischen 72
roll@@ 72
feuer@@ 72
pen 72
schwierige 72
neben@@ 72
niveau 72
gesammelt 72
trafen 72
ling 72
geschlagen 72
wahr@@ 72
schlug 72
haie 72
jahrzehnt 72
genügend 72
wär@@ 72
verursachen 71
schießen 71
art. 71
nebenbei 71
suchte 71
mächtig 71
spiegel@@ 71
nahme 71
sechs@@ 71
stin 71
probe 71
hlen 71
geber 71
kre@@ 71
wem 71
funktionen 71
wärme 71
gleichung 71
darstellt 71
stahl 71
verfolgt 71
mensch@@ 71
ün@@ 71
interessanter 71
umfeld 71
island 71
dü@@ 71
ähnliches 71
zer 71
schweden 71
anti-@@ 71
mangel 71
grundlegenden 71
ca 71
gemein@@ 71
aspekte 71
schild 71
islam 71
eingeführt 71
schichten 71
jahrzehnten 71
erinnerung 71
militär@@ 71
gener@@ 71
basierend 71
acht@@ 71
hm 71
paris 71
schrieben 71
erhielt 71
drogen 71
mama 71
informations@@ 71
investitionen 71
enz@@ 71
koordin@@ 71
instrumente 71
pat@@ 70
zufrieden 70
techniken 70
respekt 70
stift 70
3d-@@ 70
rö@@ 70
gien 70
skraft 70
live 70
winzig 70
kel 70
dynamik 70
täuschung 70
mas@@ 70
bewohner 70
pel 70
funk@@ 70
17@@ 70
bein@@ 70
bricht 70
erforscht 70
doppelt 70
zufall 70
kla@@ 70
anscheinend 70
kun@@ 70
beschreibt 70
gewe@@ 70
dien@@ 70
komponenten 70
anstieg 70
planen 70
ologe 70
liefert 70
stro@@ 70
co 70
fliege 70
dh 70
ältere 70
fliegt 70
wolken 70
teilweise 70
dat@@ 70
pra@@ 70
ford 70
anwendungen 70
teure 70
jahr@@ 70
obje@@ 70
biologische 70
ed@@ 70
bru@@ 70
schwarz@@ 70
berechnen 70
drittens 70
begrenzt 70
ausrüstung 70
produ@@ 70
flächen 70
regel@@ 70
schrei@@ 69
ppt 69
presse 69
geteilt 69
gericht 69
haup@@ 69
operationen 69
tru@@ 69
erkrankungen 69
berühren 69
überraschung 69
derselben 69
militär 69
bü@@ 69
echtzeit 69
stadt@@ 69
geburtstag 69
ziel@@ 69
flügel 69
eigenschaft 69
schicksal 69
privat@@ 69
neuigkeiten 69
ori@@ 69
wände 69
visuelle 69
anzusehen 69
kohle 69
machst 69
sel@@ 69
antwortete 69
plattform 69
vorgang 69
betroffen 69
stet 69
fle@@ 69
bedeutete 69
mc@@ 69
benden 69
gesundheit@@ 69
fahrzeuge 69
umständen 69
tiefer 69
batterie 69
zusammenarbeiten 69
erhöht 69
welle 69
fehlen 69
isieren 69
log@@ 69
fla@@ 69
geleitet 69
auswahl 69
hotel 69
sonnenlicht 69
speziell 69
einfachheit 69
population 69
af@@ 69
definiert 69
deiner 69
berge 69
trick 68
aku@@ 68
kung 68
heu@@ 68
streiten 68
depression 68
hieß 68
artigen 68
ps 68
lenken 68
trieb 68
niemanden 68
king 68
kation 68
nationale 68
oni@@ 68
such@@ 68
weite 68
ergeben 68
ernähren 68
ursache 68
mes 68
brief 68
begegnen 68
ap@@ 68
bit@@ 68
besucht 68
rad 68
umgeben 68
moralischen 68
komplexen 68
scha@@ 68
nachbarschaft 68
stiftung 68
klo@@ 68
ära 68
zentrale 68
zusammenzu@@ 68
lung 68
box 68
cent 68
gste 68
meister@@ 68
hne 68
billionen 68
plastik@@ 68
blin@@ 68
anlagen 68
weltraum 68
th 68
besonderen 68
offenen 68
trug 68
chicago 68
decke 68
wan@@ 68
schte 68
dame 68
pläne 68
vorstellungskraft 68
tom 67
bf 67
mmen 67
gele@@ 67
traurig 67
tiver 67
eier 67
mehreren 67
industri@@ 67
lebenserwartung 67
inspirieren 67
dunkel 67
gabe 67
empfin@@ 67
gleichgewicht 67
philosophie 67
kreativen 67
analy@@ 67
do 67
riesen@@ 67
implan@@ 67
abgesehen 67
köpfe 67
ech@@ 67
übersetzen 67
star 67
schein 67
ator 67
vorge@@ 67
wunderbaren 67
schwere 67
21 67
klassenzimmer 67
drehte 67
lige 67
klinik 67
fressen 67
kurz@@ 67
leichter 67
zufriedenheit 67
budget 67
treibt 67
dunkelheit 67
stigen 67
infiziert 67
bemerkenswert 67
einst 67
sicher@@ 67
stoppen 67
maß 67
bezeichnen 67
anpassen 66
ler@@ 66
tiker 66
res@@ 66
mö@@ 66
hiv-@@ 66
späten 66
problems 66
ländlichen 66
ursprung 66
bs 66
gal@@ 66
bezeichnet 66
bären 66
alisierung 66
nannten 66
scheitern 66
ökonomen 66
geruch 66
gab@@ 66
eri@@ 66
vorhin 66
ruhe 66
knapp 66
veröffentlichen 66
ff 66
gere@@ 66
et 66
berühm@@ 66
präsidenten 66
pflanze 66
meer@@ 66
still 66
ball@@ 66
teilnehmer 66
raub@@ 66
elektrischen 66
drauf 66
schle@@ 66
beteiligt 66
schlussendlich 66
moral@@ 66
dahinter 66
erneut 66
sech@@ 66
trock@@ 66
vergangenen 66
irgendwelche 66
schaue 66
altern 66
studium 66
obama 66
arti@@ 66
pol@@ 65
zuschauer 65
erinnerungen 65
ele@@ 65
geistes@@ 65
störungen 65
steuer@@ 65
binden 65
dienen 65
akt 65
furcht@@ 65
werbe@@ 65
genießen 65
golf@@ 65
öffnet 65
flüssigkeit 65
technischen 65
j 65
gebrauch 65
bel 65
stamm 65
dliche 65
zy@@ 65
iges 65
weltkrieg 65
organismus 65
unterwegs 65
trä@@ 65
bene 65
ierten 65
erer 65
sper@@ 65
frucht@@ 65
anlage 65
handys 65
isierung 65
hier@@ 65
ör@@ 65
riesiges 65
radi@@ 65
dienst@@ 65
falschen 65
medien@@ 65
zeichnet 65
kei@@ 65
verdient 65
aktu@@ 65
symbol 65
eres 65
global 65
0,@@ 65
wolke 65
stock 65
griff 65
katze 65
flugzeuge 65
tion 65
mati@@ 65
biologischen 65
besuchte 65
hyper@@ 65
fließen 65
wahlen 65
wünsche 65
zuzu@@ 65
biologen 65
haiti 65
organisiert 65
tele@@ 65
spezielle 65
schwan@@ 64
länge 64
aufbau 64
19 64
sum@@ 64
chinesischen 64
anführer 64
weiten 64
vorschlag 64
oberen 64
wander@@ 64
nei@@ 64
teilte 64
bewe@@ 64
beruf 64
circa 64
neulich 64
trennen 64
auff@@ 64
schlag@@ 64
bewahren 64
heiß 64
fließt 64
tenden 64
bekämpfen 64
selbe 64
ard 64
geworfen 64
konfrontiert 64
verkehrs@@ 64
kosten@@ 64
un 64
verb@@ 64
ed 64
gewöhnt 64
herunter 64
belohnung 64
pl@@ 64
party 64
voran@@ 64
tlich 64
ehre 64
mung 64
pfei@@ 64
funktion@@ 64
wozu 64
lü@@ 64
teilung 64
training 64
beigebracht 64
interessanten 64
uren 64
musi@@ 64
reg@@ 64
ari@@ 64
äuß@@ 64
hung 64
dunklen 64
samkeit 64
heran 64
mark 64
lli@@ 64
opti@@ 64
jahrzehnte 64
verwendung 64
isi@@ 64
ktive 64
see@@ 64
umzugehen 64
schlu@@ 64
zunehmend 64
insgesamt 63
symmetrie 63
dur@@ 63
stärken 63
dri@@ 63
teilten 63
kette 63
zählt 63
volles 63
dinger 63
sender 63
versorgen 63
physische 63
magazin 63
begreifen 63
irgendeinem 63
2009 63
artige 63
hle 63
frankreich 63
schiff@@ 63
kontroll@@ 63
chi@@ 63
geschlossen 63
bewirken 63
meister 63
schlechtes 63
kab@@ 63
alter@@ 63
gold 63
angriff 63
blind 63
teu@@ 63
ausgesetzt 63
blätter 63
diges 63
beides 63
chtes 63
inner@@ 63
taucht 63
wissenschaftlern 63
letztlich 63
chemische 63
gemüse 63
bele@@ 63
altes 63
empfinden 63
kommen@@ 63
wunderschöne 63
physi@@ 63
tives 63
gerufen 63
kindes 63
gegenden 63
verein@@ 63
half 63
gefüllt 63
spe@@ 63
käfer 62
stille 62
fahrzeug 62
blasen 62
sm@@ 62
kohlenstoff@@ 62
könne 62
gendes 62
gol@@ 62
üben 62
del 62
packt 62
street 62
identifizieren 62
deln 62
angeles 62
kasten 62
zeitraum 62
app@@ 62
fil@@ 62
14@@ 62
katastrophen 62
krei@@ 62
vielfäl@@ 62
sil@@ 62
ausmachen 62
kolle@@ 62
lebensmittel@@ 62
maße 62
tigung 62
0.000 62
glich 62
allgemein@@ 62
zugeben 62
afrikanische 62
abhängigkeit 62
reaktionen 62
sol@@ 62
2006 62
zentral@@ 62
bus@@ 62
außergewöhnlich 62
la 62
pollen 62
winkel 62
klima 62
char@@ 62
plätze 62
studiert 62
wü@@ 62
1000 62
neigen 62
xi@@ 62
offene 62
drückt 62
versteckt 62
bevölkerungs@@ 62
packen 62
gerung 62
ationen 62
kalt 62
brü@@ 62
langweilig 62
cken@@ 61
verschieden 61
teenager 61
erwärmung 61
2004 61
fett 61
ack@@ 61
vo@@ 61
wale 61
muskeln 61
kreative 61
positiven 61
stig 61
klu@@ 61
entgegen@@ 61
gelt 61
christ@@ 61
ander@@ 61
mat@@ 61
zweifel 61
pres@@ 61
ou@@ 61
hte 61
irgend@@ 61
schli@@ 61
getrennt 61
sichtweise 61
füße 61
al-@@ 61
beglei@@ 61
27 61
trage 61
peter 61
poli@@ 61
aktuelle 61
berechnungen 61
erwähnen 61
has@@ 61
zur@@ 61
terin 61
papier@@ 61
esen 61
gri@@ 61
spenden 61
spur 61
vorträge 61
physischen 61
auftrag 61
plat@@ 61
zie@@ 61
mag@@ 61
hor@@ 61
vorsichtig 61
visuellen 61
videospiele 60
gestartet 60
höchsten 60
erklärte 60
vieren 60
reich@@ 60
kreb@@ 60
in-@@ 60
irgendwas 60
grippe 60
geschmack 60
winzigen 60
prozesse 60
wirklichen 60
gras@@ 60
dichter 60
figur 60
gewann 60
brei@@ 60
ci@@ 60
zentren 60
verschwindet 60
rech@@ 60
seide 60
projekten 60
stamm@@ 60
kb 60
saßen 60
entstehung 60
institut 60
fotografiert 60
punkten 60
traditionelle 60
bösen 60
adam 60
zone 60
hinblick 60
verschiedener 60
frequenz 60
d. 60
währ@@ 60
hoben 60
13@@ 60
ruft 60
stirbt 60
interessen 60
el-@@ 60
wälder 60
handlung 60
jenseits 60
zig 60
verrückte 60
gebunden 60
ktionen 60
höhepunkt 60
maßnahmen 60
mechanismus 60
ghana 60
sions@@ 60
tter 60
selb@@ 60
trei@@ 60
flog 60
hab@@ 60
sogenannte 60
beitrag 59
rä@@ 59
zukünftigen 59
bekannte 59
blü@@ 59
jeweils 59
willkommen 59
eigentliche 59
erfüllen 59
matische 59
näch@@ 59
denselben 59
eg@@ 59
.000 59
reiche 59
zwischen@@ 59
denkweise 59
ausgegeben 59
benutze 59
umzu@@ 59
haare 59
dungs@@ 59
hn 59
stufen 59
essen@@ 59
weltbevölkerung 59
kanal 59
spannung 59
gedächtnis 59
andererseits 59
erenden 59
heilen 59
hm@@ 59
zurückgehen 59
wein 59
general 59
tende 59
symptome 59
investiert 59
hoher 59
impf@@ 59
übung 59
teleskop 59
ausdrücken 59
inklusive 59
texas 59
stämme 59
195@@ 59
block 59
zent@@ 59
macher 59
diabetes 59
i-@@ 59
best@@ 59
greift 59
zukommen 59
bart 59
schickte 59
britischen 59
bö@@ 59
einheiten 59
gebildet 59
wartet 59
tierten 59
emotionale 59
hassen 59
amp 59
oxford 59
tes@@ 59
weibliche 59
polio 59
streit@@ 59
fro@@ 59
kohlenstoff 59
exakt 59
tik 59
echtes 59
kuchen 59
tee 59
umso 59
50.000 58
kriti@@ 58
berichtet 58
hinunter 58
erfassen 58
pause 58
feind 58
stimm@@ 58
sprung 58
neur@@ 58
design@@ 58
krie@@ 58
kamer@@ 58
kapitalismus 58
zeitungen 58
nervös 58
zeichnete 58
gewöhnlich 58
chip 58
lehrern 58
wundervolle 58
frie@@ 58
ations@@ 58
poster 58
higgs-@@ 58
schätzung 58
hitze 58
grundlegend 58
dä@@ 58
hr 58
ktoren 58
protein 58
gene@@ 58
tere 58
geraten 58
gelb 58
schie@@ 58
gedanken@@ 58
gründete 58
rum@@ 58
ignorieren 58
gerettet 58
globalisierung 58
schwerer 58
sms 58
repräsentiert 58
verletzungen 58
benutzte 58
ingenieur 58
sammlung 58
spei@@ 58
kultur@@ 58
weist 58
filmen 58
bot 58
babies 58
atoren 58
est@@ 58
pflege 58
bewegungs@@ 58
wetter 58
wieviele 58
endet 58
knochen@@ 58
cor@@ 58
real 58
eien 58
syste@@ 58
kongo 58
komplizierte 58
hlte 58
kranken@@ 58
logik 58
wiederholt 58
hl 58
verk@@ 58
verbrauch 58
glei@@ 58
ener 58
stop@@ 58
zeichnungen 57
mein@@ 57
mus@@ 57
vergnügen 57
dient 57
köpfen 57
miert 57
flie@@ 57
hang 57
entscheidend 57
lernten 57
krat@@ 57
22 57
sar@@ 57
kreislauf 57
summe 57
wil@@ 57
sequenz 57
detail 57
motivation 57
billig 57
sogenannten 57
stör@@ 57
rie 57
anbieten 57
emissionen 57
stö@@ 57
ten-@@ 57
kaputt 57
effe@@ 57
frank 57
stab@@ 57
.com 57
brand@@ 57
messer 57
knopf 57
mieren 57
benutzten 57
glichen 57
mende 57
1. 57
ausnahme 57
dazwischen 57
profitieren 57
universitäten 57
diesmal 57
dens 57
versprechen 57
ungspro@@ 57
umgang 57
mei@@ 57
auseinander@@ 57
herauszu@@ 57
lam@@ 57
gst 57
ast@@ 57
staats@@ 57
theorien 57
gering@@ 57
interessanterweise 57
nie@@ 57
erfinder 57
oran@@ 57
falle 57
nachrichten@@ 57
aufstieg 57
weltall 57
effizient 57
treib@@ 57
schwanz 57
kommunikations@@ 57
bat@@ 57
fördert 57
aner 57
holte 57
geh@@ 57
lichter 57
gesunde 57
spä@@ 57
entscheidende 57
glo@@ 57
keln 57
persönlichkeit 57
blickwinkel 57
sprecher 57
strecken 57
gib 57
argument 57
0er 57
effekte 57
blog 57
uni 57
streit 57
poly@@ 57
eng 57
schwe@@ 57
doppel@@ 56
tolles 56
statistik 56
sieb@@ 56
überzeu@@ 56
dieren 56
ordnet 56
sag 56
nachhaltige 56
harte 56
wahren 56
sternen 56
intuition 56
schöner 56
ruhig 56
besitz 56
sha@@ 56
fache 56
nachdenkt 56
fung 56
prü@@ 56
uganda 56
plus 56
umstände 56
ina 56
tricks 56
doktor 56
gru@@ 56
säu@@ 56
konflikte 56
höchste 56
technische 56
szene 56
kulturellen 56
gucken 56
mern 56
roh@@ 56
schnelle 56
güte 56
ass 56
frem@@ 56
bekann@@ 56
se-@@ 56
geheim@@ 56
lieder 56
sc@@ 56
fabriken 56
schlei@@ 56
strecke 56
2003 56
schlimm 56
glaubten 56
strategien 56
kiste 56
bran@@ 56
elefanten 56
ausschließlich 56
ese 56
z. 56
radio 56
iphone 56
gross@@ 56
gie@@ 56
tlichen 56
2001 56
höheren 56
erstaun@@ 56
stück@@ 56
veran@@ 56
güter 56
bens 56
teils 56
-jährige 56
drogen@@ 56
hinauf 56
dam@@ 56
beweg@@ 56
gold@@ 56
folgte 56
zugleich 56
nas@@ 55
brustkrebs 55
mel 55
jugend 55
tliche 55
ttert 55
pac@@ 55
jenen 55
west 55
nachhal@@ 55
ausmacht 55
pun@@ 55
erwartungen 55
20.000 55
schein@@ 55
entwicklungsländer 55
linge 55
250 55
vertrau@@ 55
werdet 55
angetrieben 55
derek 55
väter 55
leistungen 55
0@@ 55
berühmt 55
dlichen 55
dumm 55
korallen 55
strand 55
forschungen 55
co2-@@ 55
konsum 55
dert 55
begriffen 55
schlimmsten 55
erdbeben 55
keinem 55
sozialer 55
mmer@@ 55
beschä@@ 55
tat@@ 55
gegessen 55
rechner 55
matischen 55
zurückkehren 55
allgemein 55
klassen@@ 55
gebung 55
maßen 55
januar 55
schten 55
erre@@ 55
motoren 55
künstliche 55
95 55
früheren 55
ans@@ 55
weitermachen 55
&amp; 55
kolonie 55
fasern 55
fei@@ 55
e-mail 55
angesichts 55
gewi@@ 55
analysieren 55
transparenz 55
schulter 55
il 55
das@@ 55
anruf 55
eten 55
reichtum 55
pflanzen@@ 55
origami 55
reicher 55
beizu@@ 55
liest 55
wiederholen 54
flaschen 54
handlungen 54
valley 54
fließ@@ 54
alisierten 54
z-@@ 54
anzeige 54
aufrecht 54
dienstleistungen 54
zwingen 54
störung 54
kts 54
letz@@ 54
uni@@ 54
waschen 54
hi 54
scho@@ 54
eröffnet 54
ausser@@ 54
ack 54
vogel@@ 54
gipfel 54
wundervoll 54
verließ 54
diskutieren 54
autismus 54
m-@@ 54
erlangen 54
preis@@ 54
haut@@ 54
ens@@ 54
microsoft 54
dollar-@@ 54
entschuldigung 54
würdest 54
hnt 54
rum 54
verbesserung 54
probieren 54
angebot 54
hirn 54
neugierig 54
halben 54
lin 54
häu@@ 54
ältesten 54
nerven 54
gerü@@ 54
figuren 54
trend 54
gezwungen 54
linke 54
intelligente 54
dick 54
architekt 54
brau@@ 54
fahrrad 54
gefä@@ 54
bewegte 54
geh 54
übertragung 54
reparieren 54
zten 54
russland 54
start 54
verliebt 54
va 54
extra@@ 54
schreib@@ 54
minister 54
gegenstand 54
bescheid 54
0-@@ 54
kreiert 53
visu@@ 53
sicherer 53
vorder@@ 53
englischen 53
optimismus 53
gesunden 53
gehei@@ 53
jährlich 53
durchzuführen 53
… 53
zug@@ 53
heiraten 53
schafts@@ 53
chirurg 53
schreibe 53
zin@@ 53
dienste 53
deckt 53
abendessen 53
16@@ 53
ktes 53
nachhaltigkeit 53
experiment@@ 53
speicher 53
verletz@@ 53
bahn@@ 53
keits@@ 53
matik 53
materi@@ 53
stad@@ 53
roman@@ 53
wissen@@ 53
gesichts@@ 53
val@@ 53
tigt 53
pe 53
stammen 53
ebenen 53
dauer 53
kauft 53
süß@@ 53
verdi@@ 53
wandern 53
europäischen 53
ktiv 53
jagen 53
jung@@ 53
deinem 53
vari@@ 53
super 53
landete 53
nerven@@ 53
überprüfen 53
open 53
tote 53
westliche 53
23 53
hinsichtlich 53
stischer 53
wohnen 53
chirurgen 53
stellungen 53
kas@@ 53
entwurf 53
mikroskop 53
privaten 53
dauer@@ 53
standpunkt 53
bip 53
einziges 53
quanten@@ 53
freu@@ 53
kalten 53
verbrauchen 53
nahezu 53
bergen 53
ratten 53
psycho@@ 53
gert 53
120 53
festgestellt 53
den-@@ 53
ge-@@ 53
becken 53
prototypen 52
kn@@ 52
sach@@ 52
2.000 52
organis@@ 52
unterhalb 52
gefängnis@@ 52
allgemeine 52
rechnung 52
enormen 52
bord 52
ingen 52
bestra@@ 52
kühl@@ 52
om 52
schlau 52
sitz@@ 52
kleinere 52
dialog 52
aber@@ 52
ministerium 52
konsumenten 52
tauschen 52
defini@@ 52
nimm 52
knie 52
befreien 52
politisch 52
angehen 52
fremden 52
lebensqualität 52
ängste 52
betrieb 52
reagiert 52
durfte 52
ats 52
dutzend 52
quer@@ 52
pin@@ 52
h-@@ 52
bedienen 52
mochte 52
behörde 52
antrieb 52
zucker@@ 52
gangen 52
redu@@ 52
beinen 52
glückliche 52
zurückkommen 52
marketing 52
isten 52
übersetzt 52
benen 52
einzigartig 52
kongress 52
trans@@ 52
ballon 52
vieler 52
mini@@ 52
gestaltung 52
geblieben 52
design-@@ 52
praxis 52
schwarzes 52
rio 52
te-@@ 52
verbraucht 52
lungen 52
abends 52
sierung 52
800 52
bedeckt 52
komm@@ 52
kehrt 52
st-@@ 52
seil 52
organ 52
erzeu@@ 52
vorn 52
can@@ 52
unterhalten 52
kel@@ 52
brüder 52
fotografie 52
indiens 52
dom@@ 52
beln 52
gere 52
apple 52
mur@@ 52
deu@@ 52
span@@ 51
geöffnet 51
hinweise 51
yp@@ 51
eingehen 51
.. 51
mie@@ 51
aufregende 51
stern@@ 51
danken 51
wur@@ 51
enti@@ 51
gebäudes 51
197@@ 51
erledigt 51
unternehmer@@ 51
2. 51
chef 51
post@@ 51
außergewöhnliche 51
euer 51
grafie 51
bereit@@ 51
drucker 51
wut 51
sprü@@ 51
ier@@ 51
tisch@@ 51
auswirkung 51
kämpft 51
26 51
dreimal 51
ante 51
impfstoff 51
700 51
uns@@ 51
verlangt 51
oktober 51
kohle@@ 51
tony 51
mittelpunkt 51
legten 51
bon@@ 51
fau@@ 51
änderte 51
fordern 51
katzen 51
unterscheidet 51
ausgebildet 51
65 51
ansichten 51
bandbreite 51
kapit@@ 51
errichten 51
onkel 51
fordert 51
dramatisch 51
krab@@ 51
knoten 51
dringen 51
klingen 51
wach@@ 51
wünschen 51
röntgen@@ 51
bemerkenswerte 51
spieler@@ 51
ket@@ 51
dose 51
uss 51
ce@@ 51
revolution@@ 51
nachfrage 51
schreckliche 51
martin 51
grä@@ 51
institute 51
einrichtung 51
zusätzliche 51
selektion 51
uten 51
hingehen 51
hre 51
lehrerin 51
losigkeit 51
tens 51
go 51
symboli@@ 51
wohlbefinden 51
ersetzt 51
atem@@ 51
aden 51
anfängt 51
atome 51
hon@@ 51
zweites 51
schwestern 51
sir 51
räum@@ 51
lat@@ 51
stress 51
klas@@ 51
gewinnt 50
investition 50
blick@@ 50
schaffte 50
erkenn@@ 50
schuf 50
wirtschaft@@ 50
komisch 50
nochmals 50
taschen 50
glücklichen 50
weltweite 50
religiöse 50
fasst 50
schlimmste 50
korea 50
tauch@@ 50
hersteller 50
angel@@ 50
nationalen 50
durchmesser 50
spielten 50
gemessen 50
bedürfnis 50
kg 50
amerikas 50
liber@@ 50
geräten 50
hmen 50
erinnerte 50
ki 50
vorgestellt 50
gkeiten 50
hum@@ 50
streifen 50
bier 50
schnei@@ 50
auszudrücken 50
berechnung 50
zentimeter 50
ologische 50
dimension 50
private 50
erfahr@@ 50
autor@@ 50
löst 50
durchschnitt@@ 50
gewal@@ 50
anstellen 50
hinweis 50
zun@@ 50
aktuellen 50
schlange 50
neh@@ 50
beginne 50
ausgehen 50
wunderschönen 50
atem 50
illusion 50
finger@@ 50
song 50
oll@@ 50
wunderschön 50
anreize 50
trainieren 50
lungen@@ 50
beitragen 50
kol@@ 50
manager 50
stau@@ 50
deuten 50
besonderes 50
großartiger 50
beschreibung 50
schnell@@ 50
getestet 50
skulptur 50
öffnete 50
bahnen 50
hauses 50
joe 50
ham@@ 50
gewalt@@ 50
million@@ 50
schienen 50
kombinieren 50
watt 50
sur@@ 50
entdeckten 50
chteten 50
schafften 50
ligen 50
mannes 50
vir@@ 50
skali@@ 50
elen 50
mark@@ 50
ausgabe 50
cker@@ 49
theore@@ 49
kum@@ 49
füßen 49
tte 49
merkmale 49
negativ 49
potenti@@ 49
trends 49
konkre@@ 49
wollt 49
ktiven 49
ttern 49
gesetz@@ 49
dy 49
definitiv 49
inhalte 49
alisi@@ 49
ring 49
3.000 49
brenn@@ 49
kopieren 49
tanz@@ 49
gat@@ 49
kräf@@ 49
ungewöhnlich 49
stä@@ 49
lar@@ 49
finanziert 49
tode 49
leit@@ 49
hör 49
ursprüngliche 49
mobil@@ 49
erfüllt 49
weibchen 49
mier@@ 49
suchten 49
sensoren 49
kit@@ 49
vierten 49
kindersterblichkeit 49
rela@@ 49
wissens 49
hir@@ 49
übt 49
post 49
att@@ 49
erwä@@ 49
mische 49
unterwasser@@ 49
gur@@ 49
mischung 49
überlebt 49
ungskraft 49
vis@@ 49
prozesses 49
au 49
abenteuer 49
sex@@ 49
erfindungen 49
-jährigen 49
geni@@ 49
geschü@@ 49
schnee 49
quadrat@@ 49
asse 49
mes@@ 49
großartiges 49
senken 49
orchester 49
häusern 49
meere 49
führenden 49
unendlich 49
saturn 49
verbrennen 49
12@@ 49
nungen 49
blogs 49
tages@@ 49
kuh 49
abel 49
hell@@ 49
anhänger 49
gemeinschaft@@ 49
lehnen 49
2,@@ 49
verdammt 49
veränder@@ 49
vorwärts 49
zierung 49
förder@@ 49
ssi@@ 49
tim 49
gore 49
psychologen 49
hilfsmittel 49
verarbeitung 49
dür@@ 49
goo@@ 49
ungeheuer 49
sprech@@ 49
stets 49
stahl@@ 49
cambridge 49
gefolgt 49
hebt 49
hut 49
konzepte 49
schnitt@@ 49
dn@@ 49
pp 49
terrorismus 49
herein 49
bereiten 48
angepasst 48
prote@@ 48
gerüst 48
körpern 48
erschien 48
halten@@ 48
les 48
bedauern 48
ruanda 48
sieben@@ 48
stam@@ 48
belast@@ 48
stanford 48
listen 48
stände 48
allzu 48
schufen 48
gewöhnliche 48
verfügen 48
laptops 48
inmitten 48
rad@@ 48
futter 48
brüche 48
geschützt 48
großvater 48
wild@@ 48
abteilung 48
vermute 48
verteilen 48
verarbeiten 48
beträgt 48
gelaufen 48
last 48
erfuhr 48
sung 48
autoren 48
nähr@@ 48
hot@@ 48
explosion 48
toilette 48
echter 48
seri@@ 48
sauerstoff@@ 48
befür@@ 48
tar@@ 48
flüssi@@ 48
kredit@@ 48
bac@@ 48
ders 48
industrie@@ 48
besitzer 48
dest@@ 48
relevant 48
liebt 48
ana 48
ärmsten 48
graphi@@ 48
standard@@ 48
ute 48
schülern 48
märkten 48
kapazität 48
bäumen 48
erfordert 48
erstaunlichen 48
handelte 48
held 48
yorker 48
humor 48
van 48
zusammenge@@ 48
regelmäßig 48
kationen 48
involviert 48
n-@@ 48
öfter 48
tür@@ 48
chemischen 48
chtung 48
ktion@@ 48
chan@@ 48
bedro@@ 48
kopie 48
spü@@ 48
feld@@ 48
ohr 48
tät 48
lärm 48
spa@@ 48
ted@@ 48
ra 48
künstler@@ 48
verbrei@@ 48
tetes 48
optimistisch 48
radio@@ 48
schall@@ 48
frag@@ 48
kni@@ 48
hit@@ 48
gleichheit 48
fantastischen 48
schädel 48
wütend 48
32 48
bedeutend 48
dende 48
spiels 48
februar 48
neun@@ 48
irgendeiner 48
tragödie 48
blö@@ 48
quadrat 48
indische 48
wodurch 48
übergang 48
gelände 48
ek@@ 48
va@@ 48
produkten 48
besie@@ 48
heil@@ 48
fet@@ 47
ah@@ 47
papa 47
anhalten 47
nisse 47
schwei@@ 47
anzuschauen 47
van@@ 47
ungleichheit 47
ase 47
minen 47
platte 47
misst 47
ko 47
schieben 47
spitzen 47
ns 47
tumor@@ 47
verwand@@ 47
ve 47
zel@@ 47
schläge 47
enes 47
prot@@ 47
nütz@@ 47
rin@@ 47
internets 47
mitzu@@ 47
kreativ 47
überqueren 47
vereinten 47
isst 47
tiv@@ 47
energi@@ 47
emotionalen 47
gerissen 47
währung 47
auftreten 47
scham 47
optimi@@ 47
runter@@ 47
hai 47
erb@@ 47
üsse 47
endete 47
wüssten 47
bomben 47
brett 47
grenz@@ 47
moralisch 47
verwandten 47
draussen 47
glamour 47
gle@@ 47
menschlichkeit 47
richter 47
ück@@ 47
massen 47
gegenstände 47
bir@@ 47
verkauf 47
vielzahl 47
lücke 47
tafel 47
bungen 47
beziehen 47
partei 47
kreise 47
scheibe 47
ors 47
front 47
adi@@ 47
zuletzt 47
erledigen 47
klassische 47
mächtige 47
gerei@@ 47
ausgewählt 47
gewissermaßen 47
wundervollen 47
bronx 47
offenheit 47
ameise 47
einstellen 47
mr. 47
ordnen 47
sendung 47
erkunden 47
dig@@ 47
international 47
hypothese 47
net 47
spiritu@@ 47
slo@@ 47
mittagessen 47
klin@@ 47
lese 47
poesie 47
kehrte 47
kohlendioxid 47
nachhaltig 47
schmerz@@ 47
sorgt 47
formel 47
weinen 47
vielmals 47
basierte 47
königin 47
geno@@ 47
anders@@ 47
pyramide 47
pft 47
15@@ 47
zeugs 47
pt 47
stige 47
voraussagen 47
annahmen 47
finanzieren 47
erfand 47
betr@@ 47
eisen@@ 47
farm 47
tendenz 46
institution 46
behandlungen 46
sicherstellen 46
verbor@@ 46
schwi@@ 46
restaurants 46
transplan@@ 46
asteroiden 46
aussterben 46
wissenschafts@@ 46
unrecht 46
meln 46
kter 46
ord@@ 46
verlor 46
untersuchungen 46
gestaltet 46
präsentiert 46
teilnehmen 46
netzwerken 46
ppte 46
hol@@ 46
freuen 46
marken 46
perfekten 46
erziehung 46
täuschen 46
florida 46
ray 46
titel@@ 46
dns 46
aktiven 46
eröffnen 46
führungs@@ 46
umher@@ 46
nutzten 46
beschränkt 46
isiert 46
reißen 46
jet@@ 46
dankbar 46
schriftsteller 46
howard 46
bern 46
nan@@ 46
fels 46
tempo 46
verringern 46
wuchsen 46
widerspruch 46
bombe 46
bauer 46
angeschaut 46
inn@@ 46
moder@@ 46
erzielen 46
städtischen 46
unsichtbar 46
programmiert 46
strafe 46
kolonien 46
umgekehrt 46
beobachtung 46
festhalten 46
wör@@ 46
oberflächen 46
ät 46
elli@@ 46
kenn@@ 46
olo@@ 46
gelehrt 46
une 46
option 46
soziales 46
zentr@@ 46
dre@@ 46
neugier 46
stren@@ 46
greif@@ 46
befrie@@ 46
jahres@@ 46
lagern 46
faszinierende 46
stür@@ 46
supermarkt 46
kannten 46
anzugehen 46
betreten 46
befassen 46
hindurch 46
disch 46
weiß@@ 46
anpassung 46
bush 46
gers 46
klettern 46
media 46
setze 46
frieden@@ 45
gesucht 45
projekts 45
platten 45
beschei@@ 45
beeindruckend 45
industrielle 45
drinnen 45
are@@ 45
komplexer 45
schokolade 45
ment 45
buches 45
reichweite 45
balance 45
mün@@ 45
konzep@@ 45
schauspieler 45
angestellten 45
ständige 45
neutr@@ 45
verbreitete 45
predi@@ 45
kategorien 45
zustellen 45
einschließlich 45
sicheren 45
initi@@ 45
solarenergie 45
schnitte 45
korrekt 45
gehalt 45
fuhren 45
keit@@ 45
unfälle 45
mond@@ 45
stoß 45
ladung 45
strasse 45
zuge@@ 45
netze 45
bie@@ 45
mangel@@ 45
getragen 45
ungsprozess 45
chs@@ 45
einzigartige 45
alters@@ 45
sierte 45
zelt 45
3. 45
dicht 45
ware 45
jim 45
rhythmus 45
kreaturen 45
simulation 45
polar@@ 45
interak@@ 45
bruch 45
wa 45
winzige 45
bewer@@ 45
energien 45
stech@@ 45
verdoppelt 45
vortrags 45
strahlen 45
hoffnungs@@ 45
heimat 45
geri@@ 45
jenem 45
virtuellen 45
roman 45
bezieht 45
hs 45
individuum 45
verhält 45
up@@ 45
beliebt 45
doktor@@ 45
warf 45
schütteln 45
bestes 45
foundation 45
verzweiflung 45
wes@@ 45
warte 45
abfall 45
technisch 45
dezember 45
pon@@ 45
behörden 45
hlten 45
bürgermeister 45
initiative 45
algorithmus 45
sy@@ 45
irgend 45
mr@@ 45
gelangt 45
vermittelt 45
hierbei 45
kandidaten 45
nest 45
erungs@@ 45
berühmte 45
gehör 45
ves 45
mechanismen 45
vorkommen 45
dem@@ 45
taliban 45
inspiri@@ 45
leere 45
denkst 45
ungs-@@ 45
stel 45
ketten 45
prei@@ 45
science 45
ungsp@@ 45
brian 45
é@@ 45
ero@@ 45
und@@ 45
top@@ 45
pet@@ 45
lächerlich 45
geredet 45
erst@@ 44
formt 44
tation 44
still@@ 44
drüber 44
italien 44
obdach@@ 44
hef@@ 44
alzheimer 44
di 44
lege 44
skala 44
staatlichen 44
behaupte 44
erwähnte 44
gesundheitssystem 44
fischer 44
zwölf 44
entsprechend 44
stat@@ 44
fang 44
zeug@@ 44
spezifische 44
sprin@@ 44
gam@@ 44
drücke 44
we 44
leitungen 44
kir@@ 44
wohnung 44
werken 44
beendet 44
komponente 44
geladen 44
omen 44
tollen 44
objekten 44
auftauchen 44
wasch@@ 44
time 44
gates 44
computer-@@ 44
vat@@ 44
weltbank 44
stattfinden 44
venti@@ 44
besteh@@ 44
zweiter 44
bakterium 44
kant 44
einkommens@@ 44
schätze 44
dustrie 44
schwierigen 44
zeu@@ 44
betonen 44
straf@@ 44
direktor 44
überqu@@ 44
treppe 44
riff 44
strahl@@ 44
stor@@ 44
fair 44
nordamerika 44
interpretation 44
besuch 44
tropfen 44
ausschnitt 44
behand@@ 44
fehler@@ 44
discher 44
einwohner 44
kapital@@ 44
zwan@@ 44
nation@@ 44
behälter 44
talen 44
faszinier@@ 44
sozial 44
eric 44
waffen@@ 44
langwei@@ 44
unglücklicherweise 44
urknall 44
frühling 44
neuesten 44
artig 44
ankommt 44
wette 44
beu@@ 44
nachbar@@ 44
gehend 44
fuer 44
transport@@ 44
anges@@ 44
verstän@@ 44
juni 44
aussah 44
finanziellen 44
träger 44
rb 44
schaf@@ 44
kurse 44
muskel@@ 44
pil@@ 44
stiegen 44
bewusstseins 44
pie@@ 44
weh 44
rezept 44
coole 44
verletzlichkeit 44
wachstums@@ 44
austausch 44
wachstums 44
auswählen 44
digital 44
deut@@ 44
rt 44
aut 44
gründer 44
1960 44
angekommen 44
same 44
metall@@ 44
gedreht 44
tale 44
steigern 44
verhalten@@ 43
herkunft 43
jan@@ 43
umzusetzen 43
abgeschlossen 43
leeren 43
sinken 43
id 43
negative 43
produktivität 43
mm 43
industriellen 43
verrückten 43
einzusetzen 43
richtet 43
asi@@ 43
wet@@ 43
dire@@ 43
feedback 43
zielen 43
jedesmal 43
ungssystem 43
milli@@ 43
ep@@ 43
entropie 43
wertvoll 43
umsetzen 43
tig@@ 43
bienen@@ 43
6. 43
brille 43
entschlossen 43
energieverbrauch 43
bedroht 43
verurteilt 43
ly 43
yeah 43
schlaf@@ 43
reiste 43
intelligenten 43
liter 43
dreh@@ 43
zwanzig 43
fähi@@ 43
ann 43
wick@@ 43
terroristen 43
demokratischen 43
tan 43
engagi@@ 43
filter 43
wirtschaftswachstum 43
inge 43
tin@@ 43
unmittel@@ 43
zueinander 43
ny 43
con@@ 43
2050 43
smith 43
fernseher 43
ktiver 43
haar 43
gig 43
kram 43
sendet 43
sensi@@ 43
billiger 43
chron@@ 43
läch@@ 43
repli@@ 43
stete 43
zentralen 43
comics 43
individuelle 43
diagnostiziert 43
pocken 43
lieb@@ 43
stie@@ 43
zukünftige 43
sich@@ 43
gelbe 43
pm 43
krist@@ 43
dere 43
service 43
selbst-@@ 43
gewachsen 43
extra 43
brown 43
kommenden 43
redet 43
raff@@ 43
tränen 43
mithilfe 43
geometrie 43
manhattan 43
aufzeichnungen 43
mitteilen 43
wirbel@@ 43
berühmten 43
lappen 43
erhielten 43
züchten 43
überlebens@@ 43
ef@@ 43
chst 43
ce 43
kauf@@ 43
reale 43
gangs@@ 43
erforschung 43
elektronische 43
türkei 43
oel 43
skulpturen 42
gereist 42
stru@@ 42
apo@@ 42
mmer 42
homo 42
hügel 42
berechnet 42
maus@@ 42
geburts@@ 42
zir@@ 42
gegenüber@@ 42
islam@@ 42
kreu@@ 42
bringe 42
kevin 42
sitze 42
raumes 42
tötet 42
gemis@@ 42
nirgendwo 42
mauern 42
gerin 42
gener 42
änder 42
erfol@@ 42
skelett 42
wissens@@ 42
antarktis 42
um-@@ 42
leber 42
fs 42
heutige 42
ini@@ 42
stattfindet 42
hall 42
web@@ 42
mustern 42
läu@@ 42
unwahrscheinlich 42
ärm@@ 42
it-@@ 42
gefährliche 42
information@@ 42
städ@@ 42
prüfen 42
net@@ 42
satelliten 42
got@@ 42
schenken 42
80ern 42
technologische 42
balken 42
beacht@@ 42
urheber@@ 42
pumpen 42
komplette 42
sinni@@ 42
meint 42
mode@@ 42
p-@@ 42
fühlten 42
betracht 42
diktat@@ 42
homosexu@@ 42
süß 42
niedrig 42
schulden 42
präsentieren 42
spre@@ 42
abschließen 42
sw 42
einblick 42
isch@@ 42
einnahmen 42
repräsentieren 42
ehemann 42
ktor 42
henry 42
hlt 42
infektionen 42
widmen 42
fän@@ 42
virtu@@ 42
dien 42
zoomen 42
anwälte 42
› 42
‹ 42
ings 42
meile 42
mai 42
schwerkraft 42
öffentlich 42
mauer 42
durchbruch 42
beri@@ 42
beschützen 42
untere 42
hunderten 42
kluft 42
landschaften 42
zweieinhalb 42
freiwilligen 42
t. 42
freundlich 42
klappt 42
bob 42
goldene 42
vermis@@ 42
chtete 42
1990 42
polizei@@ 42
kehr@@ 42
erbe 42
sphäre 42
analogie 42
anzeichen 42
schmutz@@ 42
büros 42
aufgeben 42
vergleich@@ 42
transport 42
motivieren 42
tätigkeit 42
erei 42
talent 42
lincoln 42
studien@@ 42
metall 42
zehen 42
staub 42
kombiniert 42
identi@@ 42
kühe 42
hölle 42
graphen 42
heit@@ 42
angeboten 42
aufwand 42
bewerten 42
nac@@ 42
gelegenheiten 42
aufeinander 42
bio-@@ 42
marken@@ 42
kore@@ 42
ang 42
symbole 42
sexuelle 42
zusehen 41
begleitet 41
schreibtisch 41
entsetz@@ 41
diagnose 41
unterstütz@@ 41
loser 41
isation 41
künstlerin 41
unabhängige 41
lle 41
sungen 41
landes@@ 41
chinas 41
wettbewer@@ 41
spielzeug 41
sammelt 41
tert 41
schätzt 41
zurzeit 41
erhe@@ 41
gewaltige 41
gewöhnlichen 41
ger-@@ 41
finanzierung 41
genie 41
endste 41
aktiviert 41
anliegen 41
journalist 41
chtern 41
einziger 41
biosphäre 41
stärk@@ 41
verschieden@@ 41
entgegen 41
vielerlei 41
stär@@ 41
herein@@ 41
parti@@ 41
17. 41
kooperation 41
religiösen 41
techniker 41
kungen 41
leidet 41
langes 41
auffassung 41
flut 41
park@@ 41
britische 41
stabilität 41
alt@@ 41
28 41
atur 41
stadium 41
fokussieren 41
großzü@@ 41
kilo 41
rauch 41
ville 41
sa 41
anerkennung 41
fremde 41
gä@@ 41
halluzinationen 41
flächen@@ 41
ly@@ 41
mäßig 41
programmier@@ 41
kün@@ 41
eingeschlossen 41
schuss 41
gieren 41
erreichte 41
loses 41
begab@@ 41
gesteuert 41
räder 41
merk@@ 41
dilemma 41
aufmerksam 41
empathie 41
einführung 41
hinweisen 41
halt@@ 41
verbraucher 41
anfän@@ 41
zukunfts@@ 41
herrscht 41
feu@@ 41
rüber 41
konzentration 41
ing 41
leu@@ 41
ernähr@@ 41
seu@@ 41
werkzeugen 41
erfasst 41
logisch 41
natürlicher 41
intelligent 41
bindung 41
irgendein 41
kante 41
hai@@ 41
wunderbares 41
antibiotika 41
breite 41
konsumieren 41
gemäß 41
liebsten 41
blieben 41
hilfreich 41
dy@@ 41
freiwillige 41
panik 41
notwendigkeit 41
flogen 41
würdig 41
bol@@ 41
angesicht 41
geflogen 41
gelang 41
widerstand 41
griffen 41
gerä@@ 41
muskel 41
prozent@@ 41
for 41
gänge 41
synchron@@ 40
gige 40
boote 40
ologischen 40
drän@@ 40
esse 40
mio. 40
fotografieren 40
b-@@ 40
programmierer 40
unterrichtet 40
berufs@@ 40
anten@@ 40
flughafen 40
wasserstoff 40
human@@ 40
englische 40
trag 40
hektar 40
haar@@ 40
muslime 40
veranstaltung 40
orienti@@ 40
strahl 40
elektron@@ 40
jähriger 40
riecht 40
eben@@ 40
verbin@@ 40
menschlich 40
verschmu@@ 40
atomenergie 40
einfluss@@ 40
stands 40
q@@ 40
assozi@@ 40
29 40
kletter@@ 40
vaters 40
töchter 40
intensi@@ 40
versorgt 40
genetisch 40
ure 40
löwen 40
salz@@ 40
verboten 40
erlaubnis 40
offenbar 40
früchte 40
long 40
bewirkt 40
subje@@ 40
tor 40
nervenzellen 40
licherweise 40
meinungen 40
beton@@ 40
ernten 40
ome 40
schar@@ 40
gelähmt 40
fortgeschritt@@ 40
ter-@@ 40
öhn@@ 40
sinnes@@ 40
schickten 40
zustimmen 40
spannend 40
schreien 40
zulassen 40
kro@@ 40
wissenschaftlich 40
gewinn@@ 40
keit 40
schri@@ 40
hinaus@@ 40
faltet 40
ökonomie 40
vergrößern 40
händler 40
marschi@@ 40
196@@ 40
beschäftigte 40
85 40
fettleibigkeit 40
gelingt 40
gestiegen 40
höchst 40
aktive 40
kleineren 40
zit 40
durcheinander 40
deutet 40
age 40
wörterbuch 40
euro 40
vertrag 40
up 40
stab 40
shanghai 40
entfernten 40
wiederhol@@ 40
mo 40
pre@@ 40
kurzer 40
nahrungsmittel 40
heimat@@ 40
positionen 40
individu@@ 40
verknüpft 40
volks@@ 40
ele 40
verletzt 40
wachte 40
anzug 40
steuert 40
blume 40
nern 40
reis 40
anweisungen 40
management 40
elektroden 40
skri@@ 40
mathemati@@ 40
disziplin 40
alternativen 40
bett@@ 40
fäden 40
ate@@ 40
riesiger 40
höhle 40
großeltern 40
wörtlich 40
ärzten 40
jenes 40
säule 40
ehren 40
taschen@@ 40
tend 40
schuldig 40
erend 40
ama@@ 40
feldern 40
runden 40
planet@@ 40
viertel@@ 40
kund@@ 40
gewiesen 40
exponenti@@ 40
beschleunigen 40
trü@@ 40
parall@@ 40
aufstehen 40
dringend 40
rut@@ 39
2002 39
löschen 39
journalisten 39
genom@@ 39
typische 39
belieb@@ 39
nissen 39
versetzen 39
ausführen 39
effizienter 39
integriert 39
fleisch@@ 39
band@@ 39
berichte 39
besonder@@ 39
glob@@ 39
f-@@ 39
denden 39
geeignet 39
hydro@@ 39
larry 39
käme 39
stün@@ 39
darm 39
rund@@ 39
pati@@ 39
ungsweise 39
brasili@@ 39
gerecht 39
,@@ 39
geheimnisse 39
sonnensystem 39
stati@@ 39
darzustellen 39
schlacht 39
erzählten 39
real@@ 39
ziehe 39
detektor 39
abstand 39
beding@@ 39
nahe@@ 39
frauen@@ 39
grafische 39
amen 39
ls 39
ewi@@ 39
liegenden 39
zivili@@ 39
eth@@ 39
issen 39
interviews 39
herstellt 39
club 39
ma-@@ 39
konstruktion 39
ausgedrückt 39
rückseite 39
ium 39
schweine 39
bestandteil 39
freue 39
beeindruckt 39
zuzuhören 39
grab@@ 39
sign@@ 39
durchschnittlich 39
krähen 39
investoren 39
monat@@ 39
1,5 39
seins 39
tren@@ 39
keines 39
überlassen 39
ignoriert 39
verstecken 39
bestäu@@ 39
geschäft@@ 39
ill@@ 39
diskussionen 39
fotograf 39
treibstoff 39
verkaufte 39
verlän@@ 39
unklar 39
holt 39
ursprünglichen 39
unmittelbar 39
produktions@@ 39
rakete 39
mais 39
größenordnung 39
col@@ 39
bedeuten@@ 39
täglichen 39
55 39
geschnitten 39
kalorien 39
betrü@@ 39
erneu@@ 39
absor@@ 39
geschlecht 39
univers@@ 39
schlaf 39
kreis@@ 39
beschrei@@ 39
liefen 39
charaktere 39
träge 39
belastung 39
wild 39
elektronik 39
fertig@@ 39
wellen@@ 39
kreisen 39
merkmal 39
gefü@@ 39
autorität 39
° 39
radikal 39
versehen 39
sinkt 39
relev@@ 39
republikaner 39
reihenfolge 39
texte 39
normales 39
ecken 39
raketen 39
mitt@@ 39
gelder 39
äthiopien 39
inieren 39
hindernisse 39
pazifik 39
dschihad 39
mitgebracht 39
samer 39
pflanzt 39
genaue 39
bell 39
umfang 39
kreuz@@ 39
absol@@ 39
herrschaft 39
vulkan@@ 39
planung 39
50@@ 39
beispielen 39
alisierte 39
newton 39
startete 39
werk@@ 39
atemberau@@ 39
größ@@ 39
natürliches 39
verletzung 39
billi@@ 39
lehrt 39
schlage 39
flucht 38
sters 38
wachsende 38
briefe 38
brücken 38
sion@@ 38
est 38
stir@@ 38
din 38
tis 38
unabhängigkeit 38
wetter@@ 38
rechen@@ 38
litt 38
kabel@@ 38
gh 38
ständen 38
onen@@ 38
umgebungen 38
eig@@ 38
kämp@@ 38
umfas@@ 38
horizont 38
komplizierter 38
wechselt 38
origin@@ 38
sher@@ 38
speichern 38
fabri@@ 38
april 38
investi@@ 38
handels@@ 38
beantwortet 38
schätz@@ 38
ungser@@ 38
itäten 38
beruf@@ 38
durchlaufen 38
erschreck@@ 38
rande 38
schrecklichen 38
angelegenheit 38
ga 38
schickt 38
karten@@ 38
erzählung 38
wörtern 38
verwandt 38
bewältigen 38
rettung 38
schna@@ 38
verwendeten 38
intensiv 38
gemü@@ 38
wohnungen 38
ausprobieren 38
bewus@@ 38
heiligen 38
beschleunigt 38
schreck@@ 38
stimmte 38
sele@@ 38
merkt 38
zutaten 38
erden 38
herausstellt 38
drück@@ 38
primi@@ 38
text@@ 38
heilige 38
anfingen 38
fantasie 38
erstaunt 38
genetik 38
halbes 38
ozeans 38
foie 38
mul@@ 38
suppe 38
lg 38
chirurgie 38
pandemie 38
warfen 38
audi@@ 38
felsen 38
hütte 38
verheiratet 38
oma 38
koch@@ 38
örtlichen 38
beten 38
zivilisationen 38
assen 38
wahrschein@@ 38
00@@ 38
auftritt 38
bedeutende 38
blinde 38
umfrage 38
cou@@ 38
sturm 38
geträn@@ 38
standards 38
benjamin 38
tran@@ 38
ähn@@ 38
ausreichend 38
mode 38
diplo@@ 38
prin@@ 38
ein-@@ 38
unterbrochen 38
opfern 38
staatliche 38
taus@@ 38
pau@@ 38
wänden 38
verständlich 38
kogni@@ 38
müsst 38
versicherung 38
größeres 38
präzise 38
konstruk@@ 38
para@@ 38
biologisch 38
gesellschaftlichen 38
süchtig 38
töne 38
pig@@ 38
geschä@@ 38
nadel 38
ak 38
krea@@ 38
qualifi@@ 38
beer@@ 38
leinwand 38
rock@@ 38
wortes 38
ozean@@ 38
parks 38
trainiert 38
methan 38
dies@@ 38
anzunehmen 38
nelson 38
keiten 38
alltag 38
zugehen 38
mist 38
wäsche 38
pass 38
schief 38
ppen@@ 38
anreiz 38
fett@@ 38
banken 38
chemi@@ 38
193@@ 38
krä@@ 38
48 38
verdoppeln 38
überzeugung 38
hypothe@@ 38
ßig 38
ignor@@ 38
herausgestellt 38
elf 38
mathematische 38
experimentieren 38
gift 37
titan 37
woanders 37
60ern 37
aufweisen 37
e-mails 37
steven 37
personal 37
leitung 37
hom@@ 37
klinische 37
verhindert 37
schafe 37
genome 37
ausde@@ 37
tour 37
cyber@@ 37
studierenden 37
konfli@@ 37
earth 37
virginia 37
milliar@@ 37
brä@@ 37
popul@@ 37
wall 37
schmerzhaft 37
unsicherheit 37
turm 37
filtern 37
satelliten@@ 37
6.000 37
überrasch@@ 37
anspruchs@@ 37
stock@@ 37
jederzeit 37
verschwendung 37
überwachen 37
ur-@@ 37
bildete 37
schritten 37
verschle@@ 37
gestal@@ 37
cam@@ 37
33 37
wahrscheinlicher 37
gelben 37
inder 37
unen 37
mente 37
geschle@@ 37
ladungen 37
vers 37
abschnitt 37
4.000 37
nette 37
leer 37
philosophen 37
daniel 37
seiden@@ 37
meme 37
extreme 37
illu@@ 37
verste@@ 37
eröff@@ 37
würmer 37
rollstuhl 37
spezialisten 37
ökonomischen 37
hierfür 37
klug 37
marki@@ 37
unsichtbare 37
techni@@ 37
bam@@ 37
pilze 37
erkrankung 37
zudem 37
bert 37
heiße 37
de-@@ 37
strateg@@ 37
worfen 37
ars 37
zwecke 37
kes 37
stephen 37
tatsächliche 37
clip 37
brief@@ 37
30.000 37
tom@@ 37
häufiger 37
gewä@@ 37
lichts 37
business 37
entspan@@ 37
mythos 37
studi@@ 37
pflege@@ 37
beutel@@ 37
wol@@ 37
einzigartigen 37
mysteri@@ 37
wie@@ 37
erlei@@ 37
sahara 37
kognitive 37
kliniken 37
afrikan@@ 37
säuge@@ 37
bigen 37
beset@@ 37
quer 37
aufgestellt 37
gleichungen 37
verfüg@@ 37
interview 37
archie 37
inier@@ 37
feinde 37
medikamenten 37
zugän@@ 37
smus 37
unend@@ 37
bige 37
kunde 37
spanien 37
bildeten 37
schloss 37
ame 37
aufzunehmen 37
parteien 37
behinder@@ 37
linsen 37
20-@@ 37
ue 37
globaler 37
graph 37
tempor@@ 37
dankeschön 37
eigentum 37
versagt 37
finanzi@@ 37
3-@@ 37
johnson 37
kolum@@ 37
einig 37
zün@@ 37
lebensraum 37
sowjetunion 37
glaub@@ 37
rab@@ 37
sicherzustellen 37
tam@@ 37
fügt 37
gall@@ 37
spruch 37
islamischen 37
fortschritt@@ 37
erweitert 37
ganz@@ 37
kontra@@ 37
hundert@@ 37
stabili@@ 37
klassi@@ 37
pf 37
refer@@ 37
steh@@ 37
yo@@ 37
jack 37
amerikan@@ 37
atz 37
zieh@@ 37
stig@@ 37
garage 37
seil@@ 37
rand@@ 37
klei@@ 37
fachen 37
täten 37
bewiesen 37
dörfer 37
lohnt 37
erkenntnisse 37
isierte 37
beleuchtung 36
verraten 36
selts@@ 36
bildschir@@ 36
forder@@ 36
motto 36
treff@@ 36
gerte 36
gehst 36
engagement 36
gelen@@ 36
privileg 36
beizubringen 36
tu 36
frühe 36
grundlagen 36
markieren 36
geographic 36
röhren 36
schrecken 36
prof@@ 36
typischen 36
auszusehen 36
note 36
kenntnis 36
tum 36
beseitigen 36
lokal 36
air@@ 36
heilung 36
ents 36
amy 36
übliche 36
kollab@@ 36
wün@@ 36
sische 36
gewohnheiten 36
flossen 36
auslö@@ 36
dosis 36
vol@@ 36
existierte 36
william 36
müde 36
arznei@@ 36
unbekannte 36
verwirklichen 36
pir@@ 36
eit 36
siehst 36
bezo@@ 36
stehlen 36
graus@@ 36
sauber 36
algen 36
gletscher 36
bast@@ 36
lern 36
schock 36
wiegt 36
alters 36
betrug 36
chirurg@@ 36
förderung 36
klatschen 36
interpretieren 36
elektronen 36
eisen 36
lager@@ 36
prioritäten 36
einführen 36
ll 36
grippe@@ 36
anwalt 36
gps-@@ 36
silicon 36
transparent 36
programmen 36
charlie 36
1-@@ 36
slums 36
einzig 36
teuren 36
jones 36
bauch 36
standard 36
fossilen 36
kanäle 36
integri@@ 36
italien@@ 36
gewinner 36
interface 36
nachmittag 36
kriegt 36
koran 36
mand@@ 36
alisten 36
rauchen 36
studierte 36
schlagzeilen 36
wett@@ 36
70ern 36
akte 36
feier 36
toleranz 36
c. 36
dring@@ 36
säulen 36
locken 36
riechen 36
durchs 36
flach 36
auton@@ 36
einzelnes 36
daneben 36
ener@@ 36
erschafft 36
niemandem 36
tei@@ 36
achtet 36
schwä@@ 36
ökologie 36
führe 36
stationen 36
freiwillig 36
18. 36
krankheits@@ 36
agieren 36
eingebaut 36
computers 36
2-@@ 36
olympischen 36
toller 36
fakt 36
politi@@ 36
schweren 36
truppen 36
benötigte 36
befand 36
immunsystem 36
metaphern 36
nebeneinander 36
verläuft 36
blä@@ 36
treu 36
cia 36
zutiefst 36
zehntausende 36
schäden 36
radikale 36
älen 36
überraschende 36
zustände 36
expedition 36
geschossen 36
region@@ 36
ey 36
israeli@@ 36
gestalt 36
u-bahn 36
unglaubliches 36
attra@@ 36
c-@@ 36
profession@@ 36
anzufangen 36
wüsten@@ 36
bo 36
leitet 36
cen 36
nd 36
gewohnt 36
litten 36
reak@@ 36
politischer 36
arz@@ 36
traditionen 36
endsten 36
proje@@ 36
wüsste 36
verblüffend 36
oxytocin 36
leihen 36
phy@@ 36
fielen 36
eventuell 36
bereitet 36
obere 36
einnehmen 36
akzeptiert 36
der-@@ 36
hilfs@@ 36
berücksichtigt 36
bauern@@ 36
wärmer 36
betäu@@ 36
dlicher 36
mitleid 36
kru@@ 36
hans 36
erzählungen 36
ilen 36
reformen 36
domin@@ 36
draht 36
vermuten 36
restlichen 36
vollständige 35
berühr@@ 35
use 35
vorlesen 35
gewalttä@@ 35
lik@@ 35
wahnsinnig 35
bst 35
aktivieren 35
wirtschaftlich 35
zö@@ 35
ingenieur@@ 35
eingestellt 35
antwor@@ 35
digte 35
vertrauens@@ 35
pilot 35
vas@@ 35
angestellte 35
stoß@@ 35
eingeschränkt 35
nährstoffe 35
ade 35
kurzes 35
rückwärts 35
kehren 35
runde 35
bewaff@@ 35
mikroskop@@ 35
zettel 35
blicke 35
teppich 35
substanz 35
alli@@ 35
kritische 35
lektionen 35
einfachste 35
may@@ 35
massive 35
2.@@ 35
spezifischen 35
cy@@ 35
dimensionalen 35
original 35
pizza 35
herbst 35
interessan@@ 35
drehung 35
könntest 35
abraham 35
auflösung 35
project 35
lampe 35
konstruieren 35
transportiert 35
sklaverei 35
basieren 35
breiten 35
grösse 35
weis 35
experte 35
schal@@ 35
gerichtet 35
stammes@@ 35
gewinne 35
jeff 35
klassischen 35
hollywood 35
verbesserungen 35
männ@@ 35
jugendlichen 35
chtert 35
elegan@@ 35
tatsächlichen 35
zunge 35
schwar@@ 35
schne@@ 35
sehn@@ 35
schalter 35
dosen 35
genheit 35
county 35
august 35
profit 35
jesus 35
gelegentlich 35
ir 35
genannten 35
bespre@@ 35
systematisch 35
erlaubte 35
redner 35
chor 35
psych@@ 35
geplant 35
kompli@@ 35
breit 35
0 35
stag@@ 35
börse 35
teri@@ 35
tts 35
ankommen 35
komplexes 35
prüfung 35
reiß@@ 35
zeugen 35
lation 35
wartete 35
grau@@ 35
verschwand 35
vertre@@ 35
erstmals 35
bür@@ 35
vorhan@@ 35
erneuerbare 35
schwanger 35
übersetzung 35
nien 35
typisch 35
verwaltung 35
anzieh@@ 35
genehmi@@ 35
bislang 35
erlernen 35
ermutigen 35
iten 35
5. 35
gesetzen 35
afgh@@ 35
profil 35
schließ@@ 35
minim@@ 35
schön@@ 35
ressource 35
tations@@ 35
ernsthaf@@ 35
gün@@ 35
vorstell@@ 35
bildungssystem 35
förmige 35
mme 35
weltraum@@ 35
feuern 35
alkohol 35
ergebnissen 35
lei 35
anzeigen 35
virtuelle 35
primaten 35
bundes@@ 35
finanzielle 35
wichtigkeit 35
lee 35
gegner 35
gross 35
eineinhalb 35
aßen 35
1950 35
konstru@@ 35
verzweifelt 35
epidemi@@ 35
nes 35
nungs@@ 35
schöpf@@ 35
installation 35
anderswo 35
fessel@@ 35
zyklus 35
getrieben 35
krankenhäuser 35
digit@@ 35
prototyp 35
aufwuchs 35
mod@@ 35
fär@@ 35
schlü@@ 35
gemeint 35
st. 35
47 35
boden@@ 35
lab 35
sichti@@ 35
spinnen 35
schwein@@ 35
immun@@ 35
bezirk 35
aro@@ 35
geschaut 35
my 35
ling@@ 35
kind@@ 35
everest 35
ba 35
läufe 35
tausend@@ 35
schwimmt 35
europäische 35
chert 35
wesentliche 35
ye@@ 35
mike 35
kino 35
ethik 35
regu@@ 35
kopiert 35
vereinfa@@ 35
jegliche 35
chao@@ 35
blinden 35
symmetr@@ 35
kan 35
vergrößert 35
großem 35
mlich 35
respekt@@ 34
tour@@ 34
gigen 34
öko@@ 34
tinte 34
arbeitsplätze 34
es-@@ 34
schnellen 34
kilometern 34
connectome 34
stücken 34
gen-@@ 34
schwamm 34
perfe@@ 34
versetzt 34
lauter 34
präsen@@ 34
renn@@ 34
gli@@ 34
hals 34
kämen 34
kapu@@ 34
individuellen 34
kers 34
campus 34
anwesenheit 34
leise 34
ökonomische 34
archi@@ 34
w-@@ 34
model 34
größen 34
gesam@@ 34
spu@@ 34
probiert 34
lers 34
kleinste 34
vögeln 34
36 34
schni@@ 34
mexi@@ 34
poin@@ 34
vietnam@@ 34
verteidigung 34
kommentar 34
elektromagne@@ 34
tur 34
ehrgei@@ 34
repar@@ 34
tuch 34
chts 34
konstruiert 34
diskutiert 34
künstlern 34
redete 34
synthese 34
beeindruckende 34
offensichtliche 34
heiß@@ 34
gkeits@@ 34
nuklear@@ 34
automobil@@ 34
demon@@ 34
schale 34
becher 34
betra@@ 34
menten 34
lewis 34
tasman@@ 34
bedeutungs@@ 34
klassifi@@ 34
eigentlichen 34
kran@@ 34
diagnosti@@ 34
beschaff@@ 34
batterien 34
dynam@@ 34
brennstoffe 34
galerie 34
entwicklungshilfe 34
ol 34
hungrig 34
tal 34
dunkler 34
terte 34
woraus 34
begeg@@ 34
unendliche 34
umfasst 34
fühl@@ 34
verkehr@@ 34
füllt 34
ffel 34
bausteine 34
voranzu@@ 34
gehir@@ 34
unglücklich 34
verkauf@@ 34
abdruck 34
steten 34
öff@@ 34
ablauf 34
klare 34
problem@@ 34
leser 34
einerseits 34
maler 34
zusammenbruch 34
historische 34
biert 34
riesig 34
geschi@@ 34
stum@@ 34
herzlichen 34
cin@@ 34
proji@@ 34
säugetiere 34
llt 34
verzerr@@ 34
authenti@@ 34
ktivität 34
sterblichkeit 34
ewig 34
ag 34
reifen 34
synthe@@ 34
matrix 34
klang@@ 34
mani@@ 34
bä@@ 34
evolution@@ 34
treffe 34
regelmäß@@ 34
unsichtbaren 34
stisches 34
clever@@ 34
üblicherweise 34
rohstoffe 34
generell 34
experimenten 34
sinnvoll 34
stattung 34
sowieso 34
mühe 34
edi@@ 34
mutig 34
springt 34
transformation 34
turen 34
nahr@@ 34
block@@ 34
spezial@@ 34
defi@@ 34
ungewöhnliche 34
sonde 34
landet 34
anzuwenden 34
este 34
chips 34
cal@@ 34
mandela 34
generieren 34
kortex 34
markiert 34
außergewöhnlichen 34
eurer 34
einstellungen 34
baue 34
republik 34
gang@@ 34
fahre 34
angebracht 34
gül@@ 34
ökosysteme 34
ti-@@ 34
analysiert 34
distanz 34
pharma@@ 34
toiletten 34
premierminister 34
gestohlen 34
steinen 34
nähern 34
militärische 34
konzentrierte 34
wildnis 34
zz@@ 34
weit@@ 34
angeb@@ 34
trieben 34
link 34
kong 34
port@@ 34
linse 34
regenwald 34
flücht@@ 34
geformt 34
eurem 34
mathematischen 34
hob 34
dacht 34
berührung 34
ursachen 34
mmt 34
ration@@ 34
anhören 34
harten 34
kommentare 34
forschen 34
immerhin 34
kontrolli@@ 34
besserer 34
carolina 34
öse 33
produkt@@ 33
kostenlose 33
plasti@@ 33
beteiligen 33
chens 33
herkommen 33
auslösen 33
zurecht@@ 33
sträger 33
trennung 33
-jähriger 33
aids-@@ 33
genau@@ 33
ierung 33
haushalt 33
möchtest 33
komplex@@ 33
gut@@ 33
schachtel 33
dritt@@ 33
ände 33
tägliche 33
yer 33
festzustellen 33
tik@@ 33
innova@@ 33
jon@@ 33
vorbild 33
einhalb 33
anrufen 33
baten 33
geistes 33
überein@@ 33
staates 33
angiogenese 33
flüsse 33
skiz@@ 33
stürzen 33
gründeten 33
wahrheiten 33
tent@@ 33
line 33
ulen 33
wonach 33
klaren 33
stärksten 33
weitaus 33
hingegen 33
wurzel@@ 33
einander@@ 33
geschla@@ 33
woll@@ 33
struktur@@ 33
geru@@ 33
beru@@ 33
entwickler 33
200.000 33
diagno@@ 33
stapel 33
ücken 33
3.@@ 33
arbeitsplatz 33
übernommen 33
trinkwasser 33
bakteri@@ 33
hunderttausende 33
festen 33
isoliert 33
metr@@ 33
angewiesen 33
ev@@ 33
gezeichnet 33
lasen 33
gruppen@@ 33
erfolgreiche 33
denker 33
vermu@@ 33
lkw 33
konz@@ 33
vorschlagen 33
40@@ 33
klimawandels 33
bewunder@@ 33
steuer 33
erzähl@@ 33
körperliche 33
führungsper@@ 33
gif@@ 33
herz-@@ 33
bestimmtes 33
1999 33
maschin@@ 33
patent@@ 33
durchschnittlichen 33
60er 33
scan 33
datenbank 33
transportieren 33
höhen 33
lebensunterhalt 33
richtlinien 33
schiffe 33
agenda 33
u-@@ 33
teurer 33
veröffentlichte 33
kleinsten 33
bzw. 33
königreich 33
stieß 33
stätte 33
mäuse 33
chinesisch 33
ktiert 33
delfine 33
joseph 33
harmonie 33
git@@ 33
ner-@@ 33
enge 33
identifiziert 33
orbit 33
platzieren 33
verwal@@ 33
team@@ 33
demokratische 33
sichere 33
enkel 33
ausprobiert 33
wat@@ 33
beobachtungen 33
wählten 33
pä@@ 33
andrew 33
erstmal 33
atlantik 33
fasste 33
kollektiven 33
gebrauchen 33
monster 33
experimenti@@ 33
herde 33
effektiver 33
erscheinung 33
übers 33
höhlen 33
vers@@ 33
orientiert 33
lust 33
enten@@ 33
physikalischen 33
verab@@ 33
pc 33
linear@@ 33
küsten@@ 33
ziger 33
beg@@ 33
glicher 33
oli@@ 33
erleb@@ 33
genossen 33
demonstrieren 33
ates 33
künstlich 33
anspruch 33
variationen 33
dd@@ 33
10. 33
expor@@ 33
pille 33
fran@@ 33
gescho@@ 33
häss@@ 33
path@@ 33
hülle 33
gewaltig 33
betreffen 33
jün@@ 33
polizisten 33
berater 33
koloni@@ 33
angemessen@@ 33
saubere 33
kunststoff 33
flüge 33
ansonsten 33
hem@@ 33
bewusst@@ 33
ore 33
merkwürdig 33
gött@@ 33
sauce 33
mie 33
eich@@ 33
pioni@@ 33
isch-@@ 33
schweizer 33
ski 33
institution@@ 33
ange 33
sprechend 33
agent@@ 33
gespeichert 33
keinerlei 33
zeitgenöss@@ 33
3d 33
atz@@ 33
konver@@ 33
steckte 33
llig 33
hong 33
lischen 33
vereinen 33
manipulieren 33
geringer 33
allein@@ 33
kluge 33
schrift@@ 33
einbeziehen 33
ao 33
männliche 33
lingen 33
bohr@@ 33
klinischen 33
nam@@ 33
versionen 33
stin@@ 33
tippen 33
ane 33
innenstadt 33
nigeri@@ 33
jugend@@ 33
krankenhäusern 33
abed 33
90ern 33
north 33
1998 33
geglaubt 32
zeitspanne 32
leucht@@ 32
glamourös 32
katho@@ 32
süd-@@ 32
robo@@ 32
schaffung 32
anwen@@ 32
direkte 32
baumkr@@ 32
bach 32
dun@@ 32
wunden 32
zusammenfassen 32
tsunami 32
zugrunde 32
strang 32
formu@@ 32
bien 32
messungen 32
einfallen 32
schro@@ 32
amt 32
pilz 32
thei@@ 32
ellen@@ 32
nik 32
denkens 32
bestandteile 32
scanner 32
schwellen@@ 32
ere@@ 32
nick 32
liegende 32
verwei@@ 32
vagina 32
einigt 32
füttern 32
vergewaltigt 32
ch-@@ 32
sprang 32
knü@@ 32
bedeuts@@ 32
amer 32
lunge 32
vertreter 32
ermu@@ 32
anschließend 32
½ 32
bab@@ 32
flö@@ 32
7. 32
verpflich@@ 32
übertrag@@ 32
digungen 32
2,5 32
flei@@ 32
scher@@ 32
40.000 32
kau@@ 32
schweigen 32
vern@@ 32
spannen@@ 32
3,@@ 32
visualisierung 32
muslimischen 32
en. 32
vertei@@ 32
massiven 32
dauernd 32
bemühen 32
physisch 32
melodie 32
beschul@@ 32
intellektuelle 32
gesunken 32
tendieren 32
geprägt 32
wohnzimmer 32
tter@@ 32
untereinander 32
rotten 32
brauch@@ 32
phil@@ 32
schwachen 32
v. 32
tumore 32
infi@@ 32
schockier@@ 32
able@@ 32
kerin 32
auszuprobieren 32
klicken 32
urban@@ 32
phänomen@@ 32
verbren@@ 32
schad@@ 32
anwes@@ 32
künst@@ 32
glau@@ 32
geschätzt 32
belie@@ 32
steck@@ 32
sammler 32
hnung 32
ok@@ 32
gewaltigen 32
sendungen 32
klänge 32
jun@@ 32
feynman 32
biomasse 32
exponentiell 32
skosten 32
mol@@ 32
autobahn 32
ins@@ 32
komische 32
grun@@ 32
angewandt 32
tive 32
partnerschaft 32
raums 32
angewendet 32
szenario 32
schlicht 32
chem 32
favor@@ 32
kandi@@ 32
daraufhin 32
muster@@ 32
grei@@ 32
ösen 32
gran@@ 32
einzelner 32
fürchten 32
vereint 32
vergleicht 32
bildes 32
absolu@@ 32
ie-@@ 32
minus 32
ausdrucks@@ 32
u.s. 32
trugen 32
lichere 32
flügel@@ 32
japanischen 32
flam@@ 32
jüngere 32
celsius 32
wort@@ 32
konkurrenz 32
hühnchen 32
plattformen 32
sym@@ 32
traurige 32
polen 32
steuerung 32
sammelten 32
amerikanischer 32
historischen 32
kost@@ 32
evolutions@@ 32
hacker 32
bereitschaft 32
schriften 32
erinn@@ 32
feuerwehr@@ 32
pur@@ 32
beton 32
union 32
gesteu@@ 32
+ 32
gor@@ 32
tv-@@ 32
zimmer@@ 32
codes 32
ingenieuren 32
16. 32
mend 32
populationen 32
malte 32
cs 32
herkömm@@ 32
durften 32
behinderung 32
sig@@ 32
götter 32
negativen 32
frage@@ 32
stan 32
beurteilen 32
herangehensweise 32
kleben 32
25@@ 32
ckten 32
inierte 32
un-@@ 32
tv 32
offensicht@@ 32
entschuldigen 32
ellem 32
sungs@@ 32
öffentlicher 32
getreide 32
schaff@@ 32
hun@@ 32
ausgeht 32
squ@@ 32
deutschen 32
wiegen 32
abgele@@ 32
chse 32
laufbahn 32
biegen 32
behinderungen 32
erklärungen 32
com@@ 32
enter 32
märz 32
existi@@ 32
tänzer 32
nordpol 32
schaltet 32
entwicklungen 32
zugriff 32
spinn@@ 32
tzte 32
dörfern 32
demü@@ 32
bedingung 32
bemühungen 32
theoretisch 32
effiziente 32
freun@@ 32
konversation 32
teller 32
spi@@ 32
begeisterung 32
schot@@ 32
karto@@ 32
wolken@@ 32
schil@@ 32
nacht@@ 32
vergif@@ 31
nutzer 31
ernte 31
skep@@ 31
verdäch@@ 31
umgesetzt 31
ad 31
rou@@ 31
schaft@@ 31
pfte 31
tauchten 31
verstärkt 31
24@@ 31
rob@@ 31
veränderten 31
schlüsse 31
verzwei@@ 31
pfeifen 31
staub@@ 31
unerwar@@ 31
bezogen 31
passte 31
erfüllung 31
98 31
potenzi@@ 31
oper 31
zeln 31
hardware 31
apfel 31
gren@@ 31
lud 31
bet@@ 31
interessierte 31
hole 31
ball-@@ 31
interaktionen 31
kollege 31
wal 31
einbringen 31
skla@@ 31
kommst 31
kräften 31
lationen 31
ams 31
anre@@ 31
starren 31
demokra@@ 31
übersehen 31
kondome 31
periode 31
solches 31
zulegen 31
persönlicher 31
fundament 31
phosphor 31
argumentieren 31
schub@@ 31
unterschiedlicher 31
wohnt 31
á@@ 31
respektieren 31
visuell 31
sensor@@ 31
hoff@@ 31
eltern@@ 31
verleihen 31
mumbai 31
air 31
produzenten 31
äng@@ 31
spo@@ 31
essenti@@ 31
ian 31
brech@@ 31
durchschnitts@@ 31
entle@@ 31
halfen 31
spart 31
schmetter@@ 31
tigkeits@@ 31
cricket 31
starkes 31
schwung 31
abschließend 31
herstell@@ 31
umher 31
beeinflus@@ 31
sorgfältig 31
friedens@@ 31
aufhalten 31
ck-@@ 31
jagd 31
ansprechen 31
cola 31
langzeit@@ 31
dutzende 31
zero 31
way 31
route 31
demokraten 31
takti@@ 31
sammelte 31
koennen 31
gehirnen 31
sun@@ 31
pt@@ 31
gesundheitsversorgung 31
abhängt 31
dünne 31
stätten 31
ausgezeichnet 31
stik 31
physikalische 31
finan@@ 31
leder 31
stur@@ 31
34 31
ran 31
schrän@@ 31
ös 31
l-@@ 31
kognitiven 31
l.a. 31
rekor@@ 31
mahlzeiten 31
paradigma 31
alls 31
bequ@@ 31
tödliche 31
november 31
internet-@@ 31
stands@@ 31
stung 31
magazine 31
scott 31
musli@@ 31
lot@@ 31
fledermäuse 31
wahrhaftig 31
grundschule 31
2011 31
affen@@ 31
last@@ 31
anony@@ 31
gramme 31
geschaltet 31
story 31
veröffentlichten 31
verwen@@ 31
gerungen 31
43 31
blickt 31
aristoteles 31
irr@@ 31
schritt@@ 31
verschaffen 31
keller 31
heimatstadt 31
u-boot 31
mens 31
tän@@ 31
talenti@@ 31
seti 31
ky@@ 31
gandhi 31
eti@@ 31
kriminalität 31
will@@ 31
deli@@ 31
würfel 31
alex 31
dex 31
aum 31
verschieben 31
fähigen 31
sion 31
häl@@ 31
entkommen 31
chemotherapie 31
blättern 31
furchtbar 31
jay 31
bezahl@@ 31
absichten 31
schaffe 31
joshua 31
fertigen 31
neigung 31
dringt 31
warte@@ 31
foto@@ 31
ore@@ 31
herbei@@ 31
ik@@ 31
bürgerkrieg 31
arthur 31
met@@ 31
verhaltensweisen 31
sing@@ 31
gelandet 31
ströme 31
prozentsatz 31
wid@@ 31
meeting 31
durchzu@@ 31
schöpfung 31
spunkte 31
benzin 31
gent@@ 31
polizist 31
einkaufs@@ 31
frustri@@ 31
durchgehen 31
nutze 31
dest 31
wachsenden 31
baby@@ 31
spinnen@@ 31
stiges 31
eh@@ 31
reali@@ 31
brem@@ 31
bearbeiten 31
abhängi@@ 31
delt 31
30@@ 31
elektronischen 31
begriffe 31
1900 31
wacht 31
ron 31
teilzunehmen 31
belei@@ 31
ativen 31
sichern 31
dicke 31
sorte 31
ozeanen 31
sproble@@ 31
klappen 31
artenvielfalt 31
ttet 31
benach@@ 31
ästhe@@ 31
singapur 31
geschwindi@@ 31
ärer 31
gedichte 31
niedriger 30
schließe 30
lische 30
weihnacht@@ 30
demonstration 30
chines@@ 30
verpflichtet 30
multipli@@ 30
gläu@@ 30
spektakul@@ 30
ehren@@ 30
klavier 30
liter@@ 30
stränge 30
wenigsten 30
baum@@ 30
trauri@@ 30
klü@@ 30
richt@@ 30
kris@@ 30
rettet 30
umsonst 30
optionen 30
tötete 30
burg 30
krokodi@@ 30
ble@@ 30
amer@@ 30
therapien 30
schnittstelle 30
trie@@ 30
mine 30
rente 30
ktives 30
drängt 30
angri@@ 30
rational 30
unan@@ 30
chem@@ 30
fur@@ 30
völker 30
rett@@ 30
rufe 30
krankungen 30
dollars 30
ansteck@@ 30
asth@@ 30
dinosauri@@ 30
huhn 30
merkte 30
inji@@ 30
geradezu 30
anfan@@ 30
buchstab@@ 30
intellektuellen 30
gewöhn@@ 30
schafter 30
jh 30
roboter@@ 30
überfluss 30
flugzeug@@ 30
ergän@@ 30
ausgelöst 30
erschienen 30
spontan 30
ironie 30
rückgang 30
sun 30
praktische 30
freundschaft 30
angeschlossen 30
delhi 30
liebling@@ 30
jedermann 30
bruchteil 30
food 30
scheiße 30
wurzel 30
poten@@ 30
molekular@@ 30
hmm 30
gering 30
tigem 30
verwirrt 30
exo@@ 30
zähnen 30
flagge 30
strahlt 30
teilneh@@ 30
publi@@ 30
ökonom@@ 30
betrachteten 30
lizen@@ 30
fotografen 30
schliessen 30
aktivisten 30
möbel 30
erfüll@@ 30
indonesien 30
gänger 30
durchaus 30
gungen 30
tzten 30
forschern 30
aufgezeichnet 30
bibliothe@@ 30
smann 30
benannt 30
inne@@ 30
schre@@ 30
frosch 30
bücher@@ 30
gesünder 30
melden 30
konser@@ 30
steigerung 30
rauschen 30
bemerkenswer@@ 30
paaren 30
bay 30
schwelle 30
frühstück 30
fried@@ 30
kühlt 30
studierende 30
sens 30
schlägen 30
weiterentwickelt 30
kauften 30
stoffwechsel 30
life 30
fantastisches 30
temperatur@@ 30
hüfte 30
fleck 30
nü@@ 30
mot@@ 30
logo 30
verzö@@ 30
fan 30
stabil 30
teres 30
hiermit 30
begeben 30
kas 30
sigkeit 30
erle@@ 30
milo 30
funktionier@@ 30
älterwerden 30
aktiv@@ 30
spazier@@ 30
proble@@ 30
köni@@ 30
absichtlich 30
gespräch@@ 30
kritiker 30
zielt 30
kategorie 30
tedtalks 30
hinterher 30
urteil 30
zurecht 30
entwur@@ 30
überdenken 30
dunkel@@ 30
ausland 30
stande 30
beunruhigt 30
röhre 30
teig 30
besit@@ 30
eintreten 30
dia 30
aussagen 30
diagramme 30
stört 30
quet@@ 30
gravitation 30
parlament 30
ratte 30
instal@@ 30
erie 30
neurowissenschaft 30
zahlt 30
informa@@ 30
agrar@@ 30
eck@@ 30
romantische 30
brennstoff 30
sts 30
vermei@@ 30
gedul@@ 30
versichern 30
voraussetzungen 30
verletzen 30
partikel 30
demselben 30
ankam 30
lea@@ 30
jahrelang 30
ruhe@@ 30
rechner@@ 30
beschaffen 30
berat@@ 30
oftmals 30
ya 30
spinne 30
kostengün@@ 30
gründung 30
krü@@ 30
jugendliche 30
endgül@@ 30
kühlen 30
fün@@ 30
erdgas 30
angelegenheiten 30
aufgehört 30
130 30
astronomen 30
erwachsen 30
mäusen 30
tinten@@ 30
historisch 29
pfe 29
läden 29
beschleunig@@ 29
hnten 29
verlaufen 29
zerstör@@ 29
ry 29
mutationen 29
ausgelöscht 29
treibhausgase 29
jahrhunderte 29
klassen 29
these 29
ett 29
konsu@@ 29
more 29
kreislauf@@ 29
trocken@@ 29
repräsent@@ 29
soll@@ 29
drei-@@ 29
dokumente 29
türen 29
vorkommt 29
le-@@ 29
bestätigt 29
urlaub 29
angeblich 29
untersuchten 29
gesten 29
fundamentale 29
iss 29
tie@@ 29
schlangen 29
durchfall 29
juli 29
rick 29
versuchs@@ 29
beein@@ 29
identifi@@ 29
speku@@ 29
betrachte 29
fischerei 29
flüssig@@ 29
regal 29
menschenrechte 29
erstaunliches 29
identisch 29
meeresspiegel 29
schnitten 29
schneidet 29
zwill@@ 29
off@@ 29
schlä@@ 29
fst 29
gü@@ 29
draht@@ 29
und-@@ 29
prothese 29
müttern 29
flugzeugen 29
kollabor@@ 29
new@@ 29
app 29
gigan@@ 29
grafiken 29
hawaii 29
freizeit 29
fertigt 29
000-@@ 29
sl@@ 29
weiblichen 29
aktivi@@ 29
räu@@ 29
beobachtete 29
wilde 29
verur@@ 29
unmögliche 29
handlungs@@ 29
wald@@ 29
benutzer 29
wasserstoff@@ 29
himm@@ 29
jerusalem 29
simulieren 29
hofft 29
heli@@ 29
stattfand 29
nes@@ 29
attac@@ 29
gepar@@ 29
asen 29
alpha 29
zusammengefasst 29
benennen 29
sab@@ 29
tigten 29
gefühlen 29
kna@@ 29
niedrigen 29
tas@@ 29
schätzungen 29
anfühlt 29
robotik 29
sang 29
impfstoffe 29
ick 29
erdoberfläche 29
start@@ 29
rom 29
konfron@@ 29
klick 29
diät 29
illegal 29
1997 29
geschlechts@@ 29
unternehmens@@ 29
philosoph 29
lossen@@ 29
wk 29
johnny 29
jäger 29
modifi@@ 29
craig 29
aussuchen 29
spass 29
software-@@ 29
sprechende 29
argumente 29
delph@@ 29
schriftstell@@ 29
ereig@@ 29
strukturi@@ 29
grösser 29
zylinder 29
regime 29
verwendete 29
versteckten 29
wählt 29
zeuge 29
applaus 29
kolli@@ 29
cha@@ 29
72 29
sexu@@ 29
blitz 29
erwischt 29
leonardo 29
schuhen 29
nutzte 29
verlässt 29
verfügt 29
master 29
versich@@ 29
juden 29
bela@@ 29
cre@@ 29
nano@@ 29
telefone 29
dsch@@ 29
überein 29
schaltkreise 29
lande 29
extremen 29
umgebracht 29
salz 29
bangladesch 29
schö@@ 29
extre@@ 29
nebel 29
rücken@@ 29
verkauften 29
parameter 29
vorhersage 29
jüngeren 29
nervensystem 29
betre@@ 29
herumzu@@ 29
betrachtung 29
walmart 29
passend 29
fiktion 29
stewart 29
robotern 29
ise 29
lim@@ 29
sichtlich 29
hybri@@ 29
unbekannten 29
brand 29
kontin@@ 29
erschein@@ 29
elektr@@ 29
dru@@ 29
verbün@@ 29
by 29
gewähr@@ 29
libellen 29
baseball 29
grafi@@ 29
weiterzu@@ 29
stirn 29
erläu@@ 29
set 29
korb 29
ausgehend 29
1994 29
sonen 29
empfangen 29
geset@@ 29
verantwortungs@@ 29
verpasst 29
seltsamen 29
verwü@@ 29
scheu@@ 29
konstan@@ 29
kali@@ 29
loswerden 29
rock 29
hefe 29
ty@@ 29
angriffe 29
intuitiv 29
filmemacher 29
dbar 29
explo@@ 29
erschaffung 29
karti@@ 29
passi@@ 29
enttäuscht 29
sätzen 29
ökologischen 29
schmei@@ 29
blas@@ 29
tastatur 29
zertifi@@ 29
perspektiven 29
justi@@ 29
kriminelle 29
weihnachts@@ 29
interpre@@ 29
milch@@ 29
sischer 29
aufstellen 29
15. 29
posi@@ 29
integrieren 29
ausgestattet 29
angen 29
setzung 29
vernachlässi@@ 29
krebszellen 29
rover 29
wähl@@ 29
füll@@ 29
palästinen@@ 29
ähnlicher 29
erwecken 28
langfristige 28
mär@@ 28
geholt 28
kilo@@ 28
wahn@@ 28
entsprechen 28
jü@@ 28
mön@@ 28
ansätze 28
tnissen 28
bie 28
genie@@ 28
seattle 28
französischen 28
bun@@ 28
kommuni@@ 28
koralle 28
schalt@@ 28
paare 28
well 28
atomen 28
bag@@ 28
mitmachen 28
globales 28
gemerkt 28
gesellschaft@@ 28
tesla 28
voran 28
v-@@ 28
betrag 28
stert 28
überblick 28
korn 28
spunkt 28
straß@@ 28
peri@@ 28
don 28
ause 28
beinhalten 28
niedrige 28
bergsteiger 28
setz@@ 28
hervorragend 28
wahrgenommen 28
einsatz@@ 28
organische 28
pfer 28
wertvolle 28
sklaven 28
blue 28
schizophrenie 28
fingern 28
38 28
kämpfe 28
absolute 28
mam@@ 28
chin@@ 28
erkannten 28
ktions@@ 28
hungern 28
witze 28
verfassung 28
beliebigen 28
hasse 28
garten@@ 28
übrigen 28
37 28
ängen 28
annähernd 28
sionen 28
höchst@@ 28
hausaufgaben 28
erweiterung 28
magnet@@ 28
top-@@ 28
künste 28
reporter 28
vorgehensweise 28
winter@@ 28
comedy 28
verringert 28
ausbreiten 28
normal@@ 28
landkarte 28
bewerkstelligen 28
send 28
10-@@ 28
kels 28
errichtet 28
rezession 28
aß 28
twi@@ 28
grosser 28
relation 28
dekor@@ 28
vorbereitung 28
streu@@ 28
auswei@@ 28
2020 28
hervorbringen 28
herausra@@ 28
wirtschaftlicher 28
ernste 28
reihen 28
bauch@@ 28
reduktion 28
panzer 28
cloud 28
ski@@ 28
kanischen 28
ora 28
organisierte 28
parkplatz 28
entscheidenden 28
wies 28
dnungen 28
südlich 28
graph@@ 28
dr 28
paar@@ 28
wiederaufbau 28
dick@@ 28
fäch@@ 28
dreidimensionale 28
zweig 28
lokal@@ 28
molekulare 28
hell 28
spiegelt 28
diplomatie 28
frustriert 28
labor@@ 28
patientin 28
194@@ 28
wiesen 28
französische 28
brennen 28
ermöglichte 28
forma@@ 28
schirm 28
absoluten 28
geräusch@@ 28
infe@@ 28
agi@@ 28
schatz 28
überflu@@ 28
brilli@@ 28
wachsen@@ 28
ont@@ 28
vollziehen 28
30-@@ 28
abspielen 28
verwunder@@ 28
motiviert 28
banker 28
d.h. 28
krater 28
bevorzugen 28
beunruhi@@ 28
meinten 28
lab@@ 28
halle 28
itäts@@ 28
besorg@@ 28
hack@@ 28
state 28
befreit 28
fange 28
ueber 28
krümm@@ 28
beherrschen 28
kus 28
anstren@@ 28
ärger 28
sylvia 28
beschrieb 28
mäd@@ 28
flecken 28
kohlen@@ 28
gegenwärtigen 28
kammer 28
impuls 28
verfü@@ 28
elo@@ 28
laut@@ 28
begehen 28
kommun@@ 28
knac@@ 28
essenz 28
geste 28
imm@@ 28
gliche 28
gegensei@@ 28
musikalische 28
4,@@ 28
tansania 28
alb@@ 28
phasen 28
haf@@ 28
schwach 28
gö@@ 28
vin 28
interess@@ 28
schweiz 28
american 28
beschü@@ 28
jamie 28
fluss@@ 28
nadeln 28
patri@@ 28
hren@@ 28
5000 28
trop@@ 28
paradox 28
drü@@ 28
hauptstadt 28
stens 28
architektonische 28
gestoßen 28
farmer 28
quote 28
beamten 28
appar@@ 28
verwende 28
kriegs 28
gos 28
olog@@ 28
stol@@ 28
gespannt 28
beruhi@@ 28
dazu@@ 28
ty 28
zern 28
betreu@@ 28
beeindruck@@ 28
health 28
do-@@ 28
zu-@@ 28
beschäftigung 28
geschlossen@@ 28
einfach@@ 28
bb@@ 28
wissenschaftlerin 28
ausrottung 28
verblüff@@ 28
sternen@@ 28
menden 28
ohr@@ 28
führer@@ 28
größtenteils 28
sonn@@ 28
tatsachen 28
behauptet 28
äch@@ 28
gelungen 28
essens@@ 28
han 28
arbeiter@@ 28
hoffnungen 28
telef@@ 28
square 28
2030 28
konflikten 28
hosen 28
sexy 28
sequenzen 28
entwickel@@ 28
einschränkungen 28
bewahr@@ 28
ral 28
gesicht@@ 28
krankenschwestern 28
horizon@@ 28
bewahrt 28
netten 28
lücken 28
mutation 28
verkab@@ 27
designern 27
geschö@@ 27
gitter 27
ablen@@ 27
leuchtet 27
verfol@@ 27
liebten 27
alie 27
quar@@ 27
anerkennen 27
boot@@ 27
larven 27
überwachung 27
inspirierend 27
künstlichen 27
entschul@@ 27
rannte 27
gelan@@ 27
widerstands@@ 27
ille 27
plä@@ 27
austauschen 27
einzugehen 27
platziert 27
übergehen 27
debat@@ 27
barmherzigkeit 27
entschloss 27
zwischenzeit 27
verpflichtung 27
femini@@ 27
messung 27
stehende 27
dimension@@ 27
überlegt 27
thunfisch 27
windenergie 27
kauf 27
kelly 27
umwandeln 27
griechen 27
archiv 27
herab@@ 27
abo@@ 27
verhältnisse 27
erlebte 27
bren@@ 27
jä@@ 27
eingenommen 27
bekannter 27
teilungen 27
350 27
pfi@@ 27
freier 27
empfänger 27
erkläre 27
analo@@ 27
phant@@ 27
helium 27
sichtbaren 27
ess 27
agiert 27
bürgern 27
grau 27
konsequenz 27
hh 27
nder 27
mut@@ 27
schmeckt 27
jahrzehn@@ 27
latein@@ 27
quadratmeter 27
käse 27
vakuum 27
lands 27
jüngste 27
körperlichen 27
improvisi@@ 27
gebau@@ 27
hnte 27
thailand 27
tun@@ 27
stimmung 27
mörder 27
zw@@ 27
ehen 27
landung 27
koffer 27
transformieren 27
one-@@ 27
derselbe 27
erfolgs@@ 27
dopamin 27
kürz@@ 27
gelo@@ 27
sky 27
webseiten 27
freitag 27
angezogen 27
argent@@ 27
space 27
hafter 27
benzin@@ 27
verluste 27
äne 27
schreiten 27
tiefsten 27
verschlüssel@@ 27
jane 27
gebir@@ 27
talente 27
fusion 27
mrt 27
einfühlungsvermögen 27
h. 27
persönliches 27
gay 27
stürzt 27
itä@@ 27
tätig 27
tradition@@ 27
schläft 27
schlie@@ 27
winde 27
bezahlung 27
tteln 27
christen 27
benutzer@@ 27
zwang 27
gangs 27
comic@@ 27
alem 27
adresse 27
kraftwerk 27
unbeha@@ 27
kamel 27
sarah 27
gegenwärtige 27
ultimative 27
aufgefallen 27
partnern 27
unterschied@@ 27
é 27
befolgen 27
fälsch@@ 27
äres 27
wohlergehen 27
feuchtigkeit 27
kreuz 27
index 27
sierten 27
getreten 27
schuh 27
betrügen 27
vertreten 27
nicht-nullsummen@@ 27
rechte@@ 27
rigi@@ 27
moskitos 27
rückkehr 27
child 27
wählte 27
palä@@ 27
peinlich 27
bestimm@@ 27
gießen 27
spürt 27
stillstand 27
medikam@@ 27
here 27
probanden 27
ratet 27
rasch 27
allmählich 27
richtete 27
erwartete 27
informiert 27
charakter@@ 27
einfa@@ 27
intensität 27
beweist 27
tempel 27
aben 27
rigen 27
ausgestellt 27
übersetz@@ 27
warst 27
4-@@ 27
ständigen 27
irland 27
besuche 27
insulin@@ 27
pumpe 27
weib@@ 27
bestätigen 27
glie@@ 27
äußeren 27
schwein 27
feuert 27
plötz@@ 27
projektes 27
kosmos 27
31 27
entsch@@ 27
ausnahmen 27
ufer 27
kende 27
verkäufer 27
astro@@ 27
mächtigen 27
älteste 27
wochen@@ 27
hindern 27
kredi@@ 27
ausrichten 27
vorzubereiten 27
bearbeitet 27
lautete 27
kil@@ 27
apparat 27
pop@@ 27
schliesslich 27
ostküste 27
ermutigt 27
tismus 27
junges 27
modern 27
abkommen 27
einzigarti@@ 27
mono@@ 27
handel@@ 27
ses@@ 27
box@@ 27
arktischen 27
ffer 27
taucher 27
beher@@ 27
onik 27
verhandlungen 27
sierra 27
mammographie 27
stimulation 27
verpassen 27
schultern 27
bote 27
beraten 27
hühn@@ 27
organ@@ 27
ästhetik 27
sün@@ 27
verhaltens 27
skop@@ 27
zusammenkommen 27
alice 27
sisches 27
teilhaben 27
einladen 27
katalo@@ 27
großarti@@ 27
mikro-@@ 27
cham@@ 27
könig@@ 27
bucht 27
non@@ 27
verstärken 27
4. 27
neuem 27
pillen 27
kat 27
standort 27
üblichen 27
einkaufen 27
signifi@@ 27
kanten 27
willi@@ 27
neurolog@@ 27
schlimme 27
nachher 27
weizen 27
desig@@ 27
küchen@@ 27
dio@@ 27
irgendeinen 27
einladung 27
zweit@@ 27
gebilde 27
verknüpfen 27
hohem 27
erzähl 27
normaler 27
rechnet 27
inger 27
helden@@ 27
teena@@ 27
ultraschall 27
verwund@@ 27
punk@@ 27
² 27
tunnel 27
visionen 27
mammo@@ 27
konto 27
vollem 27
schluss@@ 27
schall 27
gefilmt 27
mahlzeit 27
rob 27
abhol@@ 27
klär@@ 27
überzeugungen 27
fahrten 27
kocht 27
beach 27
bevorzu@@ 27
priester 27
zwei-@@ 27
erender 27
42 27
redeten 27
erheblich 27
temperaturen 27
ath@@ 27
refle@@ 27
reservat 27
social 27
vollstän@@ 27
hat@@ 27
simu@@ 27
belohnt 27
zerbrech@@ 27
verla@@ 27
ziem@@ 27
reaktor 27
kopenhagen 27
beratung 27
chile 27
pert 27
anderson 27
wochenende 27
ai 27
south 27
pfel 27
kontinenten 26
spri@@ 26
astronom@@ 26
tags 26
männlichen 26
athle@@ 26
doppelte 26
vornehmen 26
professionelle 26
schnellsten 26
rollt 26
nervenzelle 26
wolle 26
brauch 26
selbstorgan@@ 26
mall 26
beschädigt 26
lustige 26
alltäglichen 26
außerordentlich 26
alan 26
geren 26
syn@@ 26
befestigt 26
rosa 26
chel 26
lächer@@ 26
win 26
verlangsamen 26
optische 26
stich@@ 26
jungfrau 26
anz@@ 26
ami 26
karri@@ 26
patente 26
verrichten 26
verun@@ 26
-syndrom 26
lux@@ 26
vorles@@ 26
molekülen 26
sequen@@ 26
fundamentalen 26
bänder 26
photo@@ 26
charakteri@@ 26
kenntnisse 26
klat@@ 26
dean 26
abschneiden 26
weisst 26
zufälligen 26
begegnung 26
shi@@ 26
langfristig 26
lego 26
behandlungs@@ 26
50-@@ 26
kaner 26
meldet 26
gängig 26
verwirr@@ 26
kompromis@@ 26
energies@@ 26
kaffee@@ 26
albert 26
dete@@ 26
beugen 26
jagt 26
zwie@@ 26
rey 26
imitieren 26
kontrollierte 26
neuseeland 26
ehemalige 26
affe 26
erweise 26
interessiere 26
ückt 26
asia@@ 26
korre@@ 26
taube 26
gewissem 26
wiki@@ 26
molekularen 26
führende 26
besucher 26
freut 26
mem 26
entscheidet 26
kleider 26
erfolgreicher 26
anziehen 26
gift@@ 26
aufen 26
verschmelzen 26
waschmaschine 26
7.@@ 26
leitete 26
1995 26
befanden 26
null@@ 26
aufhört 26
zeitschrift 26
zuständig 26
kator 26
beruht 26
pper 26
zenz 26
robu@@ 26
respe@@ 26
erwachsener 26
lebenszeit 26
ire 26
wortwörtlich 26
lädt 26
gelten 26
notizen 26
angefertigt 26
zwin@@ 26
leib 26
fin 26
angemessen 26
histor@@ 26
psychiat@@ 26
maschinen@@ 26
zonen 26
bedecken 26
haken 26
anstrengungen 26
zeile 26
drang 26
volumen 26
trick@@ 26
millimeter 26
umgewandelt 26
anatomie 26
bizar@@ 26
server 26
höf@@ 26
biop@@ 26
entnehmen 26
seltener 26
clinton 26
mädchens 26
phänomene 26
jekt 26
psychische 26
sprich@@ 26
oliver 26
geor@@ 26
bilanz 26
legung 26
dreck@@ 26
mentale 26
leder@@ 26
rinde 26
dop@@ 26
äußere 26
betrei@@ 26
anbauen 26
glühbirne 26
chromosomen 26
symbio@@ 26
qual@@ 26
unden 26
gefühlt 26
som@@ 26
bestä@@ 26
professoren 26
netzwerks 26
glücks 26
3000 26
simple 26
produk@@ 26
breitet 26
kambodscha 26
brillan@@ 26
eingesch@@ 26
zigar@@ 26
satelli@@ 26
schaltkreis 26
konsum@@ 26
konzer@@ 26
ideale 26
erweiter@@ 26
nö@@ 26
lähmung 26
12. 26
lande@@ 26
ater 26
research 26
kreuzen 26
dos 26
scannen 26
sichts@@ 26
ding@@ 26
üblich 26
hieren 26
fotografi@@ 26
selbstmord 26
drittes 26
thunfische 26
realisieren 26
starteten 26
überholt 26
60.000 26
haftes 26
schleife 26
kompet@@ 26
bezeich@@ 26
körner 26
wandert 26
typ@@ 26
manns 26
außerordent@@ 26
wußte 26
--- 26
gela@@ 26
unternommen 26
lichkeits@@ 26
auszugeben 26
spritzen 26
informieren 26
hilf@@ 26
sky@@ 26
stau 26
solle 26
passagi@@ 26
bedrohungen 26
chemiker 26
bedient 26
abstrakte 26
ungs 26
leidenschaften 26
fahrts@@ 26
idealen 26
var@@ 26
artiges 26
mobiltelefone 26
sexuell 26
erdn@@ 26
erholen 26
wright 26
übernimmt 26
erzieh@@ 26
folien 26
portrait 26
hierarchie 26
gefährdet 26
entlich 26
anderthalb 26
dlichkeit 26
materielle 26
standes 26
reiz@@ 26
resistenz 26
wohltä@@ 26
abgeord@@ 26
grossartige 26
sperr@@ 26
unabhängi@@ 26
70er 26
lampen 26
krankenhaus@@ 26
schwache 26
universen 26
manö@@ 26
herausfanden 26
einschränkung 26
motivi@@ 26
wirkungen 26
archä@@ 26
entlassen 26
vorhaben 26
mochten 26
buddhi@@ 26
tanzt 26
zeitschriften 26
zwangsläufig 26
misch 26
arbeitern 26
verblüffende 26
weitergegeben 26
allen@@ 26
wissenschaftlicher 26
schwimm@@ 26
verschlei@@ 26
engl@@ 26
wende 26
mitgefühls 26
europä@@ 26
gler 26
erfassung 26
vergleichbar 26
bilder@@ 26
animation 26
hlung 26
sn@@ 26
live-@@ 26
gon@@ 26
schrau@@ 26
materials 26
rem 26
depressi@@ 26
streckt 26
empf@@ 26
julia 26
dynamisch 26
yor@@ 26
existierenden 26
privatsphäre 26
unvermei@@ 26
brunnen 26
erfolgreichen 26
agen@@ 25
an-@@ 25
ausüben 25
detailli@@ 25
gehä@@ 25
unsinn 25
volkes 25
ordentlich 25
nat@@ 25
sudan 25
facebook-@@ 25
geniale 25
cool@@ 25
engagieren 25
klappe 25
organisi@@ 25
geschichtenerzähl@@ 25
zweier 25
verteidigungs@@ 25
umfassende 25
lierte 25
hochzeit 25
190@@ 25
rasse 25
kyros 25
gewässer 25
bedeutsam 25
vorhersehbar 25
massa@@ 25
schlan@@ 25
down@@ 25
befehl 25
leichten 25
bälle 25
euren 25
vorberei@@ 25
umbringen 25
amazon 25
scans 25
gravi@@ 25
op 25
top 25
stöck@@ 25
grob 25
patienten@@ 25
erfolge 25
wohingegen 25
einfachsten 25
zeitig 25
festival 25
herauskommen 25
ägypter 25
cu@@ 25
horn 25
ankün@@ 25
weitergeben 25
mäß@@ 25
erzogen 25
dynamische 25
gröss@@ 25
entscheidungs@@ 25
80er 25
gestör@@ 25
leidenschaft@@ 25
liebe@@ 25
folgten 25
80@@ 25
mien 25
musch@@ 25
verg@@ 25
symmetrien 25
ansah 25
atheisten 25
ungsa@@ 25
wundern 25
unde 25
fähige 25
genu@@ 25
ausgangspunkt 25
tiefsee 25
eingebettet 25
sagst 25
unbesch@@ 25
tank@@ 25
pakistan@@ 25
frustration 25
keni@@ 25
journalismus 25
bruch@@ 25
blühen 25
dreidimensionalen 25
graphische 25
element@@ 25
gram@@ 25
möglich@@ 25
herausfand 25
exempl@@ 25
ali 25
re-@@ 25
fahrt@@ 25
politikern 25
julian 25
striert 25
wäl@@ 25
geringsten 25
fortzu@@ 25
atlanta 25
gewün@@ 25
gemeinsames 25
asche 25
enheit 25
trennt 25
zusprechen 25
wendepunkt 25
gre@@ 25
rot@@ 25
harry 25
anda 25
besorgen 25
pädago@@ 25
überwältigt 25
eigung 25
hlen@@ 25
eingriff 25
schnurr@@ 25
fit@@ 25
umsetzung 25
berech@@ 25
ia 25
übungen 25
beur@@ 25
schütz@@ 25
versor@@ 25
frisch 25
gericht@@ 25
wolfram 25
posten 25
kennedy 25
verklein@@ 25
faser 25
südlichen 25
vermächtnis 25
sey 25
ähnelt 25
high@@ 25
befasst 25
gerten 25
mischer 25
kanische 25
basierten 25
grundle@@ 25
zuhalten 25
beute 25
ausgerichtet 25
ganzer 25
geleistet 25
haft@@ 25
nahme@@ 25
samm@@ 25
braun 25
ankunft 25
berücksichtigen 25
chtern@@ 25
präsenz 25
mikrobi@@ 25
hinzugefügt 25
statt@@ 25
gattung 25
reichte 25
perfektion@@ 25
intui@@ 25
sommer@@ 25
zusammenbringen 25
generiert 25
stimmten 25
unglaub@@ 25
ärgert 25
klettert 25
café 25
auslän@@ 25
propaganda 25
material@@ 25
dichten 25
ler-@@ 25
satz@@ 25
tauchte 25
kurven 25
vitamin 25
fang@@ 25
formation 25
barrel 25
hender 25
entdeck@@ 25
lateinamerika 25
sli@@ 25
anstrengung 25
mobilität 25
promin@@ 25
up-@@ 25
cap@@ 25
pingu@@ 25
alistischen 25
minder@@ 25
ausbruch 25
libanon 25
kalku@@ 25
rop@@ 25
dee 25
zimmern 25
wiederherzustellen 25
tät@@ 25
drin@@ 25
ds@@ 25
glühbirnen 25
pittsburgh 25
botschaften 25
lade 25
weitgehend 25
verhaftet 25
tunes@@ 25
kritik 25
rische 25
neuron 25
wilden 25
ausgangs@@ 25
mord 25
riesenha@@ 25
uhr@@ 25
zusammengestellt 25
erspar@@ 25
fischerei@@ 25
jonathan 25
ffe 25
zusätzlichen 25
meerwasser 25
stühle 25
mathe 25
teili@@ 25
mi 25
stigt 25
momenten 25
unheimlich 25
säure 25
erhöhten 25
sitzung 25
raster 25
seither 25
demonstriert 25
wahnsinn 25
starker 25
insekt 25
glied@@ 25
ativ 25
älterer 25
gemein 25
alumini@@ 25
tul@@ 25
gedauert 25
5-@@ 25
sauber@@ 25
gewinnung 25
vention 25
geheimnis@@ 25
patenti@@ 25
verlangsamt 25
cortex 25
blog@@ 25
ansammlung 25
geomet@@ 25
feier@@ 25
beispiel@@ 25
gesang 25
überprü@@ 25
tzu@@ 25
dorf@@ 25
boom@@ 25
erhö@@ 25
klarheit 25
ringe 25
folter 25
onnen 25
aufwachen 25
weis@@ 25
geringen 25
base@@ 25
irren 25
söhne 25
positives 25
warnung 25
myzel 25
schönsten 25
triebene 25
arabische 25
satzes 25
waisen@@ 25
vollste 25
orange 25
harm@@ 25
infektion 25
green 25
verdun@@ 25
erforder@@ 25
materiellen 25
1970 25
varianten 25
soldat 25
leber@@ 25
bestanden 25
geschäftsmodell 25
jupiter 25
abend@@ 25
intellektu@@ 25
schiffen 25
örtliche 25
grösste 25
anfangs 25
fülle 25
schweben 25
korallen@@ 25
train@@ 25
jefferson 25
bunker 25
tätigkeiten 25
adop@@ 25
führungen 25
berkeley 25
ibm 25
gesto@@ 25
chten@@ 25
tags@@ 25
intensive 25
begraben 25
verstär@@ 25
wirtschaften 25
nummern 25
sinnen 25
endeffekt 25
enthi@@ 25
stellige 25
dauerhaft 25
psycholog@@ 25
ator@@ 25
fokussiert 25
greifend 25
arb@@ 25
möglichst 25
konferenzen 25
gewissheit 25
ic@@ 25
interview@@ 25
schwim@@ 25
reflektieren 25
inta@@ 25
schick@@ 24
90er 24
trom@@ 24
zyklen 24
verkür@@ 24
lehrte 24
wach 24
rezept@@ 24
bewusste 24
ings@@ 24
hten 24
sehvermögen 24
spontan@@ 24
kampf@@ 24
tödlich 24
aero@@ 24
auftauchte 24
dank@@ 24
parasiten 24
esten 24
südpol 24
werf@@ 24
busch 24
wohlhab@@ 24
feind@@ 24
kindergarten 24
temp@@ 24
lierung 24
blumen@@ 24
frühe@@ 24
signatur 24
lon@@ 24
pinguin 24
kiefer 24
versorg@@ 24
rose 24
ritu@@ 24
engen 24
hass 24
hirns 24
michigan 24
ineinander 24
verschiebung 24
sin 24
aspe@@ 24
künfte 24
hinterkopf 24
bieren 24
effizi@@ 24
brennstoff@@ 24
versteckte 24
sem 24
rump@@ 24
unterir@@ 24
stolper@@ 24
meta@@ 24
einsicht 24
rezep@@ 24
berufe 24
kosovo 24
schmelzen 24
kais@@ 24
strömen 24
manipuliert 24
sprä@@ 24
pflicht 24
impor@@ 24
zap@@ 24
tten@@ 24
stest 24
marktes 24
entzün@@ 24
verges@@ 24
anzupassen 24
banjo 24
heili@@ 24
board 24
glat@@ 24
ernährungs@@ 24
antikörper 24
fab@@ 24
längere 24
kultivi@@ 24
mcdonald 24
ferne 24
ungleich@@ 24
hindernis 24
formul@@ 24
interviewer 24
carl 24
hiervon 24
nischen 24
künstlerische 24
terror@@ 24
wegzu@@ 24
raketen@@ 24
pflanz@@ 24
grafik@@ 24
alexander 24
auti@@ 24
annäher@@ 24
kostete 24
vernünftige 24
womöglich 24
tomo@@ 24
verbie@@ 24
bewusster 24
leichte 24
grupp@@ 24
elend 24
anpassungs@@ 24
unternehmens 24
visueller 24
nehmt 24
flüchti@@ 24
ple@@ 24
verabschie@@ 24
ebay 24
abfall@@ 24
funktions@@ 24
rischen 24
speisen 24
lachten 24
berlin 24
designt 24
modellen 24
weichen 24
knei@@ 24
tos 24
diversität 24
kleber 24
deines 24
baus 24
marathon 24
shei@@ 24
berechti@@ 24
globus 24
anrei@@ 24
psychologische 24
biologischer 24
genoms 24
gast@@ 24
lizenz 24
kus@@ 24
reagi@@ 24
shakespeare 24
zusammengesetzt 24
tivitäts@@ 24
trieb@@ 24
ökologische 24
drachen 24
gewohn@@ 24
tageslicht 24
eintausend 24
isierten 24
handgelenk 24
dächer 24
meeresboden 24
osteuropa 24
angenehme 24
viert 24
drahtlose 24
laser 24
modus 24
halter 24
zahlreiche 24
news 24
orium 24
depressionen 24
gau@@ 24
sj 24
schlossen 24
fel 24
gps 24
magische 24
baumwolle 24
ginge 24
besaß 24
tanten 24
mals 24
nötige 24
geschrie@@ 24
2012 24
mineralien 24
gemeinnützige 24
bedürf@@ 24
moderner 24
parallel 24
streichen 24
bend 24
schockiert 24
amm@@ 24
zigern 24
instin@@ 24
animationen 24
ai@@ 24
mythen 24
klären 24
moore 24
impfung 24
sterblichkeitsrate 24
beängstigend 24
deutsche 24
äufe 24
anthropolo@@ 24
beiseite 24
50er 24
ffer@@ 24
überaus 24
pfad 24
atom 24
merkwür@@ 24
shar@@ 24
francis 24
riss 24
hemd 24
kanad@@ 24
pennsylvania 24
vogelgrippe 24
ausgerottet 24
wäldern 24
kos@@ 24
gefangenen 24
96 24
hässlich 24
antworteten 24
anek@@ 24
wegs 24
reichlich 24
diplomat 24
vernetzung 24
bad 24
evolutionäre 24
ärztin 24
vermö@@ 24
by@@ 24
gewebe@@ 24
kopien 24
orien 24
tust 24
dünn 24
bou@@ 24
schlauch 24
schießt 24
aktionen 24
designen 24
bedien@@ 24
jemen 24
schock@@ 24
kleidet 24
wahrzunehmen 24
wille 24
dominiert 24
kaninchen 24
szenen 24
.org 24
smo@@ 24
humanit@@ 24
wund@@ 24
ws 24
normen 24
emotional 24
gebühren 24
eingebau@@ 24
nigen 24
haushalte 24
bestimmung 24
format 24
jah@@ 24
spir@@ 24
hormone 24
inhalts@@ 24
bewege 24
vermischt 24
entwarf 24
gil@@ 24
elefant 24
terien 24
art@@ 24
konzerne 24
mitbringen 24
ent-@@ 24
unterschieden 24
phot@@ 24
auslöst 24
stich 24
anlegen 24
antreiben 24
tons 24
dramati@@ 24
jünger 24
glaubens@@ 24
stundenlang 24
grünes 24
wun@@ 24
hühner 24
himmels 24
differen@@ 24
erendes 24
komponi@@ 24
sla@@ 24
jazz 24
innern 24
scan@@ 24
skr@@ 24
nebenwirkungen 24
av 24
geduld 24
einsparungen 24
drastisch 24
demokrati@@ 24
marsch 24
ernährt 24
vorgänge 24
gebe@@ 24
warm 24
dokumentiert 24
unangenehm 24
m. 24
vergeben 24
katastrophal@@ 24
hebel 24
gesprächen 24
krimin@@ 24
fallschirm 24
nathan 24
aufgegeben 24
praktischen 24
disziplinen 24
verursa@@ 24
rekru@@ 24
abilität 24
instru@@ 24
ähnlichkeit 24
ernsthafte 24
rechenschaft 24
wohltätigkeit 24
zellul@@ 24
gend@@ 24
dramatische 24
weckt 24
begrenzten 24
dau@@ 24
lauten 24
selbster@@ 24
sier@@ 24
pfleger 24
spür@@ 24
genauigkeit 24
bremsen 24
kriterien 24
analysis 24
gefügt 24
lichung 24
zucht 24
journal 24
hunderttausend 24
clever 24
ägyp@@ 24
scharf 24
dokumentieren 24
programms 24
maßstä@@ 24
kopier@@ 24
klagen 24
let 24
psychiater 24
ausserhalb 24
liehen 24
innovativ 24
aufruf 24
sons 24
zerstörer@@ 24
grauen 24
lebensstil 24
krankenschwester 24
daumen 24
intro@@ 24
trinkt 24
erwär@@ 24
ähneln 24
wech@@ 24
haushalts@@ 23
fehlern 23
skeptisch 23
kno@@ 23
fremd@@ 23
nachahmen 23
geheime 23
ation@@ 23
säm@@ 23
cks@@ 23
mitgliedern 23
elternteil 23
retro@@ 23
ax@@ 23
out@@ 23
rädern 23
ttelt 23
nobelprei@@ 23
werben 23
zugelassen 23
blockiert 23
erdöl 23
hop@@ 23
schrei 23
verursachte 23
spli@@ 23
bär 23
kritischen 23
begrenzung 23
leuchten@@ 23
ausschau 23
aufgeteilt 23
einbauen 23
westküste 23
weitem 23
weiser 23
fie@@ 23
konservativen 23
schach@@ 23
teln 23
knö@@ 23
100-@@ 23
amerikanern 23
kulturell 23
tödlichen 23
grade 23
ene@@ 23
konzentri@@ 23
stadi@@ 23
talk 23
dumm@@ 23
handwerk@@ 23
neurowissenschaftler 23
erwachsenen@@ 23
gewer@@ 23
enzen 23
wirksam 23
schlau@@ 23
herauskommt 23
gebenen 23
ethnische 23
tibet 23
erober@@ 23
erdbe@@ 23
kalifor@@ 23
malari@@ 23
umgeht 23
ansteckend 23
griech@@ 23
dreieinhalb 23
wirkungs@@ 23
high-@@ 23
variante 23
orchest@@ 23
anleitung 23
fossilien 23
beigetragen 23
zaun 23
stal@@ 23
wesent@@ 23
vertierte 23
sebastian 23
unerwartete 23
erreich@@ 23
gefährlichen 23
1991 23
zügen 23
dergleichen 23
automaten 23
abwesenheit 23
inien 23
sensor 23
offiziell 23
to-@@ 23
natasha 23
todesfälle 23
tee@@ 23
dol@@ 23
medizinischer 23
pos@@ 23
verantwor@@ 23
wörter@@ 23
fund@@ 23
magen 23
paket 23
jähriges 23
beschrän@@ 23
linear 23
schauspiel@@ 23
regulierung 23
nachhaltigen 23
gänzlich 23
obersten 23
pool 23
autorit@@ 23
kommerzielle 23
herzkrankheiten 23
mobile 23
reist 23
stipendium 23
drängen 23
geburt@@ 23
od@@ 23
wirbel 23
belohnungen 23
begrenz@@ 23
verschie@@ 23
lupe 23
verbrau@@ 23
reaktoren 23
fresser 23
verfügbaren 23
trainer 23
fö@@ 23
auswahlmöglichkeiten 23
ox@@ 23
verhe@@ 23
universitäts@@ 23
rechtzeitig 23
fröh@@ 23
uh 23
integration 23
pfa@@ 23
porno@@ 23
chterung 23
fehlende 23
kreatur 23
veranstal@@ 23
mikr@@ 23
beza@@ 23
verbesser@@ 23
angst@@ 23
näher@@ 23
totale 23
50ern 23
versicherungs@@ 23
‟ 23
fundament@@ 23
historiker 23
günstig 23
protesti@@ 23
säuren 23
bla@@ 23
spannende 23
kibera 23
stchen 23
hübsch 23
nör@@ 23
schüchtern 23
befestigen 23
herrn 23
wehr 23
quallen 23
rachel 23
offener 23
sno@@ 23
religiö@@ 23
beruhigen 23
gendsten 23
brokkoli 23
effektive 23
geschlecht@@ 23
mith@@ 23
nike 23
neurolo@@ 23
abläuft 23
gewiss 23
solarzellen 23
sandwich 23
einmali@@ 23
jackson 23
stattgefunden 23
warn@@ 23
hervorra@@ 23
gipf@@ 23
finanzkrise 23
moment@@ 23
belegen 23
egoi@@ 23
part@@ 23
patent 23
museen 23
vorgehen 23
wahrnehm@@ 23
forum 23
geg@@ 23
flus@@ 23
neter 23
gelö@@ 23
zar@@ 23
synthetische 23
unabhängigen 23
nahrungsmittel@@ 23
assi@@ 23
höl@@ 23
barry 23
geist@@ 23
basis@@ 23
fg 23
wettbewerbs@@ 23
fisches 23
elementar@@ 23
ologisch 23
schwangerschaft 23
geben@@ 23
aufzeigen 23
korrigieren 23
gesichtern 23
ungewöhn@@ 23
komplizierten 23
riefen 23
rechtfertigen 23
geborenen 23
datum 23
spartner 23
künstliches 23
slum 23
ausgesprochen 23
behauptung 23
hervorrufen 23
nachbar 23
mix@@ 23
außergewöhn@@ 23
zuver@@ 23
sank 23
bits 23
2015 23
erleuchtung 23
tsch 23
überraschen 23
beweis@@ 23
chts@@ 23
scheiben 23
rechnungen 23
ares 23
vorgeschlagen 23
afro@@ 23
regnet 23
pol 23
hunger@@ 23
achte 23
folglich 23
verbrachten 23
kompetenz 23
abhängen 23
gewidmet 23
verwandelte 23
täuscht 23
deka@@ 23
fres@@ 23
wöch@@ 23
mechanisch 23
abweichung 23
namibia 23
erforsch@@ 23
vergan@@ 23
zurückzukehren 23
kisten 23
palästina 23
wissenschaft@@ 23
äthiop@@ 23
kreativer 23
unterbrechen 23
festi@@ 23
gemeinsamkeiten 23
phtal@@ 23
fehlte 23
= 23
dampf@@ 23
schützer 23
zukünf@@ 23
1984 23
portraits 23
vielver@@ 23
schoss 23
stadien 23
reine 23
ktiv@@ 23
ordent@@ 23
überwältigend 23
betroffenen 23
geringe 23
flexibel 23
belegt 23
hinsehen 23
mittlere 23
pferde 23
software@@ 23
utop@@ 23
ersatz@@ 23
ay 23
weihnachten 23
operieren 23
gendste 23
terror 23
budgets 23
beliebige 23
stimuliert 23
detail@@ 23
zittern 23
ström@@ 23
briten 23
biologe 23
enthüll@@ 23
titelseite 23
konserva@@ 23
worin 23
kartoffeln 23
rosling 23
oll 23
ffs 23
abnehmen 23
operations@@ 23
stapeln 23
iken 23
anpas@@ 23
massi@@ 23
fda 23
instinktiv 23
fallschir@@ 23
langle@@ 23
geistige 23
verarbeitet 23
aufgeb@@ 23
pel@@ 23
schleu@@ 23
dad 23
cousins 23
wehren 23
stringtheorie 23
piloten 23
missbrauch 23
abfolge 23
organisierten 23
gheit 23
syrien 23
aufregung 23
60@@ 23
aussicht 23
syndrom 23
kür@@ 23
wache 23
frak@@ 23
sexuellen 23
enzyklopädie 23
urbane 23
bakterien@@ 23
tromm@@ 23
hetero@@ 23
gespr@@ 23
verschwanden 23
erbar 23
kör@@ 23
stämmen 23
nobelpreis 23
force 23
währenddessen 23
saurier 23
philanthropie 23
befehle 23
gebro@@ 23
blüte 23
1980 23
coca-cola 23
onale 23
spektrums 23
greifende 22
glamour@@ 22
typischerweise 22
bäcker@@ 22
funde 22
schwierigsten 22
fahrrad@@ 22
val 22
flusses 22
liebes@@ 22
korrek@@ 22
darwin@@ 22
serviert 22
gefeiert 22
misch@@ 22
folgendermaßen 22
bezir@@ 22
steri@@ 22
gebt 22
erlebnisse 22
alphabet 22
schlauer 22
sori@@ 22
1980ern 22
idi@@ 22
ameisen@@ 22
bevölk@@ 22
geheim 22
ative 22
meditation 22
löste 22
maske 22
verzi@@ 22
intrin@@ 22
ny@@ 22
herkommt 22
ktur 22
luden 22
pflegen 22
sigen 22
selbsthilfe@@ 22
oben@@ 22
gehende 22
organen 22
sth@@ 22
anzubieten 22
einkommens 22
günstiger 22
sorg@@ 22
kilogramm 22
widersprüch@@ 22
berü@@ 22
0.@@ 22
stützen 22
misser@@ 22
zugehörigkeit 22
komplizier@@ 22
äumen 22
besor@@ 22
verbringt 22
fliegenden 22
lebensweise 22
zusammenspiel 22
zigen 22
fürchter@@ 22
assoziiert 22
bruce 22
umfragen 22
hacken 22
laser@@ 22
zurufen 22
bes 22
enor@@ 22
zuhörer 22
netter 22
engli@@ 22
bauchspeicheldrü@@ 22
insulin 22
alaska 22
entinnen 22
konstant 22
ausbreitung 22
kenden 22
dieb@@ 22
konkurri@@ 22
angeben 22
wurzelt 22
esses 22
radikal@@ 22
umzuwandeln 22
zehnmal 22
ftet 22
höhen@@ 22
british 22
bangalore 22
guta@@ 22
unzählige 22
wecken 22
rich@@ 22
jüdischen 22
sonntag 22
inspirierte 22
geschicht@@ 22
mäßigen 22
booten 22
sow@@ 22
einverstanden 22
zusamment@@ 22
97 22
direkten 22
tsam 22
unschul@@ 22
hüb@@ 22
erreichten 22
energiequ@@ 22
unfähig 22
glüh@@ 22
abgeben 22
untergang 22
qui@@ 22
organischen 22
teilnahme 22
leistet 22
ahmen 22
dynamischen 22
abe 22
ausschalten 22
zeitraff@@ 22
frequenzen 22
empfehlen 22
lok@@ 22
herunterladen 22
tions-@@ 22
karikatur 22
teleskope 22
produktiv 22
stlich 22
regulieren 22
führern 22
chungen 22
e. 22
community 22
bieter 22
stone 22
traum@@ 22
installiert 22
modell@@ 22
mar 22
läufer 22
grenzen@@ 22
spielern 22
män@@ 22
trauer 22
rauszu@@ 22
impulse 22
bewertet 22
mittag 22
unsicht@@ 22
witzig 22
witz@@ 22
8.000 22
mäch@@ 22
bemerkten 22
vergewaltigung 22
simpel 22
kompliziertes 22
dreieck 22
d.c. 22
spezifisch 22
mör@@ 22
trin@@ 22
empfindlich 22
enger 22
zunahme 22
schwäch@@ 22
kürzer 22
herausge@@ 22
ausbilden 22
gase 22
super-@@ 22
einfl@@ 22
mittags 22
kurzfri@@ 22
training@@ 22
unterhaltungs@@ 22
orientierung 22
trö@@ 22
mechan@@ 22
körperlich 22
sequenzierung 22
dunkeln 22
apps 22
äus@@ 22
source 22
spor@@ 22
black@@ 22
tamiflu 22
überprüft 22
musikstück 22
va-@@ 22
bewerben 22
vereinbarung 22
karikaturen 22
üs@@ 22
betriebs@@ 22
no 22
bündel 22
gebnisse 22
spanne 22
reste 22
beruflich 22
under 22
gesetzte 22
aufzeichnen 22
zuviel 22
erhol@@ 22
nem 22
ökolog@@ 22
monterey 22
stange 22
unterhal@@ 22
meeren 22
bedeutenden 22
kooperieren 22
bün@@ 22
gesamtheit 22
begegnet 22
nachah@@ 22
ston 22
hineinzu@@ 22
sieg 22
letzt 22
hubschrau@@ 22
sischen 22
statistisch 22
ofen 22
toronto 22
geschlossenen 22
verlor@@ 22
abstimmung 22
anfällig 22
angegriffen 22
zeichen@@ 22
überge@@ 22
gestri@@ 22
standar@@ 22
notiz@@ 22
wiederbele@@ 22
vorbereiten 22
besaßen 22
52 22
orientierten 22
tivi@@ 22
zusammenzubringen 22
schrump@@ 22
engineering 22
terie 22
mität 22
spra@@ 22
fäll@@ 22
reinig@@ 22
kleider@@ 22
saison 22
ertem 22
facht 22
keith 22
zellen@@ 22
transplantation 22
feder 22
sputnik 22
lady 22
terr@@ 22
einsichten 22
repor@@ 22
armuts@@ 22
wanderte 22
stopp@@ 22
einhundert 22
abent@@ 22
notaufnahme 22
verän@@ 22
fes@@ 22
russischen 22
seg@@ 22
laun@@ 22
worben 22
grab 22
ultra@@ 22
lungs@@ 22
astronomie 22
reflektiert 22
vereinigung 22
weggehen 22
unterscheidung 22
segel@@ 22
pump@@ 22
verband 22
optimieren 22
belohnen 22
wurf 22
benötigten 22
verwalten 22
terweise 22
gründet 22
luxus 22
matt 22
tate 22
ot 22
greifbar 22
essi@@ 22
alist 22
technolog@@ 22
ruhen 22
checkliste 22
herzens 22
variation 22
them@@ 22
packte 22
untersuchte 22
wärts@@ 22
beleu@@ 22
ica 22
erschließen 22
gebor@@ 22
schreckliches 22
ikon@@ 22
sko@@ 22
gegenseitige 22
rauf 22
vorbeu@@ 22
tech@@ 22
gewandt 22
table@@ 22
ausger@@ 22
kunden@@ 22
komment@@ 22
sig 22
cluster 22
erderwärmung 22
gleichermaßen 22
antreibt 22
seen 22
schuh@@ 22
hing 22
jo 22
wider 22
lama 22
willkür@@ 22
quantenmechanik 22
prozessor 22
singt 22
magischen 22
sprung@@ 22
rhyth@@ 22
ruiniert 22
silber@@ 22
river 22
hotels 22
kon 22
unfair 22
schulbildung 22
glücklich@@ 22
chr. 22
damali@@ 22
unglaublicher 22
schär@@ 22
ups 22
statten 22
mmern 22
lautsprecher 22
instab@@ 22
nichts@@ 22
seli@@ 22
ash@@ 22
erwarteten 22
spreng@@ 22
man-@@ 22
lliger 22
marketing@@ 22
2.0 22
fs@@ 22
sonderlich 22
gesi@@ 22
blockieren 22
erkenne 22
dp 22
ihu@@ 22
akzeptanz 22
betrachter 22
hinterfragen 22
sauer 22
ffekt 22
zahlen@@ 22
notfall@@ 22
gesinn@@ 22
nachkommen 22
forderungen 22
prothesen 22
hormon 22
einheit@@ 22
fair@@ 22
verschwendet 22
brecher 22
vorgeht 22
inne 22
met 22
blindheit 22
nahrungskette 22
akademischen 22
ambi@@ 22
ji@@ 22
triebenen 22
cr@@ 22
dalai 22
sturz 22
bewertung 22
testoster@@ 22
wag@@ 22
laufenden 22
ii 22
notwendigerweise 22
nützliches 22
andro@@ 22
erzielt 22
wassers 22
südamerika 22
loy@@ 22
tums 22
chemik@@ 22
traten 22
angenehm 22
blöcke 22
saft 22
aufklärung 22
que@@ 22
ermordet 22
ethanol 22
wunderbarer 22
ima@@ 22
brut@@ 22
höherer 22
ungsprogramm 22
halte@@ 22
epo@@ 22
versammeln 22
data 22
pfeiler 22
stem@@ 22
anfä@@ 22
sweise 21
verteidigen 21
authentizität 21
elektron 21
agen 21
ostafrika 21
cho@@ 21
richtiger 21
stammbaum 21
bevor@@ 21
stehenden 21
einbezogen 21
tage@@ 21
produzier@@ 21
ziegen 21
drä@@ 21
frisst 21
speicher@@ 21
barem 21
qualle 21
blutgefäße 21
wars 21
shu@@ 21
apollo 21
verrückter 21
kate 21
ro 21
blogger 21
leicht@@ 21
einzufangen 21
völkermord 21
1989 21
wood 21
geliebt 21
undeutlich 21
vordergrund 21
geschäftsführer 21
khan 21
bring@@ 21
unbeabsichti@@ 21
hal 21
trainings@@ 21
galerien 21
linksliber@@ 21
wanderung 21
rituale 21
esch@@ 21
aufpassen 21
etzt 21
misstr@@ 21
addi@@ 21
yu@@ 21
zusammensch@@ 21
französisch 21
bestimmter 21
lebensmitteln 21
produzent 21
protozelle 21
basier@@ 21
geschenkt 21
minü@@ 21
bade@@ 21
akzent 21
bananen 21
engel 21
bewegten 21
truppe 21
76 21
arktis 21
farmen 21
zunimmt 21
portugal 21
dänemark 21
verlegen 21
begründet 21
evan 21
alar@@ 21
schema 21
weswegen 21
otte 21
beheben 21
brüdern 21
möbel@@ 21
molekü@@ 21
fris@@ 21
deprimiert 21
et-@@ 21
anschließen 21
spektro@@ 21
erleiden 21
ingenieurs@@ 21
schlafzimmer 21
zapfen 21
träum@@ 21
treibung 21
hunder@@ 21
imp@@ 21
disney 21
verb 21
schützt 21
fußball 21
abhandlung 21
who 21
gebär@@ 21
stickstoff@@ 21
einflöß@@ 21
erhit@@ 21
konzert 21
fassten 21
tank 21
ereignissen 21
technologischen 21
beschränkungen 21
topo@@ 21
reserv@@ 21
erneuerbaren 21
eilen 21
graham 21
äf@@ 21
nst 21
meistern 21
ngos 21
sätz@@ 21
komman@@ 21
genial 21
fischer@@ 21
krieg@@ 21
under@@ 21
schwam@@ 21
überlebenden 21
seltsames 21
pfle@@ 21
hin- 21
renaissance 21
giftigen 21
meinungs@@ 21
els@@ 21
werkzeug@@ 21
annt 21
dankbarkeit 21
ivan 21
konzipi@@ 21
vor-@@ 21
funktionsweise 21
verlierer 21
pathie 21
gewebes 21
fels@@ 21
kollektive 21
skop 21
tedtalk 21
antike 21
fuss@@ 21
umgibt 21
kühlung 21
watson 21
innovative 21
arabisch 21
carnegie 21
revolutionen 21
flow 21
vorträgen 21
grundstück 21
studentin 21
zehntel 21
ost@@ 21
erkun@@ 21
1,3 21
bekämpfung 21
digten 21
koch 21
ham 21
bellen 21
aqu@@ 21
entscheidung@@ 21
gefiel 21
behindert 21
geheimen 21
freigesetzt 21
technologi@@ 21
kuli@@ 21
albern 21
wahlmöglichkeiten 21
geschichtenerzähler 21
rus@@ 21
digkeit 21
positiver 21
than@@ 21
betrachtete 21
hübsche 21
ipod 21
inhal@@ 21
dirigenten 21
interaktiv 21
höhlen@@ 21
japan@@ 21
abschied 21
öster@@ 21
religiös 21
sammlungen 21
mosle@@ 21
zentri@@ 21
universelle 21
gärten 21
besprechen 21
teter 21
bte 21
reichhal@@ 21
bten 21
gehenden 21
zubringen 21
oktopus 21
öffnung 21
diszipl@@ 21
ventionen 21
begrüßen 21
28@@ 21
schmel@@ 21
wac@@ 21
dak@@ 21
freundes 21
vorlieben 21
münze 21
frisch@@ 21
50. 21
verantwort@@ 21
ures 21
spie@@ 21
generi@@ 21
kleid 21
automati@@ 21
mass@@ 21
santa 21
fans 21
nähert 21
lehrplan 21
synästhesie 21
verabschieden 21
klam@@ 21
häupt@@ 21
rechenleistung 21
offizielle 21
ökonom 21
verträge 21
alle@@ 21
unterdrücken 21
unsicher 21
kunstwerk 21
energiever@@ 21
boom 21
gehörte 21
irak@@ 21
peng 21
magneten 21
drückte 21
lett 21
seltene 21
wertung 21
charak@@ 21
zeremonie 21
kerle 21
vermehren 21
machbar 21
veteranen 21
dab@@ 21
norm 21
mechanische 21
beijing 21
zivil@@ 21
spitz@@ 21
hawking 21
bali 21
unausweich@@ 21
leugnen 21
franzö@@ 21
dur 21
klebeband 21
arischen 21
erwarte 21
kamele 21
reputation 21
stür 21
cas@@ 21
hinab 21
denjenigen 21
staunen 21
tscher@@ 21
gekostet 21
umsatz 21
vieh 21
verblei@@ 21
oberfläch@@ 21
splan@@ 21
nieren 21
wiederauf@@ 21
knöpfe 21
out 21
angerufen 21
errei@@ 21
unterschätzen 21
sho@@ 21
zeitungs@@ 21
externe 21
datensatz 21
katastrophen@@ 21
bestechung 21
umdrehen 21
zufällige 21
keram@@ 21
400.000 21
hür@@ 21
fertigkeiten 21
mck@@ 21
bemüht 21
zufolge 21
leone 21
winziger 21
mentierung 21
betritt 21
vermischen 21
minderheit 21
rasen 21
zurückge@@ 21
act 21
fußball@@ 21
konkurrieren 21
cop@@ 21
brooklyn 21
klüger 21
armstrong 21
schüsse 21
noti@@ 21
verstop@@ 21
lock@@ 21
ingt 21
eingebracht 21
qualitäten 21
billion 21
refor@@ 21
überleben@@ 21
louis 21
häuft 21
bittet 21
löchern 21
pro-@@ 21
seitige 21
beteiligung 21
voraussetzung 21
versuch@@ 21
operiert 21
dokument 21
kumu@@ 21
alp@@ 21
ushahidi 21
vorschriften 21
einfalls@@ 21
töteten 21
hydr@@ 21
zusätz@@ 21
netzhaut 21
beschleunigung 21
präsent 21
not 21
gesteckt 21
stunts 21
iniert 21
fuss 21
öls 21
stap@@ 21
bosnien 21
papiere 21
persönlichkeiten 21
riskieren 21
psychischen 21
sebene 21
grand 21
garantiert 21
vermark@@ 21
insel@@ 21
kak@@ 21
verläss@@ 21
schwa@@ 21
schum@@ 21
zuallererst 21
you 21
dumme 21
sac@@ 21
jahrhunder@@ 21
iel 21
versammlung 21
welch 21
brillante 21
statue 21
realisierte 21
drungen 21
neil 21
ohne@@ 21
farben@@ 21
stechen 21
vernunft 21
anern 21
susan 21
wandeln 21
stacheln 21
derart 21
geres 21
blutdruck 21
hellen 21
hingabe 21
bär@@ 21
preisen 21
iron@@ 21
goldenen 21
spanisch 21
schlepp@@ 21
dste 21
werkstatt 21
geschwister 21
schnellste 21
frü@@ 21
vorräte 21
14. 21
regenerieren 21
reichsten 21
mas 21
magi@@ 21
bischen 21
gänz@@ 21
ala 21
erhöhte 21
isoli@@ 21
schub 21
fahrzeugen 21
blätter@@ 21
herausstellte 21
stuhl@@ 21
fund 21
ender@@ 21
kosmischen 21
befru@@ 21
korrup@@ 21
tchen 21
vergleiche 21
zweifellos 21
verschreiben 21
verpackung 21
wis@@ 21
landwirtschaftlichen 21
installieren 21
trost 21
strö@@ 21
verspreche 21
kommerzi@@ 21
ueber@@ 21
zwe@@ 21
festgehalten 21
agno@@ 21
fünfte 21
eigentums@@ 21
luther 21
setzungen 21
pa 21
flexi@@ 21
gedeihen 21
helm 21
fünfzig 21
entzündung 21
berry 20
partei@@ 20
bewertungen 20
jahrhunderten 20
weitergehen 20
asteroid 20
unbekannt 20
kton@@ 20
antwortet 20
stückchen 20
wien 20
läufi@@ 20
fassa@@ 20
klugen 20
bedürfnissen 20
then 20
lebendige 20
richteten 20
ständigkeit 20
koopera@@ 20
angesprochen 20
formuliert 20
christus 20
elektri@@ 20
kontroverse 20
vorschläge 20
vel@@ 20
aquarium 20
thr@@ 20
aliens 20
tabelle 20
cnn 20
schmecken 20
aufbaut 20
siehe 20
cooper 20
tasten 20
faden 20
fluores@@ 20
realisiert 20
kaffe@@ 20
nel@@ 20
argumen@@ 20
vernetzen 20
verlieben 20
delta 20
vergröß@@ 20
sechst@@ 20
furcht 20
jahreszeiten 20
kalender 20
tempest 20
aims 20
schlagan@@ 20
russen 20
wähle 20
irration@@ 20
stungen 20
brad 20
derzeitige 20
erkennung 20
korallenriffe 20
aufzugeben 20
verlegt 20
acker@@ 20
illegale 20
spiele@@ 20
kiribati 20
überprüf@@ 20
provo@@ 20
poni@@ 20
süße 20
sektoren 20
kar 20
verbringe 20
ungeachtet 20
freundliche 20
kt-@@ 20
musikal@@ 20
verti@@ 20
vietnam 20
sexual@@ 20
strieren 20
färben 20
kompromiss 20
verdamm@@ 20
schme@@ 20
tierarten 20
genauen 20
sauberes 20
vt 20
eu 20
rep@@ 20
beharr@@ 20
dokumen@@ 20
kopfschmerzen 20
action@@ 20
be-@@ 20
columbia 20
ron@@ 20
digitales 20
ätern 20
kennengelernt 20
nordo@@ 20
höch@@ 20
stem 20
heimischen 20
red@@ 20
yp 20
zusammenzuarbeiten 20
eignen 20
verdeutlichen 20
klimaanlage 20
64 20
fossile 20
ampu@@ 20
norman 20
ooh 20
beherr@@ 20
erträge 20
nasen@@ 20
frösche 20
harmon@@ 20
beauftragt 20
äter 20
drauf@@ 20
aufnimmt 20
iden 20
lexi@@ 20
spaltung 20
angelegt 20
beobachter 20
durchge@@ 20
datei 20
verwirk@@ 20
eigentü@@ 20
wohnwagen 20
berichtete 20
angezeigt 20
starr@@ 20
wahres 20
sop@@ 20
iq 20
taste 20
förmig 20
bezieh@@ 20
orts@@ 20
edinburgh 20
heilmittel 20
ks@@ 20
verbrannt 20
beobachteten 20
drehe 20
triebs@@ 20
neu-@@ 20
lagerungen 20
bevölkerungswachstum 20
zwecken 20
kontam@@ 20
muse@@ 20
fili@@ 20
abwärts 20
ethnischen 20
ash 20
erectus 20
genannte 20
austral@@ 20
vergangen 20
einher@@ 20
titanic 20
steigende 20
konsi@@ 20
yves 20
berufen 20
ktor@@ 20
maten 20
platzt 20
griff@@ 20
verleger 20
mais@@ 20
dünger 20
asie 20
chromosom 20
dallas 20
arch@@ 20
rissen 20
erfolgreich@@ 20
drucks 20
spin@@ 20
aha 20
menschlichem 20
verdanken 20
mari@@ 20
videospiel 20
hoffnungslos 20
verließen 20
hasst 20
änden 20
vorherrsch@@ 20
schöpfen 20
nördlichen 20
substan@@ 20
schnecken 20
deter 20
grü@@ 20
beschäftige 20
irre 20
übereinstimmen 20
grundsätze 20
forderte 20
bühnen@@ 20
deutsch 20
alien 20
schmu@@ 20
verbundenen 20
mary 20
mad@@ 20
teur 20
900 20
warren 20
makro@@ 20
ssen@@ 20
billige 20
jar@@ 20
ha-@@ 20
vorherzusagen 20
redak@@ 20
knall@@ 20
prize 20
käfig 20
teppiche 20
me-@@ 20
fassung 20
180 20
barriere 20
bewundern 20
modern@@ 20
pst 20
barrieren 20
merkwürdige 20
lichtgeschwindigkeit 20
geehrt 20
szenarien 20
leiden@@ 20
analphab@@ 20
coch@@ 20
flugh@@ 20
fertigkeit 20
betrogen 20
zugegeben 20
intelligenter 20
jonglieren 20
steigen@@ 20
ult 20
echo@@ 20
dreck 20
strassen 20
browser 20
sorgte 20
cents 20
schwierig@@ 20
ereien 20
langlebigkeit 20
infra@@ 20
ira@@ 20
kari@@ 20
nord-@@ 20
esst 20
realistisch 20
yle 20
selbstvertrauen 20
gelagert 20
feste 20
1982 20
ands 20
posit@@ 20
provinz 20
gewöhnen 20
proze@@ 20
gebühr 20
feldes 20
gemalt 20
hauen 20
reform 20
adap@@ 20
geliefert 20
darbiet@@ 20
holly@@ 20
sehnen 20
kombin@@ 20
publikums 20
125 20
abgesch@@ 20
hens@@ 20
paradies 20
passten 20
leds 20
bräuchte 20
25.000 20
lassung 20
ursprünge 20
ethische 20
milchstraße 20
todes 20
sorten 20
imperi@@ 20
hochwer@@ 20
entwürfe 20
east 20
spaghet@@ 20
begangen 20
trocknet 20
überla@@ 20
gebete 20
doug 20
spitzen@@ 20
unerwartet 20
ahnen 20
übel 20
ansteigen 20
jeans 20
präfron@@ 20
explosionen 20
malediven 20
zige 20
neugierde 20
herausforder@@ 20
jazz@@ 20
juri@@ 20
fakultät 20
verfein@@ 20
üpp@@ 20
ideologie 20
lippen 20
buckel@@ 20
zurückbringen 20
findung 20
cheryl 20
nord 20
zufrieden@@ 20
beleuchtet 20
bewässer@@ 20
zitieren 20
südafri@@ 20
lations@@ 20
kse 20
stimu@@ 20
lagos 20
yl@@ 20
mäßige 20
vorherigen 20
fixiert 20
angreifen 20
lor@@ 20
beit 20
assistenten 20
tender 20
glichkeit 20
gründlich 20
ausgedacht 20
spielzeuge 20
modelli@@ 20
verschwenden 20
swa@@ 20
sprozess 20
resul@@ 20
sili@@ 20
netzwerk@@ 20
belü@@ 20
stetig 20
forscht 20
physiologie 20
zipcar 20
ruder 20
surfen 20
kredit 20
extra-dimensionen 20
erm@@ 20
andauernd 20
beam@@ 20
fötus 20
mount 20
arin 20
kollaps 20
gelei@@ 20
ballons 20
hierhin 20
ethisch 20
massachusetts 20
tationen 20
häufigsten 20
beha@@ 20
zweifel@@ 20
begehren 20
transfor@@ 20
arbeitslosigkeit 20
vin@@ 20
akzep@@ 20
kugeln 20
futter@@ 20
boten 20
sauberer 20
hattest 20
alo@@ 20
auftaucht 20
früherkennung 20
1996 20
anonym 20
arkti@@ 20
eil 20
erheben 20
bom@@ 20
projektion 20
wichtig@@ 20
knete 20
sprobleme 20
lernens 20
ausgestorben 20
meen 20
1945 20
spirituellen 20
ama 20
aufmerk@@ 20
quadrate 20
energie-@@ 20
kansas 20
artikeln 20
geistigen 20
kaulquapp@@ 20
erwi@@ 20
emotionales 20
recherche 20
250.000 20
chtig 20
klippe 20
hunde@@ 20
moeg@@ 20
variable 20
quantifi@@ 20
würdigkeit 20
schan@@ 20
blich 20
betracht@@ 20
8. 20
außerirdische 20
kürze@@ 20
hie@@ 20
geschlafen 20
ph 20
demut 20
liberia 20
angehalten 20
plün@@ 20
elementen 20
dave 20
nigerianischen 20
verni@@ 20
trauen 20
tigkeiten 20
betreibt 20
gelenkt 20
schon@@ 20
eimer 20
verwirrend 20
orgasmus 20
agnes 20
disches 20
anne 20
ope 20
erfolgsgeschichte 20
errungenschaften 20
dschun@@ 20
klässler 20
sul@@ 20
entwicklung@@ 20
galt 20
belä@@ 20
falt@@ 20
wachen 20
einwohnern 20
dich@@ 20
gesendet 20
häuser@@ 20
gestürzt 20
za 20
vergewal@@ 20
zuverlässig 20
aufzus@@ 20
festig@@ 20
zusagen 20
gehör@@ 20
frische 20
1,2 20
abkürz@@ 20
cli@@ 20
sicherheit@@ 20
bedingt 20
kokain 20
kontinente 20
amazonas 20
variablen 20
bloße 20
verbre@@ 19
zivi@@ 19
she@@ 19
zivilgesellschaft 19
areal 19
verknüpf@@ 19
highschool 19
atmosp@@ 19
autonomie 19
taiwan 19
henden 19
album 19
5.@@ 19
uss@@ 19
omie 19
altmo@@ 19
diskre@@ 19
jen@@ 19
stößt 19
erschwing@@ 19
toma@@ 19
schmer@@ 19
uno 19
atur@@ 19
moma 19
küssen 19
gehoben 19
reser@@ 19
distan@@ 19
kennenlernen 19
umstri@@ 19
ungleichgewicht 19
aufgaben@@ 19
hineinge@@ 19
bearbeitung 19
touri@@ 19
heiratete 19
ausser 19
lakota 19
enthusiasmus 19
aufspüren 19
baumwoll@@ 19
zusammenfassung 19
elfen@@ 19
gott@@ 19
typisches 19
ironischerweise 19
clay 19
eingreifen 19
min 19
tern@@ 19
sim@@ 19
diejenige 19
gebrau@@ 19
zuneh@@ 19
genommen@@ 19
vernetzt 19
jeweiligen 19
schreit 19
mathematisches 19
montag 19
kling@@ 19
entfernungen 19
verlu@@ 19
bern@@ 19
mte 19
image 19
auffälli@@ 19
südasien 19
rest@@ 19
umkehr@@ 19
mili@@ 19
käufer 19
gutem 19
kry 19
astrolab@@ 19
sus@@ 19
zauber 19
phantom-@@ 19
aufrechter@@ 19
raumschiff 19
leug@@ 19
but 19
öffneten 19
pfeil 19
arab@@ 19
klavier@@ 19
billigen 19
sch-@@ 19
verstümm@@ 19
massiv 19
blutgefässe 19
geschie@@ 19
winziges 19
beste@@ 19
names 19
fähiger 19
häufi@@ 19
86 19
mikrofon 19
com 19
müsse 19
lichtjahre 19
primzahl 19
gesegnet 19
widerstehen 19
zität 19
einschalten 19
meilen@@ 19
ata 19
elite 19
spann@@ 19
williams 19
ums@@ 19
vernetzten 19
intensiv@@ 19
tasse 19
generator 19
eindrucks@@ 19
zet@@ 19
gesundes 19
angelangt 19
schimpanse 19
betä@@ 19
theater@@ 19
empfindet 19
dezentr@@ 19
bombar@@ 19
bertie 19
auseinandersetzung 19
kultureller 19
demokratien 19
zac@@ 19
auflösen 19
geschäftswelt 19
py@@ 19
bmw 19
tech-@@ 19
steller 19
versprochen 19
individuell 19
heimlich 19
kennenzulernen 19
dinnen 19
technologie@@ 19
grundi@@ 19
extrem@@ 19
erklärten 19
vermittler 19
140 19
green@@ 19
gesamtes 19
gerlich 19
stalt 19
beseitigt 19
lebensdauer 19
rennt 19
boss 19
kriminellen 19
außergewöhnliches 19
ries@@ 19
plänen 19
kongress@@ 19
smar@@ 19
mitfühlend 19
unterdrück@@ 19
atmet 19
1986 19
notwendigen 19
risse 19
intelligentes 19
gescheitert 19
fire@@ 19
handvoll 19
1993 19
beeinträch@@ 19
fortfahren 19
nordkorea 19
sump@@ 19
mehrmals 19
anischer 19
entwickl@@ 19
diri@@ 19
pflegt 19
dsten 19
resistent 19
hohes 19
jährlichen 19
iere 19
bör@@ 19
bruttoinlandsprodu@@ 19
äl@@ 19
kerne 19
immen@@ 19
teszler 19
rezeptor 19
zugs@@ 19
zeichneten 19
hing@@ 19
liebend 19
anrufe 19
schlussfolgerung 19
eigert 19
ausgeführt 19
körpersprache 19
netzen 19
metalle 19
erfuhren 19
reinigen 19
zeilen 19
college-@@ 19
unterneh@@ 19
journali@@ 19
zenten 19
vent@@ 19
intimität 19
ziere 19
graphischen 19
pagnen 19
gefror@@ 19
bräuchten 19
ramp@@ 19
laufende 19
sony 19
schadstoffe 19
schlachten 19
miss 19
krank@@ 19
killer 19
japanische 19
koperni@@ 19
murray 19
ory 19
pfe@@ 19
tante 19
maxim@@ 19
asiens 19
sprichwort 19
ruhi@@ 19
jur@@ 19
drehten 19
überlegte 19
hosent@@ 19
eintritt 19
zauberer 19
mächtiges 19
mechanischen 19
schwieriges 19
paradig@@ 19
enha@@ 19
philosoph@@ 19
kühlschrank 19
ear@@ 19
dylan 19
unterhalts@@ 19
ungemein 19
chen-@@ 19
aktiver 19
powerpoint 19
itali@@ 19
ground 19
gruse@@ 19
isolation 19
fotogra@@ 19
desaster 19
lebensspanne 19
dent@@ 19
meetings 19
schatten@@ 19
ring@@ 19
aufenth@@ 19
entschlüsseln 19
gefäl@@ 19
moo@@ 19
inse@@ 19
versuchung 19
neocortex 19
rätsel@@ 19
naturwissenschaften 19
erschaff@@ 19
pete 19
akademie 19
weinte 19
besiegen 19
akteur 19
proportional 19
geschw@@ 19
sequ@@ 19
arien 19
indus-schrift 19
stars 19
gesün@@ 19
spürte 19
blocks 19
hervorragende 19
entscheiden@@ 19
favelas 19
profit@@ 19
tugend 19
zack 19
company 19
intervie@@ 19
roboters 19
aggressiv 19
dj 19
fonds 19
-system 19
flüssig 19
biolumineszenz 19
supraleiter 19
jason 19
lese@@ 19
krebse 19
ota 19
explodierte 19
beschäf@@ 19
hörer 19
stöcke 19
abli@@ 19
schwach@@ 19
law 19
shand@@ 19
schoß 19
psychopath@@ 19
lässig 19
wissenschaftliches 19
elisab@@ 19
oi@@ 19
lette 19
kompletten 19
großbritanniens 19
endem 19
kopf-zahl-@@ 19
enzy@@ 19
steckten 19
schauspielerin 19
serre@@ 19
virus@@ 19
blauflossen@@ 19
gliches 19
die@@ 19
sser 19
islamische 19
geldes 19
anfänger 19
falken 19
präzision 19
nchen 19
navi@@ 19
nullen 19
abgestimmt 19
schwächen 19
perio@@ 19
150.000 19
kathedrale 19
ego 19
professionellen 19
längst 19
gewusst 19
allgegenwärtig 19
anblick 19
unbewusst 19
prophe@@ 19
kameraden 19
atrazin 19
politik@@ 19
evolutionären 19
mensch-@@ 19
lebenser@@ 19
prozessen 19
a. 19
bedenkt 19
allerersten 19
täts@@ 19
tol@@ 19
micro@@ 19
bindet 19
tivem 19
subsahar@@ 19
gratis 19
unschuldig 19
verständnis@@ 19
nordameri@@ 19
geborene 19
gespendet 19
erwar@@ 19
sb 19
dok@@ 19
vorbilder 19
hinteren 19
präch@@ 19
impfen 19
trenn@@ 19
kim 19
wirtschaftliches 19
griffe 19
getrei@@ 19
ritual 19
designer@@ 19
gestoppt 19
bens@@ 19
schleifen 19
improvisation 19
fettleibig 19
all-@@ 19
flat@@ 19
genuss 19
psyche 19
glass 19
bildhau@@ 19
grundsätz@@ 19
eins-@@ 19
aufgezogen 19
honig 19
mitzuteilen 19
ablaufen 19
zusammensetzung 19
verändernde 19
lieb 19
or-@@ 19
behauptungen 19
erstellte 19
erlich 19
prozentige 19
strä@@ 19
nun@@ 19
bi 19
uchen 19
metaphor@@ 19
vertikale 19
i. 19
erwähne 19
brennt 19
matte 19
hafen 19
einzustellen 19
wegnehmen 19
öffentliches 19
mathe@@ 19
hervorzubringen 19
agu@@ 19
befreiung 19
fügte 19
teilchenphysik 19
geräuschen 19
gesellschaftliche 19
liger 19
abgeschnitten 19
böden 19
bekommst 19
gestimmt 19
nachth@@ 19
lierten 19
romantik 19
malt 19
klimakrise 19
finanziell 19
arten@@ 19
wickelt 19
reisten 19
diente 19
sta 19
gläser 19
privilegi@@ 19
grosses 19
schreitet 19
riski@@ 19
matisch 19
alber@@ 19
eur 19
näh@@ 19
solltest 19
erwider@@ 19
gefangene 19
ideo 19
lerne 19
hamburger 19
una 19
mysterium 19
erfanden 19
betriebssystem 19
enceladus 19
enthüllen 19
verhandeln 19
ideal 19
rettete 19
chinesisches 19
vorlesungen 19
ney 19
wilson 19
digitaler 19
abschluss@@ 19
stießen 19
urs 19
mobiltelefon 19
akademiker 19
vo 19
andy 19
seins@@ 19
schmuck 19
kreuzung 19
fünftel 19
buddha 19
ross 19
probi@@ 19
penis 19
bedienung 19
überschwe@@ 19
asthma 19
wiedersehen 19
choreo@@ 19
cartoons 19
umkehren 19
präsent@@ 19
open-@@ 19
schwäche 19
befrei@@ 19
exper@@ 19
geschahen 19
franzosen 19
dou@@ 19
canyon 19
skand@@ 19
prozess@@ 19
ile 19
sangen 19
malerei 19
pflanzung 19
greifenden 19
ultravio@@ 19
whit@@ 19
enthüllt 19
irrtum 19
83 19
al-qaida 19
erwerben 19
garanti@@ 19
trank 19
werbes@@ 19
umt 19
verkörpert 19
ó@@ 19
grossartig 18
gummi@@ 18
jerry 18
täter 18
montana 18
achtz@@ 18
hungersnot 18
unordnung 18
ferien 18
dg 18
cooler 18
ausbreitet 18
beschweren 18
streich@@ 18
diana 18
unglück 18
zusammenfas@@ 18
überstehen 18
familienplanung 18
300.000 18
bow@@ 18
biolumines@@ 18
day 18
tattoo 18
yn 18
funktionierten 18
tzellen 18
arizona 18
soviele 18
zusam@@ 18
110 18
fertiggestellt 18
77 18
zerbrechlich 18
multination@@ 18
wired 18
bundesstaat 18
firmen@@ 18
druckerpresse 18
betreuung 18
sän@@ 18
maria 18
expli@@ 18
schmilzt 18
pubertät 18
vorstellt 18
med 18
rieben 18
vieh@@ 18
diamanten 18
os@@ 18
gezählt 18
medienunternehmen 18
ausländische 18
fig@@ 18
würdet 18
röntgen-@@ 18
) 18
beteili@@ 18
position@@ 18
zimm@@ 18
bester 18
stipen@@ 18
glied 18
anhän@@ 18
östlichen 18
aufwachsen 18
hinausgehen 18
steigenden 18
erziehen 18
pus 18
plätzen 18
fell 18
glänz@@ 18
transa@@ 18
schlachtfeld 18
gebra@@ 18
post-@@ 18
außerirdischen 18
ischerweise 18
geister 18
empfän@@ 18
motorrad 18
neanderthaler 18
sige 18
zustande 18
bedanken 18
legi@@ 18
angenehmer 18
doodlen 18
beutel 18
happy 18
expan@@ 18
tilien 18
dend 18
nuklearen 18
ungerechtigkeit 18
kontinuier@@ 18
indirekt 18
iraner 18
bundesstaaten 18
pazifi@@ 18
pfl@@ 18
patho@@ 18
rsw 18
eignet 18
schlaue 18
davon@@ 18
big@@ 18
feucht@@ 18
lich-@@ 18
stop 18
unvorstellbar 18
treibhaus@@ 18
unvermeidbar 18
kommerziellen 18
schleim 18
nicole 18
sou@@ 18
anschau@@ 18
äquivalent 18
erem 18
lehnte 18
coolen 18
platzen 18
il-@@ 18
transistoren 18
shows 18
ermäch@@ 18
anästhesie 18
leopar@@ 18
selbstmordattent@@ 18
lokaler 18
brennstoffen 18
wähler 18
ergab 18
zutrifft 18
steu@@ 18
herab 18
dvd 18
geschichten@@ 18
türk@@ 18
recherch@@ 18
ersti@@ 18
atombombe 18
metast@@ 18
problematisch 18
bereitete 18
fünf-@@ 18
enkel@@ 18
minister@@ 18
fanta@@ 18
mittler@@ 18
zusammensetzen 18
meiß@@ 18
gigantischen 18
klon@@ 18
hilfsorganisationen 18
bruchs 18
sbar 18
rasi@@ 18
schlech@@ 18
gouver@@ 18
belege 18
besitz@@ 18
berührte 18
geantwortet 18
trocken 18
12.000 18
mythologie 18
essens 18
nieren@@ 18
fru@@ 18
ein- 18
system@@ 18
fieber 18
jacke 18
verme@@ 18
noten@@ 18
mana@@ 18
flachen 18
strich 18
moskitonetze 18
virale 18
kunstwerke 18
sis 18
karibik 18
partner@@ 18
hospital 18
erfreut 18
quat@@ 18
mona@@ 18
erlangt 18
entfern@@ 18
thes@@ 18
unterdrückt 18
priorität 18
pupp@@ 18
spazieren 18
jemandes 18
notwen@@ 18
ang-@@ 18
anfühlen 18
komponisten 18
orleans 18
konservative 18
konnektivität 18
sänger 18
klienten 18
träumt 18
zähler 18
ausschlag@@ 18
nm 18
zurückgreifen 18
schrecken@@ 18
überwiegend 18
herrschte 18
mathematisch 18
merkten 18
vorsorge 18
glücks@@ 18
identitäten 18
laborat@@ 18
leidenschaftlich 18
rapi@@ 18
zufügen 18
ethischen 18
gegenstück 18
angestellt 18
hypothesen 18
einigermaßen 18
symphonie 18
erhalte 18
go-@@ 18
puppe 18
mobilisieren 18
phänom@@ 18
athei@@ 18
heißer 18
reise@@ 18
gange 18
invest@@ 18
vergesst 18
entwick@@ 18
lebensform 18
ekel@@ 18
stent 18
anschluss 18
hrer 18
änge 18
langfristigen 18
auszeit 18
vorsitz@@ 18
mannschaft 18
viereinhalb 18
volk@@ 18
gängen 18
weiterentwicklung 18
jüngsten 18
hervorheben 18
margaret 18
depressiv 18
peln 18
umkreisen 18
prüfungen 18
verbraucher@@ 18
präsidentschafts@@ 18
angetan 18
ostens 18
corn@@ 18
schlechteste 18
stit@@ 18
ystem 18
lis 18
xt 18
hackt 18
society 18
gebrochenen 18
bs@@ 18
demnach 18
süßigkeiten 18
informierte 18
detroit 18
pte 18
was@@ 18
bezahlte 18
schilder 18
guinea 18
eindring@@ 18
krisen 18
mers 18
entdecker 18
ewigkeit 18
sequenzieren 18
lohn@@ 18
geräts 18
jährliche 18
katrina 18
rent@@ 18
anter 18
wölfe 18
antun 18
wiederzu@@ 18
konsument 18
differ@@ 18
rechenmaschine 18
weißer 18
erfinder@@ 18
dritter 18
bekanntes 18
täusch@@ 18
täuschungen 18
umweltschutz 18
termin@@ 18
flexibilität 18
auslöser 18
fäl@@ 18
gewannen 18
uk 18
pazi@@ 18
ons@@ 18
auswendig 18
genes@@ 18
jon 18
schildkröten 18
schwierigkeit 18
hinauf@@ 18
wiederver@@ 18
cla@@ 18
la-@@ 18
traditionell 18
nairobi 18
ehemaligen 18
prostitu@@ 18
mücken 18
ausgesucht 18
inspi@@ 18
bedacht 18
herange@@ 18
integrität 18
princeton 18
aufwärts 18
steig 18
que 18
aufbau@@ 18
sum 18
richtiges 18
derjenigen 18
ziege 18
dämp@@ 18
immobilien@@ 18
anthropologen 18
balanci@@ 18
versus 18
wandels 18
verkörper@@ 18
holi@@ 18
norwegen 18
verwickelt 18
gegebenheiten 18
bohren 18
gezü@@ 18
meter-@@ 18
artefakte 18
grundlegendes 18
erweiterte 18
schlamm 18
missbraucht 18
dreiecke 18
panbanisha 18
planten 18
kapitän 18
faszinierenden 18
eth 18
akten 18
fot@@ 18
geschei@@ 18
digitalisieren 18
bahnbrechende 18
interven@@ 18
fröhlich 18
gewässern 18
hälter 18
disku@@ 18
hex@@ 18
chene 18
xe 18
chendes 18
veröffentlichung 18
verkünden 18
erheb@@ 18
funden 18
vernünftig 18
illusionen 18
gehörten 18
uv-@@ 18
vagina-@@ 18
studiere 18
kümmerte 18
sugger@@ 18
emotion 18
darle@@ 18
forsche 18
haftigkeit 18
informationstechnologie 18
regisse@@ 18
statisti@@ 18
erwischen 18
vorurteile 18
bemerkung 18
babbage 18
amateur@@ 18
zufalls@@ 18
innovativen 18
robot@@ 18
verlorene 18
world@@ 18
neigt 18
bender 18
bestellen 18
pos 18
kontrover@@ 18
repräsen@@ 18
dehnt 18
dän@@ 18
bak@@ 18
run@@ 18
‚ 18
astronauten 18
anwendungs@@ 18
richti@@ 18
füllte 18
shel@@ 18
gemäß@@ 18
verwandlung 18
vere 18
bleibe 18
tigte 18
herzinfarkt 18
vortra@@ 18
zustimmung 18
source-@@ 18
market@@ 18
beschränken 18
verschicken 18
ttest 18
gerade@@ 18
konzentrierten 18
umfangrei@@ 18
soeben 18
siv 18
hungen 18
gyrus 18
vorzüge 18
werfer 18
ziffern 18
chel@@ 18
verga@@ 18
programmierung 18
maxi@@ 18
stoffwechsel@@ 18
vollzeit@@ 18
männer@@ 18
kell@@ 18
veraltet 18
getrunken 18
tagsüber 18
splan 18
bohrt 18
warteten 18
link@@ 18
grönland 18
wahrer 18
himalaya 18
sperren 18
muschel 18
zwingt 18
passiv 18
1968 18
erwartung 18
ideal@@ 18
öl-@@ 18
hall@@ 18
einfangen 18
begrüßt 18
ausflug 18
ökosystemen 18
than 18
erfolgt 18
helikopter 18
hierzu 18
erstreckt 18
herzer@@ 18
luf@@ 18
taxi 18
ungeheure 18
begeister@@ 18
ausseh@@ 18
etablieren 18
plei@@ 18
flüssen 18
unvorstell@@ 18
ersatz 18
monade 18
eingesperrt 18
akteure 18
hausti@@ 18
umwandlung 18
mittelklasse 18
skrankheiten 18
zwi@@ 18
umwand@@ 18
70@@ 18
lebender 18
fürsorge 18
gedächtnis@@ 18
sehkraft 18
ena 18
nische 18
sanft 18
englisch@@ 18
improvisieren 18
potentiellen 18
nanotechnologie 18
max 18
7.000 18
umar@@ 18
hill 18
einklang 18
beiträgt 18
gereicht 18
beherrscht 18
impul@@ 18
schrif@@ 18
auskommen 18
eingang 18
mühle 18
gefäß 18
vorhersag@@ 18
pilzen 18
zerstörte 18
oo@@ 18
ausdrücke 18
nötigen 18
vulkan 18
terri@@ 18
tho@@ 18
kreide 18
tax@@ 18
fotografierte 18
formte 18
glatt 18
verban@@ 18
sterberate 18
seltenen 18
kranken 18
ticket 18
ku 18
heizen 18
verli@@ 18
fliegende 18
prozessoren 18
abgrund 18
menschenmenge 18
mitarbeitern 18
kratie 18
arabien 18
hartnäck@@ 18
sri 18
sicheres 18
hemis@@ 18
haupt 18
barack 18
ct-@@ 18
kugel@@ 18
ypen 18
lebensformen 18
tedx@@ 18
auffä@@ 18
eil@@ 18
captcha 18
korreli@@ 18
einblicke 18
festgelegt 18
selbständig 18
gell@@ 18
fertigten 18
ungslos 18
effektiv@@ 18
hinterlässt 18
rod 18
zusammenhän@@ 18
geschmacks@@ 18
amino@@ 18
dorfes 18
gewisses 18
ozeano@@ 18
wähler@@ 18
organisch 18
cri@@ 18
aufzuhören 18
isse 18
nützen 18
zuhört 18
stecke 18
manipulation 18
datenbanken 18
komplettes 18
schöpfer 18
kratische 18
elektrisches 18
karikaturi@@ 18
replizieren 18
apfel@@ 18
freiwilli@@ 18
lehrer@@ 18
wendet 18
pestizide 18
verschafft 18
palette 18
überschreiten 18
aff@@ 18
aufstand 18
99@@ 18
sick@@ 18
philip 18
ani 18
lotterie 18
hende 18
verhinder@@ 17
illegal@@ 17
existenti@@ 17
krö@@ 17
attraktiv 17
militärischen 17
flüchtlinge 17
plans 17
tropen 17
stürme 17
gewichts@@ 17
schlagzeile 17
sexper@@ 17
great 17
papi@@ 17
scherz 17
altru@@ 17
ehrfurcht 17
kost 17
aufgefordert 17
erlaub@@ 17
sieh 17
skam@@ 17
bedauern@@ 17
30er 17
geschäftsmodelle 17
verschwen@@ 17
begeistern 17
op-@@ 17
grössten 17
früchten 17
äußern 17
exzell@@ 17
scharfen 17
stimmi@@ 17
einschlagen 17
hippo@@ 17
az@@ 17
toren 17
fairness 17
schaf 17
costa 17
gekennzeichnet 17
skarte 17
sue 17
pollen@@ 17
ander 17
schwarm 17
untersuch@@ 17
niederlage 17
griechischen 17
fünften 17
bewohn@@ 17
solide 17
zweitgrößte 17
tum@@ 17
abgespielt 17
hervorgebracht 17
etiket@@ 17
frontal@@ 17
erstaunlicherweise 17
stockwerke 17
chil@@ 17
pps 17
zip 17
landeten 17
immernoch 17
handels 17
filter@@ 17
buff@@ 17
caltech 17
recher@@ 17
technologischer 17
projekt@@ 17
ppel 17
prinz 17
senf 17
belt 17
veranstaltungen 17
feri@@ 17
japaner 17
erhältlich 17
seele@@ 17
nutzlos 17
erwiesen 17
aufgeklär@@ 17
anschaue 17
liebhaber 17
paradox@@ 17
schwie@@ 17
kündigte 17
verinner@@ 17
kacheln 17
schlugen 17
mik@@ 17
3,5 17
fledermaus 17
unheim@@ 17
dach@@ 17
primzahlen 17
clo@@ 17
südo@@ 17
roy 17
verblüfft 17
massenvernicht@@ 17
ansässigen 17
nepal 17
irgendwer 17
ausgang 17
allo@@ 17
anordnung 17
besprochen 17
märchen 17
anen 17
zeugnis 17
masken 17
smartphone 17
alltags@@ 17
kalk@@ 17
ehrlichkeit 17
recyc@@ 17
salat 17
flache 17
motors 17
elektrischer 17
philadelphia 17
gan 17
pack@@ 17
lüge 17
erseits 17
gremium 17
inwie@@ 17
bomben@@ 17
kampfes 17
kürzen 17
rho@@ 17
volt 17
vorsicht 17
venezuela 17
quäl@@ 17
naiv 17
inhaf@@ 17
stim@@ 17
sterbe@@ 17
ho 17
langem 17
nest@@ 17
wärme@@ 17
lan 17
durchqu@@ 17
partikeln 17
spenden@@ 17
tokyo 17
kreation@@ 17
strich@@ 17
migräne 17
15.000 17
lhc 17
erholt 17
stiger 17
beginnend 17
gemeinde@@ 17
geeig@@ 17
ater@@ 17
hero@@ 17
auffor@@ 17
zurei@@ 17
überschritten 17
verschoben 17
beobacht@@ 17
augenblick@@ 17
universell 17
tional 17
tem@@ 17
1990ern 17
beeinträchtigt 17
verlin@@ 17
neusten 17
weites 17
royal 17
sitzungen 17
vereinig@@ 17
risd 17
hurri@@ 17
entfernte 17
gleicher 17
tafeln 17
betrieb@@ 17
schwerpunkt 17
puppen 17
neur 17
biologisches 17
völli@@ 17
fluktuationen 17
restau@@ 17
achtung 17
startet 17
redest 17
akzeptabel 17
dimensional 17
durchdringen 17
bers 17
imitiert 17
zoo 17
sonnensystems 17
obst 17
450 17
abzuschließen 17
delphine 17
power 17
verleiht 17
zwei- 17
änderten 17
überwacht 17
umfassen 17
biotechnologie 17
deprimier@@ 17
inform@@ 17
1957 17
druckt 17
verr@@ 17
si 17
klebt 17
antiretro@@ 17
ausdenken 17
wolf 17
vernichten 17
siven 17
erschöpft 17
bono 17
rationen 17
stifte 17
gordon 17
häufigste 17
erachtens 17
melo@@ 17
cousin 17
erkäl@@ 17
rien 17
vereinfachen 17
emails 17
ergreifen 17
bemerk@@ 17
möbeln 17
verrück@@ 17
passierten 17
ungewöhnlichen 17
präz@@ 17
frühjahr 17
glückske@@ 17
6,@@ 17
fi 17
besessenheit 17
roger 17
rutsch@@ 17
glich@@ 17
transition 17
reproduzieren 17
mächte 17
dawkins 17
derjenige 17
cameron 17
darstell@@ 17
darfur 17
back@@ 17
bl 17
erbaut 17
gedruck@@ 17
angio@@ 17
alltägliche 17
naturschutz 17
krawat@@ 17
rebel@@ 17
erkranken 17
lung@@ 17
co-@@ 17
play@@ 17
pflaster 17
hinterließ 17
hilfe@@ 17
plankton 17
geschenke 17
ärz@@ 17
busse 17
außenwelt 17
nter 17
inhalten 17
ungläu@@ 17
gedenk@@ 17
web-@@ 17
illi@@ 17
stechnologie 17
rah@@ 17
intelle@@ 17
allererste 17
führungskräfte 17
mail 17
kometen 17
schüssel 17
r.@@ 17
konsumiert 17
usd 17
interessierten 17
äquator 17
prinzipiell 17
hammer 17
todesstrafe 17
mmm 17
schwärmen 17
beliebtesten 17
aneinander 17
gespült 17
70.000 17
house 17
besagte 17
cat@@ 17
amanda 17
beiträge 17
emily 17
dv@@ 17
farbigen 17
ke-@@ 17
gerüstet 17
stiker 17
simulationen 17
karo-@@ 17
zeital@@ 17
dokum@@ 17
außensei@@ 17
tifi@@ 17
sw@@ 17
unt 17
eini@@ 17
derzeitigen 17
infrarot@@ 17
öffent@@ 17
antere 17
kommunikation@@ 17
ausrichtung 17
geriet 17
etabliert 17
beträch@@ 17
wendungen 17
nano-@@ 17
hinausgeht 17
benutzung 17
gefäße 17
inten@@ 17
led 17
katoren 17
orö@@ 17
verdammten 17
reiches 17
termin 17
theke 17
moses 17
rg 17
radik@@ 17
priva@@ 17
heitlich 17
anwender 17
britan@@ 17
alko@@ 17
schem 17
jas@@ 17
atlan@@ 17
fiction 17
anhört 17
ellieren 17
fordere 17
produzierte 17
beanspru@@ 17
lila 17
mütter@@ 17
gewartet 17
partnerschaften 17
zugreifen 17
fliehen 17
abweichungen 17
sichtig 17
unterdrückung 17
invasi@@ 17
krankheit@@ 17
freiheiten 17
crowd@@ 17
cassini 17
stisch@@ 17
zigaretten 17
mischt 17
gelegte 17
unterhaltungen 17
migranten 17
ausch 17
vegas 17
baby-@@ 17
landwir@@ 17
recycling 17
parlament@@ 17
dünen 17
fernen 17
vorherseh@@ 17
befra@@ 17
o.k. 17
produktion@@ 17
regieren 17
förmigen 17
studenten@@ 17
fenster@@ 17
benehmen 17
neo@@ 17
mix 17
spritze 17
charakteristika 17
stres@@ 17
zeig 17
offiziellen 17
schin@@ 17
drei- 17
gleiten 17
garantieren 17
haltungs@@ 17
zuverlässi@@ 17
überwältigende 17
listet 17
wahrsten 17
schwingen 17
willens 17
psychologe 17
verstorbenen 17
recycl@@ 17
äugige 17
wohlhabenden 17
nützliche 17
wüsten 17
ktisch 17
tuberkulose 17
fertige 17
sein@@ 17
zahn 17
veranstalten 17
säkul@@ 17
aussahen 17
eingeben 17
strate@@ 17
verlasse 17
urbanen 17
eliminieren 17
bit 17
starrt 17
1983 17
erschütter@@ 17
produktiven 17
leo 17
besuchten 17
gemeinnütz@@ 17
arr@@ 17
legend@@ 17
foxo 17
unternehmern 17
omet@@ 17
mobili@@ 17
zorn 17
co2-emissionen 17
wertes 17
pharmazeu@@ 17
dentum 17
gefängnisse 17
kunft 17
komischen 17
quadra@@ 17
nieder 17
dürfte 17
aktien@@ 17
werfe 17
zurückzukommen 17
u.s.-@@ 17
zielte 17
erschossen 17
gefroren 17
zuhör@@ 17
grös@@ 17
dokumentar@@ 17
beunruhigend 17
ganzheit@@ 17
frequ@@ 17
reagan 17
seligkeit 17
rekonstruieren 17
vernetz@@ 17
uen 17
gigantische 17
übertrieben 17
schlussfol@@ 17
prie@@ 17
spulen 17
zensur 17
kranke 17
verd@@ 17
phantom-arm 17
reserven 17
hänge 17
bräu@@ 17
gesundheitswesens 17
explodiert 17
schicke 17
eingerichtet 17
bla 17
simon 17
nutzer@@ 17
gemäl@@ 17
läss@@ 17
unterkunft 17
medical 17
vokab@@ 17
mund@@ 17
bohrer 17
brun@@ 17
profitiert 17
wus@@ 17
explodieren 17
pc@@ 17
ungsproble@@ 17
gesprochene 17
cheln 17
sporen 17
kleidungs@@ 17
konventionelle 17
komite@@ 17
ommen 17
phan@@ 17
mondes 17
genies 17
ausbeu@@ 17
58 17
g. 17
bedeutungen 17
fertigung 17
school-@@ 17
tierwelt 17
vorrat 17
seifen@@ 17
kulissen 17
verwaltungs@@ 17
gesichtsausdrücke 17
kosmologie 17
russ@@ 17
effizienten 17
regelrecht 17
kommuniziert 17
zurückgeht 17
strassen@@ 17
gehor@@ 17
falsches 17
yale 17
bonobos 17
verank@@ 17
erobert 17
emotion@@ 17
augenlicht 17
nadel@@ 17
kissen 17
reiter 17
städtische 17
cholera 17
mücke 17
säugl@@ 17
embry@@ 17
reflexi@@ 17
presse@@ 17
kontinu@@ 17
mit-@@ 17
flag@@ 17
j. 17
onk@@ 17
ttes 17
ablehnen 17
korrid@@ 17
sydney 17
sst 17
nirgends 17
funktionierende 17
echtz@@ 17
nonverb@@ 17
priv@@ 17
ann@@ 17
pix@@ 17
erschwinglich 17
nehm@@ 17
kodieren 17
berufung 17
transpor@@ 17
gezahlt 17
ministeri@@ 17
straßenrand 17
schlimmen 17
rohre 17
appeti@@ 17
hiert 17
annimmt 17
erfordern 17
mahmoud 17
hafen@@ 17
cyberkriminellen 17
fester 17
möglicher 17
schlechtesten 17
verkündete 17
bizarre 17
schokoladen@@ 17
vorüber@@ 17
geliebten 17
miniatur@@ 17
gedruckt 17
lässi@@ 17
gefär@@ 17
japanisch 17
lkws 17
synapsen 17
mierten 17
eriert 17
gb 17
yr 17
ther 17
gesichts 17
för@@ 17
ellinie 17
inst@@ 17
tion-@@ 17
trete 17
hipp@@ 17
ungsmittel 17
rohr 17
kalien 16
herumlaufen 16
west-@@ 16
klische@@ 16
grauen@@ 16
industrien 16
speichert 16
melan@@ 16
ek 16
lyn@@ 16
son-@@ 16
klagt 16
däch@@ 16
input 16
infolge 16
lebensstandard 16
infizierten 16
übernahm 16
lasche 16
dnis 16
pentagon 16
jahrtausende 16
stiften 16
kondom 16
umfassenden 16
wahrscheinlichkeiten 16
quad@@ 16
wahrhaft 16
privatleben 16
mancher 16
schildkröte 16
6.@@ 16
jennifer 16
zuzugeben 16
vorführung 16
u.n. 16
mittelschicht 16
verglich 16
zerfallen 16
senkre@@ 16
propheten 16
ingo 16
sars 16
rührt 16
vorgenommen 16
kataly@@ 16
pro-kopf-einkommen 16
zuschauer@@ 16
hose 16
moschee 16
behör@@ 16
kindersitze 16
migration 16
kombinationen 16
gerechnet 16
vibri@@ 16
freud 16
fleder@@ 16
videospielen 16
idiot 16
ätzung 16
umstand 16
verbrecher 16
radiowellen 16
fron@@ 16
ganges@@ 16
gavi@@ 16
einges@@ 16
magnet 16
line@@ 16
ital 16
verdiente 16
größerem 16
zerbrechen 16
ini 16
konferenz@@ 16
schwingungen 16
karzin@@ 16
medienlandschaft 16
nischer 16
neandertaler 16
hoden 16
lag@@ 16
galois 16
kolon@@ 16
schwebt 16
steins 16
tivität 16
verdau@@ 16
holl@@ 16
gelehrten 16
kämpften 16
pullover 16
verlock@@ 16
gewes@@ 16
verfasst 16
schnappen 16
meth@@ 16
sprechenden 16
geschmol@@ 16
herzan@@ 16
hindert 16
missionen 16
bewäl@@ 16
standardis@@ 16
loslassen 16
sorry 16
57 16
pünktlich 16
verzeihen 16
proto@@ 16
grace 16
expansion 16
sober@@ 16
spiegeln 16
bess@@ 16
navigieren 16
joel 16
onie 16
verabreichen 16
cus 16
wellenlänge 16
vorsitzende 16
strömt 16
leistungsfähigkeit 16
fit 16
dot@@ 16
verring@@ 16
interaktive 16
traurigkeit 16
original@@ 16
perman@@ 16
brilliant 16
1992 16
sön@@ 16
modells 16
62 16
grafisch 16
überraschenden 16
kie@@ 16
exter@@ 16
rettungs@@ 16
ruhige 16
maximieren 16
opar@@ 16
gleichberechti@@ 16
red 16
zugehöri@@ 16
christopher 16
naktivität 16
großzügigkeit 16
zusammenhänge 16
open-source 16
musikalischen 16
experiments 16
spalten 16
peit@@ 16
gänse 16
gastgeber 16
übergeben 16
eleanor 16
eindeu@@ 16
skelettmuskeln 16
insekten@@ 16
49 16
nukleare 16
senen 16
undurch@@ 16
schmug@@ 16
freaks 16
arkansas 16
cer@@ 16
insassen 16
u-bahn@@ 16
stickstoff 16
tiefgreifende 16
.a. 16
verbergen 16
sticks 16
sähen 16
dler 16
zensiert 16
westens 16
action 16
akade@@ 16
sonstwo 16
hüpfen 16
hung@@ 16
cy 16
karen 16
logi@@ 16
teer@@ 16
warme 16
nackt 16
fox 16
pistole 16
überträgt 16
zuständen 16
bler 16
spannen 16
senkrebs 16
schieß@@ 16
allge@@ 16
origam@@ 16
gerichts@@ 16
gespart 16
wendig 16
östro@@ 16
verhältnis@@ 16
gefangenen@@ 16
verfolgten 16
hebe 16
sag@@ 16
extremi@@ 16
beh@@ 16
verminder@@ 16
sied@@ 16
barung 16
parken 16
mist@@ 16
kürze 16
stünde 16
pest 16
widerspiegeln 16
gie-@@ 16
opo@@ 16
nenner 16
stossen 16
schulsystem 16
gesellschafts@@ 16
nachdenke 16
viktori@@ 16
liess 16
verteil@@ 16
reu@@ 16
ktur@@ 16
hältst 16
weltrekord 16
senator 16
skalieren 16
vertikalen 16
meldungen 16
übermitteln 16
wins 16
zunehmen@@ 16
ets 16
therapie@@ 16
mitternacht 16
fibon@@ 16
acci@@ 16
zufälle 16
atten 16
nicholas 16
verl@@ 16
ut 16
äfen 16
wägen 16
etten 16
divi@@ 16
amor@@ 16
bevölker@@ 16
gewähren 16
joy@@ 16
stunden@@ 16
veranschaulichen 16
perfektes 16
latte 16
wertet 16
stammung 16
invasion 16
vorfall 16
körper-@@ 16
diego 16
handschrift 16
gemeinschafts@@ 16
wiederherstellung 16
manuskri@@ 16
heiz@@ 16
niederlanden 16
sook 16
versu@@ 16
verbot 16
assen@@ 16
juli@@ 16
ziemliche 16
7,@@ 16
schir@@ 16
platz@@ 16
instinkt 16
guru 16
loszuwerden 16
londoner 16
implikationen 16
gebern 16
zelebri@@ 16
sofa 16
lieferung 16
player 16
cit@@ 16
schütter@@ 16
starbucks 16
hintergrund@@ 16
imker 16
prägte 16
opern@@ 16
isaac 16
mechanik 16
talks 16
deser@@ 16
kids 16
hinbekommen 16
nr. 16
verdrahtet 16
eva 16
hochauf@@ 16
koma 16
verkündet 16
schnü@@ 16
vorzugs@@ 16
iler 16
colorado 16
unwohl 16
miete 16
briga@@ 16
dele@@ 16
zuwachs 16
1976 16
willkürlich 16
illen 16
passage 16
rückenmark 16
schrittweise 16
hi-@@ 16
herauskam 16
1918 16
heiligkeit 16
twitter-@@ 16
1500 16
venten 16
doha 16
gary 16
zutat 16
altet 16
internationaler 16
spektr@@ 16
imple@@ 16
isolieren 16
öhnen 16
untersuche 16
pier@@ 16
prostatakrebs 16
kritisch 16
schildern 16
ostasien 16
saugen 16
paras@@ 16
schuss@@ 16
mehl 16
tika 16
segen 16
goldr@@ 16
tröpf@@ 16
kerze 16
verdrängen 16
protozellen 16
hoffte 16
lösbar 16
kollision 16
übereinstimmung 16
technologen 16
klammern 16
gitar@@ 16
kätzchen 16
saudi 16
haustiere 16
verstreut 16
fon@@ 16
transzendenz 16
gerichte 16
stellen@@ 16
skreis 16
schwefelwasserstoff 16
ment-@@ 16
technisches 16
anwäl@@ 16
jo-@@ 16
fundamental 16
verlangte 16
gleicht 16
teur@@ 16
genei@@ 16
zweifeln 16
cul@@ 16
rekord 16
philippe 16
östlich 16
transpar@@ 16
äfte 16
graue 16
unterstützten 16
walker 16
46 16
senioren 16
unken 16
karton 16
helfer 16
zuversicht 16
ay@@ 16
laute 16
gespürt 16
schnelles 16
ier 16
tans 16
lebenszyklus 16
asse@@ 16
ersch@@ 16
reißt 16
savanne 16
verschli@@ 16
pit@@ 16
griechen@@ 16
oscar 16
iq@@ 16
abra@@ 16
parkinson 16
ington 16
nose 16
wertschätzen 16
spektakulär 16
mittel-@@ 16
gegenüberstehen 16
tedster 16
verbun@@ 16
weltanschau@@ 16
gen. 16
greife 16
flori@@ 16
gestützt 16
korrespon@@ 16
nordafrika 16
wood@@ 16
wahrnehmungen 16
gluko@@ 16
universi@@ 16
abwei@@ 16
konventionellen 16
platten@@ 16
titan@@ 16
.... 16
kontinuierlich 16
chemo@@ 16
sz@@ 16
zitäten 16
160 16
budd@@ 16
verzer@@ 16
gecko 16
controller 16
wom@@ 16
levi@@ 16
univer@@ 16
manipu@@ 16
5,@@ 16
gels 16
weitrei@@ 16
keineswegs 16
venter 16
vollständigen 16
immel 16
phosphor@@ 16
kennen@@ 16
wirren 16
gefühls@@ 16
grüner 16
ular 16
galileo 16
wart 16
übel@@ 16
schwin@@ 16
gebäu@@ 16
gefoltert 16
mmes 16
akti@@ 16
norden-bombenzielgerät 16
gelächter 16
verflo@@ 16
kehrten 16
stunden-@@ 16
chr@@ 16
unterrichte 16
narben 16
hochzu@@ 16
philosophischen 16
rückmeldung 16
lyri@@ 16
rückgrat 16
yn@@ 16
beinhal@@ 16
siedlungen 16
benutz@@ 16
kapa@@ 16
199@@ 16
waldes 16
56 16
sphase 16
psychologischen 16
resonanz 16
zufälligerweise 16
stil@@ 16
geschnitt@@ 16
stiftungen 16
textil@@ 16
hinschauen 16
koen@@ 16
gär@@ 16
fac@@ 16
unterrichts@@ 16
lös@@ 16
tiefgrün@@ 16
mutige 16
kosmische 16
ungedul@@ 16
otro@@ 16
gesessen 16
verle@@ 16
indianer 16
mir@@ 16
holten 16
87 16
pipeline 16
rex 16
breit@@ 16
gesetzes@@ 16
zusammengearbeitet 16
meeresgrund 16
hilflos 16
greifen@@ 16
shor@@ 16
spott@@ 16
gestopft 16
treffer 16
eames 16
gemeinnützigen 16
vermutung 16
gerad@@ 16
regenwasser 16
kontr@@ 16
reib@@ 16
lier 16
kälte 16
gebü@@ 16
absichti@@ 16
vertrautheit 16
cds 16
betroff@@ 16
scham@@ 16
schweres 16
abu 16
ultimativen 16
nationalpark 16
hären 16
verdreifacht 16
arts 16
prior@@ 16
ressourcen@@ 16
mächtigste 16
ßchen 16
resultiert 16
austau@@ 16
größerer 16
able 16
verbundenheit 16
torna@@ 16
kelt 16
saat@@ 16
überraschenderweise 16
technischer 16
kramp@@ 16
nimmst 16
konfiguration 16
grausam 16
wirtschaftskrise 16
romane 16
verbannt 16
gebil@@ 16
tanzten 16
prognosti@@ 16
tiefgründige 16
gespü@@ 16
tierrei@@ 16
por 16
phoenixinseln 16
59 16
kontrollen 16
kippen 16
verbesserte 16
kommende 16
guardian 16
kollaborativen 16
sohn@@ 16
seel@@ 16
liebling 16
nagel 16
diver@@ 16
vorm 16
wuß@@ 16
besu@@ 16
größen@@ 16
gerechte 16
schottland 16
schutzgebiete 16
werks 15
libr@@ 15
ana@@ 15
elegant 15
ett@@ 15
dopamin@@ 15
ky 15
mamm@@ 15
rabbi 15
buck@@ 15
dale 15
highway 15
noah 15
natalie 15
maden 15
pink 15
foot@@ 15
ity-@@ 15
erneuer@@ 15
gros@@ 15
ando 15
atheist 15
eur@@ 15
hyp@@ 15
qatar 15
nland 15
dings 15
station@@ 15
oxid 15
moskitonet@@ 15
gegenwärtig 15
toile@@ 15
bach@@ 15
pein@@ 15
verwir@@ 15
rebecca 15
pepsi 15
stif@@ 15
eve 15
orthodo@@ 15
vention@@ 15
labors 15
mon 15
enthusi@@ 15
juan 15
jets 15
performance 15
sty@@ 15
get 15
modul@@ 15
hur@@ 15
44 15
side@@ 15
architekton@@ 15
ram 15
begren@@ 15
erfin@@ 15
folgen@@ 15
wachst@@ 15
w. 15
websites 15
schizop@@ 15
sort 15
kümmer@@ 15
arran@@ 15
linux 15
hierarch@@ 15
verzei@@ 15
olympi@@ 15
völker@@ 15
reno@@ 15
versa@@ 15
thun@@ 15
konzent@@ 15
ipad 15
r-@@ 15
ktar 15
bergs 15
geschäf@@ 15
zig@@ 15
prob@@ 15
films 15
media-@@ 15
pflan@@ 15
kleb@@ 15
imitation 15
urteile 15
rna 15
absurd 15
200-@@ 15
tung@@ 15
archite@@ 15
mac@@ 15
lymph@@ 15
ari 15
äqu@@ 15
lobby 15
brannt 15
zuschau@@ 15
wack@@ 15
ape@@ 15
myth@@ 15
rang@@ 15
impli@@ 15
schrank 15
bigkeit 15
vet@@ 15
wide 15
ria 15
lerin 15
chat@@ 15
redwood-@@ 15
mete@@ 15
kord 15
persön@@ 15
zimbabwe 15
kuba 15
chtigkeit 15
clar@@ 15
kot@@ 15
segment 15
master@@ 15
brothers 15
genü@@ 15
teilchen@@ 15
beschleun@@ 15
wood-@@ 15
zähl@@ 15
prozenti@@ 15
mobi@@ 15
gestü@@ 15
mage 15
überraschen@@ 15
ris 15
diff@@ 15
tzer 15
qualit@@ 15
fasz@@ 15
sh 15
simulator 15
algebra 15
beob@@ 15
sopa 15
langley 15
intervention 15
bb 15
hst 15
gier 15
beat@@ 15
display 15
geregt 15
ballast 15
ul 15
chlor@@ 15
dreidimension@@ 15
echnet 15
haw@@ 15
mmert 15
timing 15
ros@@ 15
tattoos 15
manage@@ 15
love 15
trivi@@ 15
venus 15
inti@@ 15
unab@@ 15
radius 15
aufklär@@ 15
prag@@ 15
dez@@ 15
bhutan 15
lake 15
stud@@ 15
bo-@@ 15
amsterdam 15
begrü@@ 15
ächlich 15
k. 15
jack@@ 15
sass 15
gefäng@@ 15
offizi@@ 15
palm 15
hase 15
cro@@ 15
relative 15
überwach@@ 15
phas@@ 15
rede@@ 15
verdeut@@ 15
haupts@@ 15
zenti@@ 15
äs@@ 15
beethoven 15
shoots 15
fos 15
ti 15
ubuntu 15
1975 15
flan@@ 15
lossen 15
15-@@ 15
bulg@@ 15
vergnü@@ 15
jet 15
hormon@@ 15
mög@@ 15
ruf@@ 15
8.@@ 15
gradu@@ 15
science-@@ 15
bai@@ 15
muni@@ 15
tennessee 15
.com. 15
oto@@ 15
überwälti@@ 15
alphab@@ 15
lichte 15
73 15
cl@@ 15
miner@@ 15
nin@@ 15
biot@@ 15
cad@@ 15
taxi@@ 15
ök@@ 15
hea@@ 15
dopp@@ 15
daf-2 15
pot 15
gerweise 15
1985 15
cen@@ 15
jag@@ 15
ferti@@ 15
illeg@@ 15
lord 15
user 15
cancer 15
beängsti@@ 15
wehr@@ 15
wahnsinni@@ 15
entschei@@ 15
ön@@ 15
bron@@ 15
ddt 15
wärts 15
gefil@@ 15
screen 15
avenue 15
walter 15
mierte 15
membran@@ 15
soli@@ 14
museums 14
neutral 14
festivals 14
marine 14
intelligen@@ 14
stigmati@@ 14
8-@@ 14
bekämp@@ 14
39 14
häus@@ 14
uc@@ 14
rehabilitation 14
deep 14
jonas 14
legiti@@ 14
lithium 14
herrsch@@ 14
somalia 14
gemä@@ 14
oly@@ 14
nee@@ 14
gehr@@ 14
madagas@@ 14
tumors 14
afghani@@ 14
stans 14
anas 14
event 14
greg 14
biomimi@@ 14
cer 14
wich 14
inje@@ 14
methodi@@ 14
gelä@@ 14
strat@@ 14
bihar 14
anwei@@ 14
tiers 14
beauf@@ 14
domini@@ 14
extremis@@ 14
1987 14
ssern 14
port 14
sound 14
bemerkens@@ 14
ores 14
jill 14
ñ@@ 14
dul@@ 14
well@@ 14
veranschau@@ 14
betrie@@ 14
kyoto 14
ye 14
größenor@@ 14
mac 14
mosp@@ 14
häre 14
beck 14
femin@@ 14
black 14
kurzweil 14
außer@@ 14
gebur@@ 14
miami 14
flickr 14
ara 14
korallenri@@ 14
ends 14
kis@@ 14
gelenk 14
berfläche 14
imper@@ 14
4.@@ 14
gent 14
mexico 14
kins 14
sha 14
biolo@@ 14
koll@@ 14
bemü@@ 14
arena 14
aa 14
vill@@ 14
burger 14
mission@@ 14
bibli@@ 14
verlan@@ 14
cent@@ 14
metri@@ 14
date 14
barbara 14
megawatt 14
solly 14
brill@@ 14
mitglie@@ 14
tools 14
mins 14
stick 14
ces 14
redwoods 14
90@@ 14
frau@@ 14
hou@@ 14
darpa 14
khmer 14
robust 14
pop-@@ 14
boy@@ 14
zwangs@@ 14
karl 14
therapeu@@ 14
gelehr@@ 14
jargon 14
clu@@ 14
hinder@@ 14
bbc 14
mozart 14
muti@@ 14
eb@@ 14
hitler 14
entation 14
erwachsen@@ 14
motive 14
windows 14
kepler 14
stunt@@ 14
vibra@@ 14
1949 14
glä@@ 14
glü@@ 14
morph@@ 14
emis@@ 14
alfred 14
business@@ 14
seit@@ 14
eder 14
expertise 14
pessimi@@ 14
programm@@ 14
tedglobal 14
intel 14
hnen@@ 14
sean 14
fert 14
inno@@ 14
rönt@@ 14
konvention@@ 14
29@@ 14
styro@@ 14
ments 14
skelet@@ 14
resi@@ 14
association 14
page 14
meme@@ 14
einschrän@@ 14
extra-@@ 14
bra 14
aden@@ 14
kehr 14
ever@@ 14
wohnern 14
such 14
argumentation 14
simpl@@ 14
aimee 14
village 14
förmi@@ 14
schwanger@@ 14
treasure 14
protokoll 14
fokus@@ 14
miller 14
leist@@ 14
goliath 14
skelett@@ 14
ps@@ 14
tai@@ 14
prog@@ 14
barri@@ 14
winden 14
nullsummen@@ 14
progno@@ 14
53 14
rang 14
kle 14
numer@@ 14
zk 14
sanit@@ 14
kupp@@ 14
movember 14
jersey 14
vernünf@@ 14
ungefä@@ 14
lies 14
telescope 14
hyperbo@@ 14
roots 14
monitor 14
profi@@ 14
cock@@ 14
gewand@@ 14
poe@@ 14
protokol@@ 14
wesens 14
expedi@@ 14
broadmoor 14
carter 14
dir@@ 14
minu@@ 14
kuri@@ 14
natür@@ 14
pli@@ 14
oprah 14
portland 14
sive 14
nevada 14
100@@ 14
nanometer 14
tw@@ 14
js 14
skel@@ 14
jazeera 14
marks 14
susie 14
indu@@ 14
anor@@ 14
solar 14
trägen 14
immer@@ 14
uniform 14
akzept@@ 14
provin@@ 14
edward 14
lou@@ 14
intergal@@ 14
außerir@@ 14
routin@@ 14
dubai 14
romo 14
audio 14
besei@@ 14
cd 14
veget@@ 14
arier 14
fungi 14
grey 14
jam@@ 14
biet@@ 14
41 14
gad@@ 14
ex-@@ 14
adres@@ 14
ward 14
carbon@@ 14
sms-@@ 14
anna 14
marker 14
reflex 14
sioux 14
wn 14
spring@@ 14
hindu@@ 14
transi@@ 14
photoshop 13
harv@@ 13
ato@@ 13
faszin@@ 13
plato 13
ster-@@ 13
ful@@ 13
t-shirt 13
floss 13
songs 13
tha 13
moham@@ 13
bilität 13
manu@@ 13
matthew 13
janine 13
trade 13
marco 13
cocktail 13
abc 13
kabul 13
internation@@ 13
cle@@ 13
windet 13
one@@ 13
istanbul 13
survey 13
rän@@ 13
kosm@@ 13
ar-@@ 13
mcdon@@ 13
studios 13
eduardo 13
entscheid@@ 13
chop 13
physikal@@ 13
hudson 13
key 13
vaginas 13
touch@@ 13
legal 13
shirt 13
rohe 13
tera 13
nich@@ 13
fossi@@ 13
170 13
mri 13
sole 13
saul 13
botswana 13
richte 13
schwing@@ 13
keyboard 13
avi@@ 13
könn@@ 13
negatives 13
ony@@ 13
network 13
archimedes 13
zwöl@@ 13
fers 13
cover 13
mantra 13
luke 13
thy 13
symptom 13
6-@@ 13
ross@@ 13
widersprü@@ 13
jan 13
arro@@ 13
ban 13
power@@ 13
sy 13
filme@@ 13
ng 13
orni@@ 13
steuropa 13
roosevelt 13
redwood 13
expo 13
cyber-@@ 13
prüf@@ 13
maximum 13
künf@@ 13
mentor 13
sichten 13
protest 13
netra 13
versi@@ 13
fana@@ 13
philipp@@ 13
sad@@ 13
butter@@ 13
behaup@@ 13
key@@ 13
pande@@ 13
alex@@ 13
sergey 13
vs 13
transforma@@ 13
teppi@@ 13
harris 13
webs 13
dote 13
mem@@ 13
essex 13
gehö@@ 13
aggressi@@ 13
esi@@ 13
side 13
jeder@@ 13
bias 13
sally 13
bia 13
stechnolo@@ 13
wais@@ 13
free@@ 13
ergeb@@ 13
vision@@ 13
í@@ 13
quadri@@ 13
i.@@ 13
pipa 13
ec@@ 13
gesp@@ 13
charis@@ 13
remix 13
fon 13
slogan 13
dierte 13
verbunden@@ 13
trink@@ 13
plas@@ 13
white 13
einkauf@@ 13
67 13
bond 13
a.@@ 13
ulose 13
ppm 13
vio@@ 13
ain 13
til 13
prostat@@ 13
acumen 13
asym@@ 13
therape@@ 13
browne 13
homini@@ 13
mitfühl@@ 13
picasso 13
insi@@ 13
car 13
eigent@@ 13
bangladesh 13
epilep@@ 13
res 13
gehry 13
fond 13
lisa 13
leads 13
barbar@@ 13
dollar@@ 13
plant 13
anatom@@ 13
halts@@ 13
evange@@ 13
you@@ 13
opera@@ 13
dog@@ 13
lobby@@ 13
ju 13
dra 13
gy@@ 13
ct@@ 13
nom@@ 13
vie@@ 13
inie 13
julie 13
terrain 13
video-@@ 13
saf@@ 13
retina 13
servi@@ 13
1969 13
selbstmor@@ 13
elizabeth 13
-up 13
trip 13
see-@@ 13
appli@@ 13
era 13
zufälli@@ 13
connecticut 13
ält 13
akadem@@ 13
drum 13
sapiens 13
spru@@ 13
nollywood 13
eingeschrän@@ 13
mister 13
1974 13
ansamm@@ 13
rory 13
formal@@ 13
gando 13
machine 13
autobio@@ 13
google-@@ 13
200@@ 13
tox@@ 13
amphi@@ 13
mangro@@ 13
auto-@@ 13
cartoon 13
skype 13
vancouver 13
verse 13
q 13
enth@@ 13
visi@@ 13
geckos 13
motiv@@ 13
feln 13
ktieren 13
bos@@ 13
glori@@ 13
transistor 13
wirt@@ 13
ement 13
voyager 13
ila 13
e.@@ 13
olymp@@ 13
can 13
how 13
mali@@ 13
lanka 13
eh 13
andauern@@ 13
ret@@ 13
bud@@ 13
1967 13
e8 13
heres 13
augu@@ 13
fernse@@ 13
chop@@ 13
anom@@ 13
grove 13
hydra@@ 13
1978 13
lay@@ 13
supercomputer 13
economist 13
quarti@@ 13
semin@@ 13
eter 13
famili@@ 13
later@@ 13
serotonin 13
pam@@ 13
nommen 13
mental 13
trum@@ 13
c.@@ 13
übri@@ 13
clou@@ 13
reed 13
ome@@ 13
ungeheu@@ 13
tyr@@ 13
hertz 13
map 13
ies 13
sisch 13
logarith@@ 13
spray 13
tenden@@ 13
1962 13
kine@@ 12
ergie 12
sheila 12
ipods 12
tres@@ 12
hiroshima 12
weblogs 12
pagne 12
diam@@ 12
wiegend 12
ohio 12
teleskop@@ 12
mega@@ 12
reli@@ 12
54 12
neutrin@@ 12
rica 12
schlüs@@ 12
courage 12
frank@@ 12
li 12
syner@@ 12
tm 12
gefühl@@ 12
osaurus 12
00 12
onlin@@ 12
iles 12
tha@@ 12
bahamas 12
niens 12
adrenal@@ 12
68 12
gou@@ 12
erklär@@ 12
besser@@ 12
stere@@ 12
extro@@ 12
aura 12
crick@@ 12
suey 12
hof@@ 12
nolo@@ 12
california 12
ihr@@ 12
couch 12
82 12
vre 12
marshmallow 12
öst@@ 12
äten 12
à 12
winzi@@ 12
chin 12
queen 12
monu@@ 12
hard@@ 12
embryo 12
passion 12
toyota 12
dolby 12
chi 12
1947 12
za-@@ 12
thinking 12
taler 12
valent@@ 12
danny 12
schr@@ 12
ili@@ 12
rd 12
seth 12
erfolgrei@@ 12
essig 12
dat 12
tner 12
boy 12
84 12
geschma@@ 12
locke 12
änder@@ 12
n. 12
is-@@ 12
60-@@ 12
fing@@ 12
kara@@ 12
ration 12
aph@@ 12
ursprün@@ 12
yo 12
1979 12
synchr@@ 12
mega-@@ 12
biom@@ 12
screen@@ 12
chirur@@ 12
gin 12
oc@@ 12
quarks 12
labyrin@@ 12
elvis 12
laster 12
negroponte 12
stefan 12
dnis@@ 12
engel@@ 12
odysseus 12
giga@@ 12
lingui@@ 12
andre@@ 12
our 12
premiere 12
bonobo 12
biomedi@@ 12
1973 12
erwei@@ 12
weibo 12
motiva@@ 12
bay@@ 12
guer@@ 12
jacqueline 12
make@@ 12
pho@@ 12
cello 12
cern 12
hadron 12
collider 12
atten@@ 12
berau@@ 12
hu 12
central 12
chri@@ 12
seits 12
robben 12
jimmy 12
tzer@@ 12
tree 12
sammel@@ 12
benki 12
nab@@ 12
via 12
bec@@ 12
robin 12
ce-@@ 12
republi@@ 12
biolog@@ 12
stro 12
fitness 12
rich 12
samuel 12
ario 12
jer@@ 12
pers@@ 12
nuan@@ 12
vinci 12
rezero 12
zwungen 12
algorith@@ 12
prostitution 12
tta 12
hig@@ 12
noch@@ 12
51 12
lifestyle 12
mahatma 12
urkn@@ 12
ella 12
jor@@ 12
ee 12
interfer@@ 12
synthesizer 12
penny 12
ance 12
cha 12
kateg@@ 12
cin 12
sationen 12
cybor@@ 12
zau@@ 12
urhe@@ 12
1800 12
nazis 12
bruno 12
rufus 12
ona 12
obser@@ 12
74 12
photo 12
geschen@@ 12
junior 12
jewei@@ 12
puzzle 12
gla@@ 12
chad 12
lesterland 12
pflich@@ 12
inhab@@ 12
brain@@ 12
dimen@@ 12
sudhir 12
79 12
iphones 12
ätz@@ 12
verlei@@ 12
dc 12
yan 12
mere 12
our@@ 12
yl 12
24-@@ 12
tac@@ 12
kennung 12
allererst 12
has 12
requ@@ 12
ib@@ 12
yes 12
proteom@@ 12
92 12
oney 12
ola 12
fbi 12
johan@@ 12
smart 12
so-@@ 12
thin@@ 12
nukle@@ 12
fts@@ 12
hman 12
91 12
montage 12
minnesota 12
alia 12
eden 12
rm 12
bour@@ 12
sk 12
amy@@ 12
hawai@@ 12
oregon 12
prägt 12
deal 12
ih@@ 12
religi@@ 12
mun@@ 12
okap@@ 12
rupt 12
container 12
steak 12
rag@@ 12
ores@@ 12
1965 12
chenen 12
wies@@ 12
1981 12
ckens 12
colum@@ 12
iro 12
mm-@@ 12
astero@@ 12
high-tech 12
gymn@@ 12
ryan 12
franklin 12
bien@@ 12
kontro@@ 12
aje@@ 12
unes 12
käf@@ 12
sent@@ 12
feyn@@ 12
komple@@ 12
maitreya 12
kay 12
cochrane 12
erleu@@ 12
aka 12
toaster 12
vitam@@ 12
shirky 12
ging@@ 12
academy 12
gem@@ 12
uri@@ 12
commons 12
verdam@@ 12
anth@@ 12
soft 12
laden@@ 12
gespro@@ 12
humani@@ 12
wahrhaf@@ 12
anga 12
sees 12
agra@@ 12
empire 12
permanent 12
pur 12
blah 12
terence 12
gefangen@@ 12
ni 12
asphalt 12
mom@@ 12
tra 12
o. 12
russell 12
diale@@ 12
therap@@ 12
tyran@@ 12
georgia 12
gman 12
mitchell 12
optimal 12
ble 12
bridge 12
uli@@ 12
bahnbrech@@ 12
tzei@@ 12
warner 12
women 12
ket 12
shred@@ 12
locker 12
ust 12
diskus@@ 12
arith@@ 12
pran@@ 12
adoption 12
tickets 11
prototyp@@ 11
enco@@ 11
derweise 11
john@@ 11
universal 11
denten 11
8,@@ 11
verknü@@ 11
thermo@@ 11
agra 11
fantas@@ 11
blutgefä@@ 11
ics 11
peru 11
reson@@ 11
store 11
cape 11
ungskette 11
cephal@@ 11
93 11
sal 11
manifestation 11
kenya 11
zy 11
figu@@ 11
millen@@ 11
batman 11
gelöscht 11
ype 11
chau@@ 11
alexandria 11
-mann 11
ice 11
brain 11
unternehmen@@ 11
belohn@@ 11
ü 11
boys 11
your 11
hyderabad 11
billy 11
faul@@ 11
foo@@ 11
sty 11
illinois 11
mosk@@ 11
hem 11
dl 11
stream 11
1988 11
mans 11
good@@ 11
aar@@ 11
ara@@ 11
night 11
esot@@ 11
flexible 11
beobach@@ 11
veröffentlich@@ 11
r. 11
12-@@ 11
63 11
simul@@ 11
ue@@ 11
etes 11
pation 11
bonnie 11
profile 11
stenz 11
marin@@ 11
u.@@ 11
ald 11
affe@@ 11
phi@@ 11
anäs@@ 11
wall@@ 11
doku@@ 11
cp 11
cra@@ 11
sutherland 11
hysi@@ 11
feed 11
klini@@ 11
ables 11
balls 11
gap@@ 11
upp@@ 11
ema@@ 11
aussen 11
inflation 11
ace 11
bad@@ 11
fter 11
fahr 11
ira 11
yang 11
palästin@@ 11
marshall 11
gate 11
bc 11
pure 11
yam@@ 11
dai 11
separ@@ 11
è@@ 11
tedx 11
work 11
dep@@ 11
gans 11
america 11
bug 11
lov@@ 11
regul@@ 11
kran 11
gun@@ 11
erik 11
turbin@@ 11
aturen 11
field 11
minimum 11
rhex 11
immense 11
h5n1 11
präsi@@ 11
dentin 11
petro@@ 11
ego@@ 11
pedi@@ 11
tatsäch@@ 11
helix 11
isra@@ 11
exi@@ 11
peti@@ 11
platt@@ 11
auß@@ 11
dah 11
vege@@ 11
zep@@ 11
esti@@ 11
davis 11
fluktu@@ 11
superstar 11
nai@@ 11
sponsor 11
bonus 11
mittl@@ 11
genes 11
carol 11
mitochondri@@ 11
letzten@@ 11
hansen 11
mountain@@ 11
jabbar 11
fft 11
aben@@ 11
rationale 11
med@@ 11
kim@@ 11
ziff@@ 11
phoenix 11
athan 11
potter 11
pots 11
sergio 11
mississippi 11
webcam 11
ausreich@@ 11
erieren 11
ansässi@@ 11
pack 11
schee 11
ethi@@ 11
gour@@ 11
bj 11
käl@@ 11
remix@@ 11
ous@@ 11
ary 11
arms 11
martha 11
accenture 11
ronald 11
jama@@ 11
karikat@@ 11
storbenen 11
aid 11
nobyl 11
jeep 11
random@@ 11
würfe 11
astron@@ 11
toll@@ 11
full 11
40-@@ 11
road@@ 11
kraten 11
5,000 11
meg@@ 11
rückmel@@ 11
hein@@ 11
bedeu@@ 11
peer-@@ 11
dge 11
logos 11
deck 11
oecd 11
kahn 11
splashy 11
spani@@ 11
separate 11
brit@@ 11
wärmen 11
mass 11
‒ 11
carolyn 11
emmanuel 11
pole 11
sound@@ 11
rott@@ 11
arma@@ 11
library 11
notation 11
lucy 11
basketball 11
führungsk@@ 11
til@@ 11
gilbert 11
sweeney 11
89 11
channel 11
roll 11
tell 11
feder@@ 11
intelligent@@ 11
stress@@ 11
iden@@ 11
zipi@@ 11
multi-@@ 11
plau@@ 11
t-shirts 11
dimitri 11
molekul@@ 11
enzyme 11
zon@@ 11
tnis@@ 11
94 11
stand-up 11
feed@@ 11
án 11
look 11
onym 11
noma@@ 11
output 11
hub@@ 11
steam 11
justin 11
cohen 11
kanzi 11
saurus 11
georgetown 11
tbp 11
entin 11
chefs 11
ib 11
villa 11
paro@@ 11
irri@@ 11
helen 11
aorta 11
stanley 11
boeing 11
lick@@ 11
coach 11
basket@@ 11
dm@@ 11
clips 11
o.@@ 11
anger 11
resour@@ 11
triumph 11
alhambra 11
bul@@ 11
card 11
stero@@ 11
f. 11
chand@@ 11
bee 11
disson@@ 11
ela 11
schlacht@@ 11
dney 11
dead 11
synapse 11
boards 11
ong 11
lesters 11
ernest 11
sm 11
oxyto@@ 11
kin 11
patrick 11
stick@@ 11
dka 11
mikrosk@@ 11
kick 11
pat 10
piano 10
holocaust 10
ros 10
hip-@@ 10
hus@@ 10
introver@@ 10
turi@@ 10
chro@@ 10
austr@@ 10
scot@@ 10
inner 10
philanthrop@@ 10
lings 10
richards 10
cky 10
wy@@ 10
nive@@ 10
session 10
ct 10
group 10
tast@@ 10
β@@ 10
tium 10
missouri 10
autop@@ 10
hes 10
ak-@@ 10
quot@@ 10
homo@@ 10
now 10
differenti@@ 10
po 10
cel@@ 10
atives 10
verpac@@ 10
pic@@ 10
non-@@ 10
jordans 10
gosla@@ 10
list 10
pad 10
mini-@@ 10
uum 10
indiana 10
militä@@ 10
deen 10
call@@ 10
isla@@ 10
lem 10
nick@@ 10
lot 10
adoles@@ 10
demo 10
eye 10
unaids 10
passive 10
dennis 10
riverside 10
semester 10
jac@@ 10
thin 10
netflix 10
phili@@ 10
water@@ 10
cargill 10
versums 10
kerala 10
eman@@ 10
ep 10
celine 10
kathe@@ 10
michel@@ 10
cir@@ 10
home 10
ri 10
orthop@@ 10
mittelt 10
reka 10
taylor 10
hillary 10
71 10
word 10
inging 10
cradle 10
milit@@ 10
dyson 10
ima 10
jähr@@ 10
esther 10
chromosom@@ 10
sediment 10
stomatopo@@ 10
comedi@@ 10
teraby@@ 10
tch@@ 10
usi@@ 10
rüstung 10
carson 10
jes@@ 10
vens 10
friedman 10
wey 10
sorgfäl@@ 10
gurt 10
foren@@ 10
shot 10
email 10
dow@@ 10
arte@@ 10
main@@ 10
tahrir 10
shir@@ 10
grat 10
quantita@@ 10
wards 10
bobby 10
1966 10
brie@@ 10
keines@@ 10
begri@@ 10
scratch 10
gabriel 10
grö@@ 10
clark 10
dennett 10
peripher@@ 10
babylon@@ 10
gelegen@@ 10
ning 10
geiger 10
mcluhan 10
oklahoma 10
emergen@@ 10
eck 10
jordan 10
geschaff@@ 10
army 10
nano 10
israelis 10
usc 10
eni@@ 10
konkur@@ 10
novogratz 10
unruhi@@ 10
gigkeit 10
gurus 10
viol@@ 10
wit@@ 10
fettlei@@ 10
tragö@@ 10
shal@@ 10
transmitter 10
comp@@ 10
ovirus 10
tata 10
oec@@ 10
plot@@ 10
versicher@@ 10
single 10
over@@ 10
intuitive 10
fant@@ 10
monter@@ 10
tarahumara 10
usda 10
admini@@ 10
konkurr@@ 10
week 10
lucas 10
pari@@ 10
operative 10
performan@@ 10
copyright 10
avatar 10
650 10
wales 10
milzt 10
press 10
invol@@ 10
fellow 10
ador 10
osama 10
makoko 10
maje@@ 10
parab@@ 10
selam 10
pag@@ 10
doberfläche 10
drama 10
hypo@@ 10
stuart 10
sagmeister 10
byr@@ 10
coun@@ 10
rus 10
kies 10
care 10
amazon@@ 10
antibio@@ 10
traumati@@ 10
quit@@ 10
wilder@@ 10
saddam 10
comic 10
matri@@ 10
ceo 10
exxon 10
imagin@@ 10
stockholm 10
beverly 10
point 10
oxy@@ 10
triceratops 10
elefan@@ 10
gorillas 10
aka@@ 10
events 10
chu 10
uruguay 10
gespei@@ 10
dus 10
schlimm@@ 10
nancy 10
oth@@ 10
lider 10
mafi@@ 10
austin 10
ellip@@ 10
beatles 10
play 10
galapagos 10
erosion 10
lynn 10
lett-@@ 10
verhäl@@ 10
optimist 10
sation 10
regimes 10
turbul@@ 10
lev@@ 10
bring 10
struk@@ 10
camp 10
gaga 10
galvao 10
glu@@ 10
irrational 10
insky 10
kw@@ 10
bing 10
param@@ 10
primitive 10
thal@@ 10
building 10
expres@@ 10
asp@@ 10
portu@@ 10
plo@@ 10
10,000 10
ley@@ 10
happ@@ 10
mann@@ 10
leton 10
singul@@ 10
gespen@@ 10
iran-@@ 10
episode 10
marathons 10
metro@@ 10
victoria 10
united 10
medicine 10
young 10
anthony 10
igkeiten 10
dum@@ 10
storben 10
tus 10
smi@@ 10
überzeug@@ 10
maps 10
hol 10
repertoire 10
hock@@ 10
oakland 10
dialo@@ 10
einspar@@ 10
mubarak 10
vaku@@ 10
waff@@ 10
66 10
stehung 10
stigma 10
icons 10
babysi@@ 10
aviv 10
veranst@@ 10
leg 10
nbc 10
cow@@ 10
creative 10
back 10
old 10
cholester@@ 10
michoac@@ 10
ablen 10
haber 10
verdrah@@ 10
tors 10
ble-@@ 10
south@@ 10
court 10
bion@@ 10
leon@@ 10
skulp@@ 10
psychopa@@ 10
sell@@ 10
lak@@ 10
nk 10
lac@@ 10
urspr@@ 10
nerds 10
raket@@ 10
fusi@@ 10
institu@@ 10
maga@@ 10
theat@@ 10
barefoot 10
fäng@@ 10
harlem 10
skate@@ 10
pluri@@ 10
nug@@ 10
signi@@ 10
mandel@@ 10
tide 10
brid@@ 10
sterb@@ 10
metaboli@@ 10
78 10
stimuli 10
brow@@ 10
absur@@ 10
eno 10
bewä@@ 10
technology 10
mies 10
nervö@@ 10
kilome@@ 10
eson 10
schossen 10
geschwi@@ 10
ite@@ 10
phen@@ 10
ghet@@ 10
hob@@ 10
shire 10
alarm 10
domesti@@ 10
graffiti 10
win-@@ 10
strato@@ 10
mächti@@ 10
boyle 10
virgin 10
fax 10
opp@@ 10
hindi 10
ide 10
arsenal 10
cynthia 10
phil 10
läufig 10
football 10
aida 10
sas@@ 10
madison 10
zon 10
smartphones 10
manchester 10
fortune 10
ames 9
judy 9
pper@@ 9
81 9
auschwitz 9
sponsor@@ 9
propor@@ 9
cab@@ 9
hart@@ 9
corporation 9
techno@@ 9
wan 9
otech@@ 9
salman 9
jere@@ 9
blan@@ 9
report 9
brutal 9
nature 9
messen@@ 9
pacific 9
nap@@ 9
psychop@@ 9
tradi@@ 9
erkl@@ 9
tb 9
nib@@ 9
romegal@@ 9
linus 9
chy@@ 9
rem@@ 9
australi@@ 9
hunt 9
regenerative 9
dama@@ 9
human 9
jordan@@ 9
d.@@ 9
share 9
curtis 9
minto 9
archet@@ 9
otto 9
ite 9
galaxi@@ 9
sousa 9
lob@@ 9
infor@@ 9
helikop@@ 9
enriquez 9
minster 9
steel 9
tow@@ 9
seymour 9
jean-@@ 9
michel 9
collins 9
dow 9
teddy 9
aw@@ 9
ambulan@@ 9
volvo 9
hmt 9
idy@@ 9
bell@@ 9
marcus 9
lux 9
if 9
evelyn 9
rats 9
troffen 9
vernicht@@ 9
88 9
fracking 9
arthritis 9
gewis@@ 9
malaysia 9
750 9
hay@@ 9
jab@@ 9
völ@@ 9
mao 9
manifest 9
bowl 9
ic 9
row 9
rockefeller 9
turn@@ 9
ank 9
jacques 9
ahmed 9
mation 9
stelligen 9
cocktails 9
ole@@ 9
beauftra@@ 9
pinker 9
down-@@ 9
muffin 9
ely 9
lk@@ 9
bp 9
pro-kopf-@@ 9
jury 9
bronze 9
kuwait 9
lear@@ 9
english 9
geo-@@ 9
holfen 9
semble 9
atrice 9
marc 9
sensible 9
marie 9
xen@@ 9
rett 9
glenn 9
deregu@@ 9
ages 9
ukra@@ 9
tn@@ 9
lex@@ 9
ura 9
alan@@ 9
conne@@ 9
tk 9
hamlet 9
shilfe 9
diabe@@ 9
tell@@ 9
vermeer 9
emper@@ 9
rhin@@ 9
dant 9
gand@@ 9
ji 9
zhou 9
jesse 9
mellon 9
gram 9
superno@@ 9
face@@ 9
book@@ 9
ils 9
budapest 9
opec 9
samt 9
have 9
verne@@ 9
stage 9
365 9
beginn@@ 9
mauri@@ 9
bury 9
prax@@ 9
math@@ 9
pont 9
head 9
seroton@@ 9
enter@@ 9
dod@@ 9
popu@@ 9
gles 9
ecu@@ 9
laparo@@ 9
emer@@ 9
ry@@ 9
gratu@@ 9
haven 9
millenni@@ 9
horror 9
alligator 9
bras 9
airbnb 9
echo 9
home@@ 9
drucker@@ 9
integra@@ 9
kaluza 9
module 9
inn 9
ada 9
mah 9
ürf@@ 9
orion 9
rockwell 9
gentleman 9
ght-@@ 9
eira 9
stelli@@ 9
orie 9
ernsth@@ 9
berk@@ 9
hussein 9
mae@@ 9
vili@@ 9
spoofer 9
mid@@ 9
spit@@ 9
vertik@@ 9
busin@@ 9
etc 9
motion 9
dauern@@ 9
synago@@ 9
altar 9
prop@@ 9
portal 9
profess@@ 9
ader 9
dor 9
hend 9
trance 9
oz 9
suns 9
angola 9
locks 9
repres@@ 9
gui@@ 9
quo 9
blogo@@ 9
woods 9
chuck 9
ind 9
shakespe@@ 9
natu@@ 9
oper@@ 9
zi 9
office 9
epiphy@@ 9
onal 9
plutonium 9
warm@@ 9
sense 9
indus 9
vivian 9
superman 9
holland 9
rami@@ 9
sis@@ 9
score 9
feiert 9
dt 9
pore 9
cleveland 9
neugi@@ 9
bestand@@ 9
elli 9
diaspora 9
ml 9
temper@@ 9
tica 9
regener@@ 9
randi 9
garden 9
pünkt@@ 9
dehy@@ 9
casey 9
woo@@ 9
hoo 9
soft@@ 9
pipelines 9
melt 9
lol 9
tofu 9
p. 9
chol@@ 9
yi 9
fibro@@ 9
christ 9
proteins 9
1953 9
tora@@ 9
sogenan@@ 9
bike 9
hygiene 9
public 9
tool 9
torium 9
dog 9
gi 9
baxter 9
cl 9
loh 9
grin@@ 9
dwell 9
magnes@@ 9
kentucky 9
malcolm 9
bess 9
gesu@@ 9
king@@ 9
aggression 9
jurassic 9
greg@@ 9
infr@@ 9
symme@@ 9
heroin 9
mug@@ 9
alisa 9
fred 9
berners-lee 9
beau 9
streut 9
tribun@@ 9
tou@@ 9
butter 9
restri@@ 9
wade 9
marsh@@ 9
nashville 9
dom 9
quant@@ 9
caroline 9
philips 9
fat@@ 9
au-@@ 9
prince 9
fix@@ 9
kler 9
aly@@ 9
rockett 9
ranger 9
j.@@ 9
mathematica 9
mast 9
iowa 9
rap 9
jahrel@@ 9
giraffe 9
46@@ 9
himi 9
veri@@ 9
vernun@@ 9
wachs 9
gni@@ 9
rup@@ 9
hydropho@@ 9
gger 9
ezra 9
pianist 9
chev@@ 9
greenpeace 9
solo 9
schwefel@@ 9
lyn 9
stunt 9
stereot@@ 9
nerv@@ 9
cell@@ 9
walt 9
schlus@@ 9
tyranno@@ 9
mails 9
trauma 9
spring 9
gedei@@ 9
popcorn 9
core@@ 9
drake 9
psychopath 9
blind@@ 9
dis 9
pyth@@ 9
yahoo 9
maslow 9
camp@@ 9
zent 9
isis 9
sep@@ 9
automobile 9
ting 9
charlotte 9
kodi@@ 9
sala 9
alberto 9
codi@@ 9
selten@@ 9
belo@@ 9
invasive 9
ino 9
na-@@ 9
rig 9
thro@@ 9
geschri@@ 9
no-@@ 9
240 9
nega@@ 9
bal 9
ution 9
australopithe@@ 9
alabama 9
terry 9
toler@@ 9
solidar@@ 9
diet@@ 9
hills 9
myo@@ 9
anthropo@@ 9
thermodynam@@ 9
modu@@ 9
bilbao 9
erkan@@ 9
tweets 9
unic@@ 9
jean 9
wick 9
gefan@@ 9
lah 9
bollywood 9
ikea 9
orch@@ 9
vine 9
newton@@ 9
budrus 9
legal@@ 9
1858 9
alis@@ 9
mrs. 9
glän@@ 9
dys@@ 9
najmuddin 9
fundam@@ 9
.org. 9
pierre 9
merito@@ 9
bandura 9
plur@@ 9
boli@@ 9
maui 9
ison 9
atlas 9
emma 9
rr@@ 9
its 9
gorilla 9
forbes 9
demie 9
defe@@ 9
err@@ 9
relation@@ 9
denburg 9
mad 9
maeda 9
tech 9
pop 9
endo@@ 9
lindber@@ 8
bins 8
simpson 8
harr@@ 8
quor@@ 8
hyper-@@ 8
salaam 8
illusion@@ 8
kaaba 8
sser@@ 8
oxi@@ 8
reader 8
wee@@ 8
parkin@@ 8
seni@@ 8
parano@@ 8
nih 8
sao 8
paulo 8
radar 8
td 8
ende@@ 8
homer 8
way@@ 8
spare 8
button 8
agent 8
castle 8
sle@@ 8
haz@@ 8
argu@@ 8
honey 8
levin 8
potent 8
zukun@@ 8
tedwomen 8
polymer 8
hospi@@ 8
mahab@@ 8
morgan 8
lock 8
strings 8
hy 8
kiva 8
spekta@@ 8
deutsch@@ 8
vind 8
shri@@ 8
cras@@ 8
gabyte 8
pesti@@ 8
guatemala 8
ampli@@ 8
hc 8
marduk 8
ike@@ 8
value 8
spiderman 8
nyu 8
frontal 8
soundtrack 8
country 8
ibu@@ 8
symph@@ 8
pascal 8
wöl@@ 8
vage 8
marx 8
mr 8
weltre@@ 8
nikol@@ 8
vermitt@@ 8
iso@@ 8
rotterdam 8
andes 8
brook 8
descartes 8
eeg 8
whitney 8
empath@@ 8
headset 8
plu@@ 8
angel 8
better 8
esa@@ 8
kompon@@ 8
over 8
ways 8
robinson 8
leslie 8
seman@@ 8
wi-fi 8
hlich 8
eal 8
ylon 8
lett@@ 8
rene 8
first 8
oste@@ 8
scient@@ 8
360 8
sat 8
dameri@@ 8
tennis 8
ausbrei@@ 8
illa 8
mt@@ 8
wong 8
monum@@ 8
spam 8
ci 8
mobs 8
large 8
andau@@ 8
gaza 8
unterschei@@ 8
energe@@ 8
idol 8
errungen@@ 8
rush 8
repu@@ 8
models 8
race 8
queensland 8
agency 8
tzung 8
vul@@ 8
middle 8
lo 8
hilfrei@@ 8
rier 8
sever@@ 8
hulk 8
täu@@ 8
louise 8
schimpan@@ 8
vc 8
asper@@ 8
improvis@@ 8
frö@@ 8
pollock 8
tore 8
sachs 8
laura 8
good 8
kina 8
bars 8
analog 8
cafeteria 8
independent 8
recy@@ 8
het@@ 8
prego 8
besi@@ 8
tivo 8
clin@@ 8
stat 8
parade 8
grades 8
stetho@@ 8
cau@@ 8
apartment 8
vibrio 8
borough 8
supralei@@ 8
deri@@ 8
ungehe@@ 8
patrio@@ 8
achil@@ 8
after 8
chim@@ 8
ius 8
proz@@ 8
peace 8
rät@@ 8
todd 8
jacob@@ 8
cis@@ 8
and-@@ 8
cox 8
best 8
vac@@ 8
degra@@ 8
synäs@@ 8
rap@@ 8
gymnosop@@ 8
chinese 8
terrori@@ 8
by-@@ 8
lein@@ 8
scre@@ 8
catherine 8
pam 8
foli@@ 8
banal 8
phone 8
padd@@ 8
theatre 8
stattet 8
rs 8
kleiber 8
myhrvold 8
berücksichti@@ 8
sari 8
whole 8
gegent@@ 8
ralph 8
senegal 8
routine 8
dating 8
chor@@ 8
hannah 8
airlines 8
hopkins 8
18-@@ 8
wri@@ 8
houston 8
daphne 8
smith@@ 8
car-@@ 8
minimal 8
satur@@ 8
hower 8
pyg@@ 8
diag@@ 8
outsour@@ 8
pis@@ 8
fraser 8
lolcats 8
198@@ 8
gus@@ 8
unterhalt 8
warcraft 8
gould 8
low 8
shekhar 8
arbeitsp@@ 8
pants 8
jpl 8
rosie 8
symp@@ 8
embr@@ 8
yos 8
artill@@ 8
verdopp@@ 8
dates 8
kick@@ 8
acre 8
zumin@@ 8
destens 8
paraly@@ 8
ness 8
ischer@@ 8
anim@@ 8
job@@ 8
dley 8
chat 8
sargas@@ 8
wingsuit 8
ac 8
subtra@@ 8
heal@@ 8
# 8
town 8
plum@@ 8
mp 8
rebellion 8
dot 8
wal-@@ 8
mind-wandering 8
testet 8
robicsek 8
view 8
bang 8
u.s.@@ 8
willig 8
maine 8
book 8
osi@@ 8
11@@ 8
ret 8
sincla@@ 8
opi@@ 8
shaw 8
buddh@@ 8
therem@@ 8
ey@@ 8
taskrab@@ 8
flick@@ 8
verdrei@@ 8
podium 8
königrei@@ 8
kh 8
bed@@ 8
mento 8
oter 8
huh 8
transfer 8
gue 8
nold 8
peak 8
bemer@@ 8
maker 8
yochai 8
tanks 8
add@@ 8
worth 8
eit@@ 8
trek 8
lets 8
hiv-positive 8
fuller 8
equ@@ 8
clubs 8
parlam@@ 8
nee 8
th-@@ 8
muti 8
lär@@ 8
maryland 8
troy 8
av@@ 8
trilli@@ 8
thri@@ 8
down 8
captain 8
müs@@ 8
herbie 8
sleep 8
terminal 8
umgeb@@ 8
pani@@ 8
ld 8
ucla 8
mainstream 8
feature 8
masch@@ 8
atlantic 8
umar 8
know-how 8
malawi 8
kindle 8
immuns@@ 8
erlei 8
rhet@@ 8
gefol@@ 8
archive 8
ultimati@@ 8
children 8
maccre@@ 8
jessica 8
hard 8
gestür@@ 8
erkrank@@ 8
pessi@@ 8
alition 8
latr@@ 8
light 8
fortgeschri@@ 8
fir@@ 8
saint 8
jai@@ 8
sushi 8
anag@@ 8
christian 8
festh@@ 8
gets 8
joplin 8
lie 8
joey 8
bulldo@@ 8
tyler 8
ires 8
mapping 8
shmi 8
neumann 8
barmherzi@@ 8
fried 8
paula 8
mp3 8
angt 8
ops 8
vishn@@ 8
wiscon@@ 8
dal 8
okin@@ 8
vene@@ 8
ament 8
mbi 8
broad@@ 8
kath@@ 8
guitar 8
hungers@@ 8
ctor 8
his@@ 8
willie 8
young@@ 8
oops 8
ultra-@@ 8
alterna@@ 8
at-@@ 8
blues 8
muff@@ 8
stereotyp@@ 8
tedmed 8
protot@@ 8
oping 8
freak 8
surfing 8
sophi@@ 8
atoms 8
vani@@ 8
prozac 8
indire@@ 8
dison 8
crack 8
perrt 8
yin 8
boltzmann 8
navigation 8
water 8
cheet@@ 8
kofi 8
tic 8
whiskey 8
petersburg 8
witness 8
ae@@ 8
moglobin 8
church 8
curriculum 8
zerem@@ 8
aa@@ 8
huntington 8
raleigh 8
haha@@ 8
zide 8
1,000 8
emi@@ 8
macintosh 8
ous 8
yan@@ 8
typo@@ 8
liz 8
lien 8
rca 8
bu 8
diagra@@ 8
parado@@ 8
xon 8
dist@@ 8
ee@@ 8
rift 7
tty 7
passen@@ 7
walk 7
dissi@@ 7
connect@@ 7
harn@@ 7
lium 7
veter@@ 7
sardin@@ 7
colle@@ 7
knee 7
ves@@ 7
präsident@@ 7
pto@@ 7
pay@@ 7
vam@@ 7
pine 7
ridge 7
little 7
aug@@ 7
situ@@ 7
dutz@@ 7
other@@ 7
marines 7
herzin@@ 7
ceos 7
mons 7
mato@@ 7
modernis@@ 7
june 7
part 7
mmi@@ 7
angeneh@@ 7
resili@@ 7
saub@@ 7
overflow 7
shopping 7
thai 7
leaks 7
think 7
22@@ 7
crash 7
lows 7
schüs@@ 7
drink 7
low-@@ 7
ols 7
lingu@@ 7
klä@@ 7
besag@@ 7
designers 7
abili@@ 7
boots 7
wake 7
yoga 7
ug@@ 7
zab@@ 7
vis 7
dik@@ 7
dilemmas 7
unser@@ 7
instruments 7
angu@@ 7
security 7
reserve 7
ctus 7
cock 7
neander@@ 7
doc 7
rice 7
per-@@ 7
workshops 7
bands 7
dopam@@ 7
signat@@ 7
law@@ 7
( 7
strator 7
peer-to-peer 7
face 7
ming 7
establishment 7
ators 7
vide@@ 7
det@@ 7
quez 7
prim@@ 7
day@@ 7
dinner 7
thi@@ 7
tro 7
dodo 7
urlau@@ 7
content 7
sacks 7
cru@@ 7
samar@@ 7
lun@@ 7
kid@@ 7
herzinfar@@ 7
program@@ 7
hardy 7
energ@@ 7
gegeben@@ 7
verhei@@ 7
apartheid 7
gle 7
pie 7
dirty 7
menop@@ 7
work@@ 7
arre@@ 7
ht@@ 7
plane 7
label 7
kopf-@@ 7
2,000 7
ttel 7
alph@@ 7
uit 7
klebe@@ 7
cowboy 7
multitasking 7
zept@@ 7
broo@@ 7
beck@@ 7
poll@@ 7
frost 7
zin 7
red-@@ 7
vali@@ 7
inklu@@ 7
mola 7
180@@ 7
wende@@ 7
hirshhorn 7
autonom@@ 7
mell@@ 7
bewerk@@ 7
irrelevant 7
ence 7
spee@@ 7
thor@@ 7
sandwiches 7
onet@@ 7
johns 7
check@@ 7
antor 7
europ@@ 7
usen 7
shop 7
tourist 7
tahri@@ 7
pyrami@@ 7
szen@@ 7
nirgend@@ 7
erien 7
publik@@ 7
oul 7
züglich 7
dör@@ 7
joy 7
trivial 7
volu@@ 7
obs@@ 7
birthday 7
euro@@ 7
mechanical 7
turk 7
dokument@@ 7
organs 7
sauer@@ 7
cour@@ 7
boar@@ 7
amit@@ 7
manhat@@ 7
ering 7
seller 7
distri@@ 7
ago 7
sem@@ 7
wide-@@ 7
21@@ 7
luci@@ 7
trucks 7
mouth 7
mahl@@ 7
rise 7
ap 7
kton 7
sea 7
car-sharing 7
illin 7
reti@@ 7
turbo 7
skul@@ 7
ology 7
haftet 7
skydiving 7
duke 7
80-@@ 7
cyberspace 7
unbelie@@ 7
era@@ 7
chester 7
area 7
lawrence 7
pes 7
mountain 7
kings 7
peers 7
fa 7
sprodu@@ 7
tail@@ 7
ula 7
street@@ 7
apartments 7
fly 7
pros@@ 7
pearl 7
harbor 7
unterstü@@ 7
grizz@@ 7
thom 7
nikola 7
kid 7
began 7
ft-@@ 7
poet 7
they 7
odys@@ 7
biome@@ 7
cockpit 7
eco@@ 7
einfühl@@ 7
alei@@ 7
arrogant 7
former 7
ony 7
jam 7
gee@@ 7
stimul@@ 7
proportion 7
hurdy-gurdy 7
bine 7
vegetation 7
caf@@ 7
cardo 7
tsun@@ 7
spot 7
ansä@@ 7
vö@@ 7
buchstä@@ 7
fo 7
drew 7
mimi@@ 7
bombenziel@@ 7
intra@@ 7
desktop 7
monument 7
room 7
wurman 7
ktu@@ 7
fum@@ 7
hop 7
western@@ 7
kill@@ 7
fig 7
äd@@ 7
ces@@ 7
diverse 7
dood@@ 7
aqua@@ 7
schlam@@ 7
jenige 7
dred 7
derick 7
aggressive 7
tile 7
 7
stron@@ 7
your@@ 7
träch@@ 7
rigor@@ 7
een 7
felt 7
quanti@@ 7
kartoff@@ 7
erup@@ 7
t.b. 7
iland 7
bies 7
starter 7
heads 7
histori@@ 7
sanghamitra 7
bombenzielgerät 7
einkommen@@ 7
sourcing 7
hot 7
nina 7
[...]
