, 166078
. 158453
the 120651
and 85267
to 69940
of 65561
a 61726
that 53249
i 48599
it 45506
in 45023
you 42140
is 38918
we 38572
&apos;s 34355
this 30107
so 22085
&quot; 21034
they 19457
was 17735
for 17019
are 16241
have 15840
what 15685
on 15408
but 15380
-- 15133
with 14147
? 14099
can 13935
&apos;t 13156
there 12721
about 12514
be 11376
all 11130
as 11109
at 11011
do 10832
not 10677
one 10425
my 10000
&apos;re 9950
people 9522
like 9161
from 8975
if 8957
he 8739
now 8727
an 8672
these 8239
just 8166
: 7907
our 7540
or 7523
very 7447
because 7325
when 7224
out 6973
me 6967
how 6966
know 6730
by 6723
up 6606
them 6518
going 6465
here 6405
see 6141
think 6121
more 6117
had 5971
which 5898
really 5799
your 5783
get 5618
were 5528
who 5456
would 5436
then 5434
&apos;ve 5430
their 5398
&apos;m 5175
us 5077
world 5065
some 5053
time 4991
don 4934
actually 4855
has 4836
into 4638
way 4539
things 4466
will 4391
years 4383
no 4296
well 4291
where 4241
go 4239
other 4203
want 4148
said 4031
could 3976
make 3903
been 3835
right 3802
something 3692
she 3658
first 3581
two 3575
look 3413
those 3380
than 3353
thing 3342
little 3337
got 3301
also 3301
new 3225
his 3210
much 3169
back 3111
say 3086
most 3045
life 3015
over 2990
work 2916
only 2910
even 2850
did 2827
take 2821
need 2784
kind 2781
many 2747
good 2722
why 2658
lot 2652
around 2593
&apos;ll 2559
let 2522
down 2508
different 2475
; 2454
every 2402
come 2335
through 2283
use 2269
her 2263
same 2228
put 2167
doing 2163
being 2117
three 2116
day 2049
called 2038
any 2014
percent 1987
made 1974
&apos;d 1939
great 1911
today 1911
able 1907
after 1868
tell 1868
talk 1816
year 1811
another 1772
its 1758
big 1748
human 1734
didn 1726
last 1692
change 1689
fact 1689
went 1684
find 1673
should 1653
started 1644
own 1631
before 1629
idea 1629
thought 1609
give 1594
never 1591
thank 1587
story 1573
course 1571
again 1567
off 1548
important 1537
problem 1536
does 1535
re@@ 1529
show 1521
better 1512
him 1501
start 1487
next 1474
ago 1464
system 1446
ed 1445
still 1443
part 1441
might 1425
came 1422
each 1415
technology 1407
brain 1401
together 1394
bit 1391
un@@ 1378
place 1374
used 1372
water 1347
few 1344
long 1329
mean 1324
between 1317
too 1297
looking 1296
end 1288
doesn 1286
question 1285
done 1270
in@@ 1267
found 1253
maybe 1245
point 1245
love 1240
man 1237
example 1235
sort 1216
children 1215
wanted 1204
school 1203
million 1198
whole 1195
data 1187
understand 1180
es 1178
&apos; 1164
four 1162
away 1141
real 1140
always 1135
call 1133
may 1130
try 1128
live 1127
everything 1126
less 1115
ever 1103
believe 1101
money 1100
10 1094
women 1091
feel 1091
ing 1085
five 1081
working 1081
second 1078
person 1078
trying 1074
kids 1073
using 1065
ted 1060
space 1043
! 1040
power 1040
country 1039
took 1036
number 1032
design 1030
old 1026
times 1021
help 1011
light 1009
thinking 1008
-@@ 1008
quite 1007
food 1004
create 988
means 987
am 987
information 978
become 963
comes 960
probably 959
future 956
getting 956
small 954
enough 952
energy 945
best 941
making 939
left 938
without 937
interesting 936
happened 933
sense 933
africa 922
building 922
play 915
stuff 904
talking 904
home 903
body 898
dollars 891
says 891
anything 876
pretty 875
coming 874
ask 869
social 869
earth 863
simple 862
goes 862
city 859
science 859
side 858
makes 837
ways 828
told 825
happen 825
picture 821
okay 820
else 820
living 816
room 815
seen 814
saw 813
half 811
yet 806
across 806
basically 805
happens 805
lives 805
countries 802
bad 802
imagine 798
once 798
project 796
days 792
o@@ 790
20 789
asked 789
hard 785
such 780
build 778
move 774
family 770
inside 765
health 765
having 762
experience 760
high 754
problems 752
care 750
case 748
moment 748
everybody 748
dis@@ 746
later 745
learn 743
book 741
ideas 741
while 739
y 737
line 737
hand 734
s 731
six 731
reason 731
nothing 730
ok 728
almost 728
billion 727
process 727
business 725
car 725
young 724
de@@ 723
set 722
states 721
looks 720
planet 718
both 718
computer 717
mind 713
men 709
wrong 703
single 702
remember 702
global 695
ated 694
true 694
within 694
age 693
child 692
far 692
history 688
guy 687
s@@ 682
already 681
saying 681
oh 680
yes 675
heard 672
cells 672
cancer 671
war 670
possible 670
music 670
top 669
form 668
sure 668
looked 666
answer 662
di@@ 662
beautiful 662
matter 660
nature 660
keep 657
bring 652
often 648
art 648
hope 646
video 644
built 643
isn 642
months 642
india 640
a@@ 639
works 638
face 636
read 636
o 632
piece 632
er 631
al 631
amazing 630
co@@ 630
universe 629
open 628
god 628
per 627
sometimes 625
under 625
since 622
li@@ 619
ate 617
decided 617
red 616
someone 615
myself 614
united 613
couple 613
... 611
words 608
education 606
en@@ 606
species 605
until 605
stories 603
state 603
exactly 602
group 601
e@@ 600
instead 599
yeah 599
places 598
con@@ 598
whether 598
language 595
control 595
taking 593
order 591
mother 591
turn 591
government 585
everyone 585
completely 582
though 582
ma@@ 580
30 580
turns 578
community 577
public 577
research 577
wasn 577
word 576
must 575
middle 575
c@@ 575
somebody 572
itself 571
internet 570
ers 568
level 568
kinds 567
y@@ 567
minutes 567
ourselves 567
head 566
gets 565
stop 565
job 565
ating 564
became 563
house 563
heart 562
ts 561
ro@@ 560
rather 559
animals 557
woman 557
ti@@ 557
news 554
50 553
america 553
students 552
run 552
large 552
p@@ 552
huge 551
happening 550
company 549
themselves 547
happy 547
share 545
ting 544
third 543
study 542
environment 540
model 540
china 539
learned 538
ones 538
guys 538
natural 538
name 536
american 533
hear 532
oil 532
lots 530
100 529
friends 529
night 528
d@@ 528
hours 526
worked 524
game 524
t@@ 524
won 523
along 523
sound 522
couldn 521
created 520
knew 520
society 518
front 518
ous 517
g@@ 515
questions 514
during 513
gave 509
learning 508
disease 507
air 506
perhaps 506
century 505
finally 504
ation 504
particular 503
&#91; 502
&#93; 502
takes 499
against 499
machine 498
ocean 497
early 497
moving 496
land 495
area 491
king 490
figure 489
e 489
ri@@ 488
wonderful 487
difference 487
others 487
ability 486
least 483
seven 482
i@@ 480
past 477
needs 475
taken 475
outside 475
based 473
free 470
entire 466
thousands 465
easy 464
close 463
changed 463
pro@@ 462
interested 462
systems 462
u@@ 457
view 456
cannot 456
eight 455
ar@@ 455
market 455
leave 453
image 453
population 453
turned 453
green 452
parts 450
given 449
culture 449
shows 449
cell 448
se@@ 448
grow 446
15 444
audience 444
yourself 444
beginning 443
york 439
eyes 439
t 439
buy 439
difficult 438
behind 438
self-@@ 438
seeing 436
ds 435
scale 434
size 434
powerful 433
media 432
spend 432
black 431
common 430
week 429
began 429
whatever 426
le@@ 425
needed 425
fish 425
full 424
born 424
walk 423
terms 422
paper 422
ding 421
certain 421
death 420
gone 419
father 419
tried 419
economic 419
u.s. 417
po@@ 416
ly 416
test 415
center 414
ra@@ 414
b 413
cities 413
p 411
longer 410
hands 410
team 410
simply 410
parents 409
amount 409
incredible 409
feet 407
cost 407
rest 406
local 405
led 403
ded 402
humans 402
ch@@ 401
l@@ 401
complex 400
structure 400
pre@@ 399
an@@ 398
as@@ 397
field 396
b@@ 395
growth 395
stage 394
watch 393
step 392
girl 392
books 391
value 391
force 390
known 390
spent 390
blue 390
surface 390
quickly 389
deal 389
realized 388
national 387
south 387
reality 386
lost 385
fun 385
weeks 385
wouldn 385
le 385
sitting 383
pay 383
sea 382
animal 382
white 382
inter@@ 381
eat 381
either 381
dna 381
k 378
over@@ 378
behavior 375
felt 375
act 374
son 374
write 373
companies 373
growing 372
im@@ 372
v@@ 372
nice 372
friend 371
wrote 371
cut 370
fly 370
brought 369
patients 368
al@@ 367
die 367
c 367
r@@ 366
opportunity 365
average 365
feeling 364
patient 364
theory 363
changes 363
anyone 362
ground 361
poor 361
speak 361
lo@@ 360
de 360
economy 360
d 359
als 357
technologies 357
political 357
scientists 356
developed 355
miles 354
discovered 353
40 353
be@@ 352
material 352
car@@ 351
ice 351
program 351
k@@ 350
met 350
am@@ 349
morning 349
street 349
si@@ 347
images 347
seems 345
numbers 345
short 345
bottom 344
gives 343
running 342
forward 342
rate 342
nobody 341
starting 340
absolutely 339
attention 339
challenge 339
movement 338
ates 338
deep 337
m@@ 337
literally 336
playing 336
climate 336
giving 335
cars 335
or@@ 335
map 334
personal 334
key 332
late 331
areas 331
physical 331
anybody 331
shape 330
individual 330
recently 330
film 330
english 328
realize 328
changing 328
knowledge 327
obviously 327
te 326
alone 326
sun 326
knows 326
telling 326
seem 325
north 325
dark 323
hold 322
tions 321
died 320
fast 320
incredibly 320
blood 319
phone 318
issue 318
chinese 318
h@@ 318
bo@@ 318
modern 318
tools 318
cool 317
per@@ 317
n@@ 317
law 317
ist 317
focus 317
creating 316
m 315
relationship 315
result 315
designed 314
understanding 314
product 313
industry 313
compassion 313
pa@@ 313
for@@ 313
clear 313
ons 312
sts 312
please 311
kid 311
experiment 310
millions 310
showed 310
hundreds 310
girls 310
support 309
guess 309
save 309
revolution 308
meet 308
lab 307
box 307
games 306
th 306
te@@ 306
university 306
west 305
ings 305
haven 305
normal 305
development 305
ac@@ 305
produce 304
wall 304
vi@@ 304
happiness 304
solution 304
perfect 303
generation 303
web 303
stand 302
evolution 302
available 302
developing 302
bu@@ 301
begin 301
12 301
talked 301
under@@ 299
effect 299
lived 299
access 299
tiny 298
hour 298
ine 298
major 298
sa@@ 298
mi@@ 297
innovation 297
th@@ 297
pictures 297
explain 296
voice 296
writing 296
ni@@ 296
becomes 296
ks 296
teach 295
ses 295
bigger 295
europe 295
e-@@ 295
online 294
reasons 294
especially 294
type 294
table 293
medical 293
vision 293
east 292
l 292
materials 292
beyond 292
color 292
rules 292
computers 292
office 292
action 291
ta@@ 291
ar 291
aren 290
digital 290
25 290
special 290
dead 290
ans 290
device 290
allow 289
towards 289
drive 289
groups 289
uses 289
teachers 288
situation 288
es@@ 288
he@@ 288
solve 288
worth 287
class 287
low 287
resources 287
present 286
robot 286
ant 286
several 285
fear 284
impact 284
soon 284
baby 284
mo@@ 283
involved 283
la@@ 283
network 282
fall 281
boy 281
bed 281
ve 281
quality 281
similar 280
activity 280
schools 280
evidence 279
ged 279
ru@@ 279
nine 278
indeed 277
security 276
hundred 276
pe@@ 276
scientific 276
ally 276
certainly 276
ty 276
forms 275
starts 275
sounds 275
risk 274
mass 274
minute 274
notice 274
wants 274
sc@@ 274
chance 274
examples 274
general 274
mon@@ 273
putting 273
everywhere 273
g 273
asking 273
me@@ 273
truth 272
out@@ 272
ha@@ 271
choice 271
h 271
ab@@ 271
f@@ 270
ves 270
ze 270
com@@ 270
n 270
on@@ 270
listen 270
suddenly 270
non-@@ 270
basic 270
sh@@ 269
wind 269
village 269
issues 268
x 268
tra@@ 267
eye 267
anyway 266
month 266
message 266
grew 265
wait 265
ready 265
skin 265
ent 265
walking 265
version 264
totally 264
stay 264
ci@@ 264
moved 264
der 264
cu@@ 263
exciting 263
extremely 263
to@@ 263
college 262
so@@ 262
object 262
solar 262
moral 262
se 261
ic 261
bi@@ 261
mine 260
z@@ 260
wish 260
largest 260
particularly 260
biggest 260
j@@ 260
ce 259
gas 259
student 259
op@@ 259
ad@@ 259
potential 258
hiv 258
pattern 258
ended 257
smart 257
tion 257
further 256
su@@ 255
carbon 255
projects 255
software 255
tic 255
door 254
journey 254
er@@ 254
page 254
road 254
fire 254
nuclear 254
showing 254
hospital 253
medicine 253
hi@@ 252
break 252
hit 252
gra@@ 252
zed 252
w@@ 251
st@@ 251
ca@@ 251
measure 251
speed 251
at@@ 251
sit 251
teacher 250
african 250
mar@@ 250
ps 250
sub@@ 250
connected 250
ction 250
google 249
ge@@ 249
follow 249
strong 248
reach 248
w 248
tells 247
positive 247
points 247
rich 247
y-@@ 246
onto 246
named 245
board 245
pick 245
add 244
est 244
code 244
plan 244
extraordinary 244
democracy 243
usually 243
develop 243
60 241
send 241
watching 241
success 241
ex@@ 241
lead 241
visual 240
organization 240
likely 240
poverty 240
serious 240
electricity 239
no@@ 239
do@@ 239
list 239
goal 239
is@@ 238
buildings 238
plants 238
except 238
among 238
cause 237
mom 237
impossible 237
objects 237
safe 237
sent 237
period 237
eventually 237
larger 236
fantastic 236
lose 236
continue 236
biology 236
seconds 236
ho@@ 235
products 235
sp@@ 235
results 235
doctor 235
movie 235
du@@ 234
ness 234
standing 234
peace 233
essentially 233
expect 233
international 233
killed 232
series 232
david 232
somewhere 232
complicated 232
trees 232
200 232
wife 231
jobs 231
approach 231
sing 231
fine 231
stars 231
perspective 231
higher 231
mis@@ 230
written 230
sorts 230
crazy 229
thousand 229
80 229
foot 229
gu@@ 229
screen 228
bacteria 228
conditions 228
camera 227
lines 227
spread 227
shot 227
wi@@ 227
/ 227
older 227
upon 227
allowed 226
leaders 226
site 226
creative 226
himself 226
beauty 226
traditional 226
pieces 225
supposed 225
response 225
architecture 225
ne@@ 224
individuals 224
fl@@ 224
tree 223
models 223
11 223
meaning 223
brains 222
sex 222
successful 222
taught 221
d-@@ 221
position 221
shown 221
super@@ 221
source 220
favorite 220
excited 220
kept 220
training 220
military 219
treatment 219
ism 219
finding 219
reading 219
ship 219
faster 218
cor@@ 218
fully 218
um 218
interest 218
famous 218
dance 218
expensive 218
above 217
neurons 217
— 217
truly 217
worse 217
somehow 217
man@@ 217
context 217
alive 217
crisis 217
zero 216
connect 216
drugs 216
thanks 216
physics 216
it@@ 215
ment 215
pi@@ 215
rise 215
ck 215
role 214
western 214
ge 214
therefore 214
region 214
ties 214
concept 213
ity 213
tool 213
trust 213
go@@ 212
18 212
smaller 212
clearly 212
hey 212
genes 211
mental 211
bar@@ 211
touch 211
machines 211
dream 211
costs 211
ary 210
kill 210
el@@ 210
beings 210
wa@@ 210
ten@@ 209
main 209
pain 209
however 209
service 209
sell 209
hot 209
including 209
fundamental 209
u 209
communities 208
virus 208
ling 208
invented 208
mu@@ 208
choose 208
active 208
ations 208
americans 207
drug 207
meant 207
families 207
fight 206
les 206
increase 206
slow 206
square 206
studies 206
central 206
ph@@ 205
throughout 205
town 205
cra@@ 205
earlier 205
fi@@ 204
solutions 204
progress 204
dangerous 204
actual 203
ants 203
da@@ 203
price 203
cases 203
aid 203
familiar 203
plastic 202
cting 202
ality 202
policy 202
legs 202
can@@ 202
dad 202
listening 202
production 201
content 201
store 201
strange 201
recognize 201
record 201
press 200
healthy 200
1 200
bunch 200
although 200
waiting 200
ch 199
par@@ 199
em@@ 199
high-@@ 199
driving 199
income 199
waste 199
rights 199
magic 199
war@@ 199
ving 198
ars 198
math 198
immediately 198
direction 198
wonder 198
sky 198
greater 197
zing 197
dollar 197
dog 197
ging 197
500 197
exist 196
tend 196
bs 196
travel 196
anymore 196
none 196
surgery 196
violence 195
talks 195
slide 195
ver@@ 195
2 195
connection 195
allows 195
current 195
ors 194
glass 194
effective 194
president 194
conversation 194
des 194
freedom 194
arm 194
train 194
skills 194
intelligence 193
tv 193
unfortunately 193
robots 193
patterns 193
song 193
forget 192
rule 192
fy 192
lower 191
fe@@ 191
draw 191
win 191
pull 191
walked 191
subject 191
bodies 191
har@@ 191
museum 191
na@@ 190
range 190
plant 190
flying 190
self 190
babies 190
becoming 190
ble 190
survive 189
weight 189
protect 189
clean 189
ran 189
hole 189
specific 189
function 189
john 188
ste@@ 188
tri@@ 188
practice 188
understood 188
bio@@ 188
decisions 188
useful 188
flow 188
forces 187
ur@@ 187
website 187
sorry 187
provide 187
weren 187
tu@@ 187
genetic 186
humanity 186
critical 186
bank 186
greatest 186
consider 186
ches 186
photograph 186
aware 185
teaching 185
star 185
re-@@ 185
conference 185
stick 185
obvious 184
cultural 184
floor 184
mars 184
environmental 184
remarkable 184
massive 183
x@@ 183
performance 183
related 183
anywhere 183
private 183
up@@ 183
artist 182
cold 182
religion 182
television 182
enormous 182
final 182
mostly 182
creativity 182
fuel 181
ter 181
eating 181
minds 181
cre@@ 181
lights 180
engineering 180
loved 180
raise 180
ma 180
politics 180
star@@ 179
micro@@ 179
evolved 179
mer@@ 179
ct 179
consciousness 179
doctors 178
quick 178
ators 178
markets 178
gene 178
values 178
tional 178
ba@@ 177
dr. 177
speaking 177
r 177
produced 176
services 176
treat 176
temperature 176
decade 176
search 176
mor@@ 176
qu@@ 175
18@@ 175
genome 175
near 175
feed 175
birds 175
various 175
bri@@ 175
90 175
daughter 175
ent@@ 174
chemical 174
sat 174
ced 173
types 173
ance 173
mission 173
passion 173
one-@@ 173
experiments 173
16 173
possibly 172
secret 172
below 172
dy 172
shared 172
ahead 172
meeting 172
ou@@ 172
mobile 172
bought 171
hu@@ 171
tes 171
aids 171
heat 171
nation 171
discover 171
police 171
cover 171
helped 171
gi@@ 171
original 171
island 171
ters 171
sign 171
ins 170
funny 170
communication 170
unique 170
worry 170
institutions 170
ess 170
indian 170
slightly 169
twice 169
year-old 169
path 169
afghanistan 169
character 169
bur@@ 169
workers 169
instance 169
ce@@ 169
capacity 169
financial 169
complexity 168
sha@@ 168
networks 168
cts 168
ces 168
infrastructure 168
following 168
societies 168
charge 168
park 168
london 168
cur@@ 168
extra 168
ter@@ 167
ms 167
focused 167
z 167
degrees 167
hand@@ 167
pass 167
recent 167
ked 167
cted 167
industrial 166
boys 166
diseases 166
push 166
moon 166
summer 166
ancient 166
chris 166
ments 166
el 166
tive 166
causes 166
fied 165
birth 165
directly 165
significant 165
inspired 165
emotional 165
il 165
laws 165
pen@@ 165
terrible 164
pressure 164
forth 164
ic@@ 164
governments 164
bra@@ 164
cli@@ 164
played 164
straight 164
paid 164
designers 163
whose 163
carry 163
et@@ 163
fu@@ 163
sustainable 163
300 163
career 163
cks 163
trans@@ 163
ved 163
purpose 163
sleep 163
levels 163
capital 162
ol@@ 162
pu@@ 162
bl@@ 162
complete 162
trade 162
bill 162
$ 162
meters 162
3@@ 161
effects 161
sted 161
apart 161
fit 161
cr@@ 161
oxygen 161
au@@ 161
memory 160
closer 160
conflict 160
trouble 160
artists 160
track 160
challenges 160
sive 159
explore 159
sal@@ 159
pri@@ 159
event 159
drop 159
etc 159
il@@ 158
us@@ 158
2@@ 158
devices 158
biological 158
creates 157
den@@ 157
jo@@ 157
10,000 157
california 157
willing 157
molecules 157
yellow 157
hearing 157
her@@ 157
urban 157
br@@ 157
dying 157
ber@@ 156
structures 156
spending 156
ful 156
sharing 156
atmosphere 156
comp@@ 156
scientist 156
foundation 156
party 155
task 155
differences 155
seemed 155
asia 155
os 155
supply 155
rock 155
res@@ 155
ets 155
ctions 155
broken 154
decide 154
nu@@ 154
om@@ 154
ad 154
1,000 154
trial 154
particles 154
sed 154
organisms 154
highly 154
stra@@ 153
colleagues 153
forest 153
passed 153
blind 153
electric 152
ah 152
phenomenon 152
noticed 152
graph 152
radio 152
des@@ 152
decades 152
bringing 151
lucky 151
prison 151
ders 151
70 151
answers 151
ably 151
easily 151
total 150
bird 150
popular 150
choices 150
term 150
published 150
che@@ 150
ges 150
ke 150
check 150
bor@@ 150
richard 150
grade 149
argument 149
feels 149
improve 149
communicate 149
vers 149
ator 149
ry 148
ie 148
condition 148
worst 148
tremendous 148
return 148
programs 148
corner 148
noise 148
sting 148
stopped 148
knowing 148
necessarily 148
studying 147
responsibility 147
farmers 147
da 147
achieve 147
agree 147
surprising 146
text 146
.@@ 146
efficient 146
fix 146
-year-old 146
gotten 146
basis 146
dra@@ 146
window 145
bone 145
helping 145
civil 145
mountain 145
standard 145
race 145
missing 145
medi@@ 145
address 145
reduce 145
coffee 145
ir@@ 145
nearly 145
aging 145
sli@@ 145
edge 145
elements 145
finished 144
we@@ 144
5 144
throw 144
leads 144
sti@@ 144
decision 144
interact 144
iraq 144
fairly 144
definition 144
pped 144
ously 143
ball 143
french 143
ser@@ 143
balance 143
mouse 143
gh@@ 143
boat 143
ages 143
relationships 143
ck@@ 143
opportunities 143
&amp; 143
dr@@ 142
diversity 142
two-@@ 142
fold 142
figured 142
wing 142
f 142
ton 142
phones 142
professor 142
typical 141
brings 141
mark 141
ian 141
mit 141
fa@@ 141
organic 141
designer 141
possibility 141
flight 141
tissue 141
engine 141
5,000 141
landscape 140
competition 140
shift 140
t-@@ 140
moments 140
join 140
giant 140
zation 140
mal@@ 140
14 140
religious 140
pping 139
card 139
ga@@ 139
bread 139
imagination 139
ically 139
ja@@ 139
discovery 139
sta@@ 138
gl@@ 138
stone 138
differently 138
benefits 138
planets 138
core 138
suffering 138
vo@@ 138
mr. 138
holding 138
hair 137
breast 137
streets 137
negative 137
ying 137
ard 137
organizations 137
citizens 137
sand 137
held 137
afraid 137
forever 137
date 137
faces 137
engineers 137
sion 137
notion 137
ver 136
flu 136
em 136
creatures 135
river 135
id 135
brilliant 135
coast 135
fields 135
calls 135
otherwise 135
nations 135
benefit 135
heads 135
turning 135
mathematics 135
ot@@ 135
slowly 134
degree 134
back@@ 134
3 134
lesson 134
stem 134
easier 134
leading 134
visit 134
base 134
ultimately 133
sector 133
meat 133
campaign 133
necessary 133
moves 133
apply 133
sister 133
walls 133
colors 133
british 133
studied 133
effort 133
begins 133
responsible 133
adults 133
saving 133
ning 133
hopefully 133
bridge 133
painting 133
print 133
foreign 132
dri@@ 132
ag@@ 132
pl@@ 132
seriously 132
ju@@ 132
offer 132
9 132
entirely 132
perfectly 132
despite 132
circle 132
japan 132
billions 132
describe 132
shouldn 131
influence 131
prize 131
female 131
station 131
block 131
bits 131
catch 131
traffic 131
cul@@ 130
members 130
opposite 130
19@@ 130
ring 130
experiences 130
cs 130
matters 130
count 130
desert 130
bal@@ 130
insects 130
caught 130
events 130
helps 130
stri@@ 130
trained 130
ul@@ 130
opened 129
distance 129
respect 129
stream 129
steps 129
magazine 129
afford 129
400 129
4@@ 129
sold 129
identity 129
cheap 129
statistics 128
report 128
st 128
facebook 128
leaving 128
enjoy 128
emotions 128
photo 128
u.k. 128
tumor 128
net 128
13 128
wisdom 128
engage 128
cal 127
profound 127
factory 127
4 127
normally 127
finger 127
san 127
fashion 127
et 127
mouth 127
8 127
cking 127
galaxies 127
lu@@ 127
beat 127
capable 127
attack 127
according 127
operating 127
engineer 127
sick 127
wealth 127
24 126
investment 126
raised 126
ines 126
background 126
cl@@ 126
extreme 126
ten 126
loss 126
virtual 126
article 125
principles 125
invest 125
fighting 125
ctive 125
washington 125
era 125
stuck 125
ia 125
va@@ 125
languages 125
oceans 125
three-@@ 124
believed 124
lation 124
argue 124
wild 124
commercial 124
v 124
thinks 124
consumption 124
quote 124
metaphor 124
down@@ 124
limited 124
airplane 124
equal 124
legal 124
wow 124
speech 124
2,000 123
wh@@ 123
shoes 123
flies 123
advantage 123
wood 123
sequence 123
harder 123
labor 123
transform 123
dly 123
failed 123
cal@@ 123
fourth 123
intelligent 123
the@@ 122
cycle 122
zes 122
constantly 122
gen@@ 122
belief 122
arms 122
hate 122
prevent 122
spaces 122
pounds 122
viruses 122
tomorrow 122
husband 122
managed 122
fascinating 122
followed 122
damage 121
organized 121
desire 121
molecule 121
due 121
bees 121
s-@@ 121
brother 121
importantly 121
lets 121
male 120
dynamic 120
apple 120
dreams 120
failure 120
pages 120
equivalent 120
tor@@ 120
everyday 120
justice 120
co2 120
agriculture 120
predict 120
survival 119
crime 119
warming 119
ka@@ 119
whenever 119
distribution 119
majority 119
tough 119
ig@@ 119
enter 119
creation 119
roll 119
spirit 119
names 119
childhood 119
fair 119
mothers 119
weird 118
note 118
compare 118
row 118
ned 118
cy@@ 118
tens 118
paint 118
driven 118
ap@@ 118
ology 118
invisible 118
shapes 118
surprise 118
represent 118
galaxy 118
principle 118
professional 117
sudden 117
min@@ 117
deeply 117
treated 117
wave 117
lie 117
construction 117
suppose 117
6 117
opening 117
yesterday 117
dinner 117
worried 117
wide 117
gs 117
civilization 117
chair 117
ve@@ 117
photos 117
lies 116
17 116
increasingly 116
ingly 116
muscle 116
caused 116
bear 116
dimensions 116
ence 116
paul 116
leaves 116
unless 116
ster 116
versus 116
concerned 116
random 116
covered 116
european 116
dinosaurs 116
economics 116
malaria 116
designing 116
theater 116
ely 115
pat@@ 115
cap@@ 115
wearing 115
ends 115
re 115
hell 115
ley 115
einstein 115
camp 115
farm 115
toward 115
launched 114
separate 114
vehicle 114
neighborhood 114
sad 114
7@@ 114
mentioned 114
20th 114
weapons 114
debate 114
roughly 114
interaction 114
teeth 114
ined 114
mortality 114
gre@@ 114
associated 114
cing 114
puts 114
sexual 114
gri@@ 114
cked 114
cri@@ 113
brand 113
charles 113
sphere 113
ca 113
link 113
motion 113
proud 113
appear 113
expression 113
lack 113
lunch 113
described 113
paying 113
soil 113
graduate 113
plane 112
smell 112
hidden 112
planning 112
ing@@ 112
losing 112
drawing 112
invited 112
generations 112
protein 112
bright 112
church 112
ched 112
electrical 112
bre@@ 112
honest 111
continent 111
ven@@ 111
threat 111
universal 111
fell 111
producing 111
coral 111
exists 111
bro@@ 111
cy 111
letter 111
awful 111
japanese 111
houses 111
ne 111
currently 111
fo@@ 111
george 111
affect 111
vast 111
strategy 111
gain 111
grandmother 111
cloud 111
ise 111
sun@@ 111
ker 111
copy 111
7 110
consequences 110
leadership 110
rid 110
direct 110
independent 110
wear 110
rural 110
vote 110
to-@@ 110
ws 110
well-@@ 110
deliver 110
institute 110
hasn 110
kenya 110
35 110
ny 110
finish 110
arts 110
seat 110
holes 110
evil 110
dies 110
surprised 109
ordinary 109
fat 109
mexico 109
horse 109
classroom 109
interface 109
filled 109
emotion 109
fill 109
voices 109
chemicals 109
multiple 109
gold 109
ke@@ 109
dar@@ 109
experts 109
garden 109
layer 109
ming 109
double 108
trip 108
email 108
definitely 108
soldiers 108
sk@@ 108
leader 108
spot 108
compared 108
heavy 108
bling 108
jump 108
cas@@ 108
feelings 108
sugar 108
ative 108
grown 108
collective 108
newspaper 108
tail 108
union 108
&apos;@@ 108
ies 107
married 107
equipment 107
flu@@ 107
keeping 107
steel 107
signal 107
nigeria 107
ki@@ 107
signals 107
tur@@ 106
collect 106
valley 106
depression 106
miss 106
controlled 106
wo@@ 106
ky 106
ching 106
pole 106
99 106
nervous 106
ben@@ 106
chicken 106
highest 106
a-@@ 106
resource 106
respond 106
essential 106
pre-@@ 106
ical 106
artificial 106
ler 105
waves 105
tics 105
corruption 105
sur@@ 105
ner 105
status 105
sho@@ 105
army 105
mile 105
ff 105
chemistry 105
san@@ 105
underneath 105
clo@@ 105
sides 105
closed 105
accident 105
bar 105
prime 105
whom 105
contact 105
cognitive 105
britain 105
demand 105
gers 105
studio 105
my@@ 104
leg 104
wars 104
australia 104
emerging 104
worldwide 104
solved 104
killing 104
dots 104
bing 104
deeper 104
ure 104
facing 104
daily 104
canada 104
importance 104
notes 104
cultures 104
spoke 104
co 104
sites 104
bat@@ 104
transformation 104
affected 104
conscious 104
breath 104
ute 104
remote 104
round 104
cally 104
pr@@ 103
iran 103
100,000 103
stood 103
ladies 103
player 103
los 103
150 103
cent 103
chain 103
considered 103
pres@@ 103
plus 103
adult 103
israel 103
alized 103
budget 103
del@@ 103
forced 103
ours 103
sharks 103
curious 103
typically 102
clinical 102
por@@ 102
load 102
library 102
flat 102
regular 102
absolute 102
property 102
detail 102
shop 102
folks 102
intellectual 102
swe@@ 102
lady 102
james 102
molecular 102
joy 102
warm 102
match 102
mountains 102
fellow 102
mathematical 102
empty 101
letters 101
prote@@ 101
en 101
dogs 101
possibilities 101
homes 101
dry 101
ger 101
relatively 101
anti-@@ 101
avoid 101
cards 101
selling 101
michael 101
technical 101
practical 101
wire 101
profit 101
senses 101
characters 101
ases 101
ths 101
master 101
northern 101
saved 101
rain 100
long-term 100
picked 100
ct@@ 100
radiation 100
cation 100
reaction 100
movies 100
ish 100
protection 100
spectrum 100
bus 100
minister 100
ali@@ 100
england 100
bush 100
formed 100
efficiency 100
fil@@ 100
spring 100
wired 99
users 99
pal@@ 99
weather 99
department 99
van@@ 99
ban@@ 99
air@@ 99
ents 99
gar@@ 99
alize 99
thoughts 99
prove 99
account 99
lessons 99
brown 99
received 99
suggest 99
productive 99
calling 99
ther@@ 99
ils 99
introduced 99
ori@@ 99
alternative 99
metal 99
organs 98
hy@@ 98
tr@@ 98
marine 98
pleasure 98
businesses 98
invention 98
disaster 98
ping 98
twitter 98
kilometers 98
management 98
fresh 98
iled 98
nasa 98
method 98
fire@@ 98
testing 98
ward 98
gravity 98
bang 98
dan 98
ls 98
grand 98
diet 97
photographs 97
darwin 97
sentence 97
dealing 97
mate 97
axis 97
eastern 97
setting 97
trials 97
ber 97
existence 97
spe@@ 97
hadn 97
addition 97
neuro@@ 97
gift 97
exercise 97
fishing 97
fossil 97
marketing 97
penguins 97
acts 97
tons 97
cooking 97
fli@@ 97
soci@@ 96
southern 96
details 96
spo@@ 96
employees 96
inner 96
pun@@ 96
laptop 96
3,000 96
in-@@ 96
buying 96
arrived 96
brazil 96
germany 96
cross 96
scene 96
liked 96
lt 96
drink 96
kitchen 96
don@@ 96
feedback 96
600 96
comfortable 96
transition 96
cat@@ 96
lifetime 96
fer@@ 96
han@@ 95
hall 95
broke 95
ently 95
restaurant 95
theme 95
9@@ 95
experienced 95
cru@@ 95
radical 95
mistake 95
generate 95
trick 95
democratic 95
effectively 95
express 95
ak@@ 95
winter 95
introduce 95
bottle 95
2008 95
players 95
ff@@ 95
factor 95
exchange 95
maps 95
requires 95
switch 94
gy 94
analysis 94
blo@@ 94
atoms 94
fail 94
3d 94
videos 94
valuable 94
and@@ 94
partner 94
sen@@ 94
specifically 94
cla@@ 94
target 94
alism 94
unlike 94
fore@@ 94
represents 94
land@@ 94
accept 94
define 94
arab 94
fle@@ 94
um@@ 94
section 94
wed 94
ecosystem 93
sin@@ 93
infected 93
fra@@ 93
location 93
al-@@ 93
ished 93
dro@@ 93
mention 93
brothers 93
rates 93
silk 93
perception 93
credit 93
click 93
increasing 93
prepared 93
ant@@ 93
wikipedia 93
fewer 93
rare 93
poetry 93
wake 92
novel 92
struggle 92
ha 92
motor 92
instrument 92
driver 92
writer 92
gap 92
medium 92
zz@@ 92
psychology 92
generally 92
je@@ 92
carrying 92
quantum 92
properties 92
consumer 92
naturally 92
dan@@ 92
roof 92
appropriate 92
men@@ 92
ari@@ 92
behaviors 92
sters 92
politicians 92
beach 92
evolutionary 92
ited 92
swim 92
fication 92
ko@@ 92
stupid 92
epidemic 92
style 92
cutting 92
honor 92
tic@@ 91
risks 91
blocks 91
sets 91
display 91
gr@@ 91
neighbors 91
depends 91
liquid 91
faith 91
identify 91
head@@ 91
unusual 91
mistakes 91
whereas 91
member 91
techniques 91
safety 91
lat@@ 91
components 91
indi@@ 91
cure 91
reward 91
five-@@ 91
acting 91
watched 91
tests 91
wn 91
tac@@ 91
fying 91
st-@@ 91
ancestors 91
manage 91
tradition 91
architect 91
zone 91
processes 91
milk 91
defined 91
pop 90
convince 90
fake 90
6@@ 90
proteins 90
ear@@ 90
emissions 90
battle 90
visible 90
ats 90
recorded 90
goods 90
researchers 90
personally 90
user 90
bas@@ 90
connections 90
cents 90
thomas 90
burn 90
col@@ 90
primary 90
battery 90
runs 90
continued 90
tically 90
percentage 90
capture 90
sir 90
bubble 89
serve 89
joke 89
75 89
wor@@ 89
graphy 89
u.n. 89
hi 89
gram 89
pollution 89
pulled 89
platform 89
crash 89
cat 89
lay 89
makers 89
promise 89
1,@@ 89
therapy 89
expected 89
require 89
unit 89
- 89
wondering 89
collaboration 89
accurate 88
fac@@ 88
string 88
lying 88
closely 88
awareness 88
peak 88
mas@@ 88
1@@ 88
three-dimensional 88
goals 88
hing 88
fund 88
variety 88
fre@@ 88
movements 88
ears 88
hotel 88
ory 88
shark 88
frame 88
burning 88
chan@@ 88
gay 88
shake 88
marriage 88
sensitive 88
pe 88
reached 88
le-@@ 87
tru@@ 87
former 87
exploration 87
mirror 87
replace 87
taste 87
satellite 87
economists 87
pan@@ 87
meter 87
situations 87
med 87
que 87
dropped 87
nar@@ 87
advanced 87
carefully 87
sources 87
empathy 87
curve 87
gulf 87
laboratory 87
sunlight 87
fin@@ 87
traveling 86
correct 86
2007 86
computing 86
relate 86
gentlemen 86
speci@@ 86
operation 86
win@@ 86
pacific 86
cer@@ 86
amounts 86
post 86
aspect 86
gam@@ 86
band 86
topic 86
vulnerable 86
sending 86
ran@@ 86
centers 86
shall 86
shaped 86
opinion 86
error 86
applied 86
atory 86
clip 86
microbes 86
hor@@ 86
steve 86
convinced 86
hits 85
signs 85
ride 85
ought 85
ba 85
linked 85
environments 85
stic 85
ites 85
technological 85
healthcare 85
quiet 85
pollen 85
10@@ 85
gdp 85
added 85
sees 85
yo@@ 85
vaccine 85
destruction 85
pra@@ 85
grand@@ 85
protected 85
crowd 85
combination 85
ultimate 85
logic 85
organ 85
strength 85
cameras 85
discussion 85
harvard 84
increased 84
ized 84
sample 84
survey 84
islands 84
shoot 84
explanation 84
val@@ 84
45 84
presentation 84
religions 84
tation 84
ll@@ 84
wine 84
gun 84
ta 84
hoping 84
radi@@ 84
francisco 84
breaking 84
figures 84
hydrogen 84
pur@@ 84
algorithms 84
amp 84
char@@ 84
hero 84
sight 83
collection 83
hom@@ 83
tracking 83
occurred 83
sophisticated 83
anti@@ 83
ase 83
literature 83
manufacturing 83
conventional 83
electronic 83
supp@@ 83
vis@@ 83
previous 83
youtube 83
existing 83
ns 83
hal@@ 83
solving 83
remain 83
kes 83
trillion 83
tively 83
interests 83
dramatic 83
bones 83
far@@ 83
hospitals 83
solid 82
robert 82
windows 82
cker 82
combined 82
birthday 82
tape 82
grid 82
shares 82
atten@@ 82
include 82
polio 82
skill 82
violent 82
falling 82
explained 82
dd@@ 82
confidence 82
extra@@ 82
facts 82
applications 82
tube 82
feeding 82
authority 82
fed 82
roads 82
boxes 82
singing 82
hurt 82
element 82
inspiration 82
2000 82
institution 81
5@@ 81
water@@ 81
smile 81
remains 81
claim 81
collapse 81
stress 81
nose 81
islam 81
relative 81
odd 81
flowers 81
insight 81
transportation 81
boston 81
hip 81
ob@@ 81
low-@@ 81
vely 81
tonight 81
bomb 81
keeps 81
length 80
dancing 80
bag 80
uni@@ 80
advice 80
ble@@ 80
title 80
treating 80
doubt 80
pakistan 80
entrepreneurs 80
funding 80
ads 80
creature 80
monkeys 80
queen 80
falls 80
cow 80
channel 80
sw@@ 80
patent 80
mc@@ 80
relevant 80
rooms 80
illness 80
ys 80
subjects 80
neither 80
ered 80
circumstances 80
2010 80
simplicity 80
boring 80
horrible 80
deaths 79
hed 79
pack 79
factors 79
wireless 79
counter@@ 79
ics 79
encourage 79
surgeon 79
outcome 79
fundamentally 79
educational 79
els 79
options 79
pair 79
grain 79
ii 79
stands 79
rational 79
expand 79
yed 79
explains 79
fingers 79
features 79
sweet 79
obsessed 79
shame 79
coal 79
dh 79
swimming 79
tion@@ 79
ctor 79
21 79
release 79
rocket 79
ill@@ 79
roots 79
upper 79
africans 79
fla@@ 79
partners 79
framework 79
signed 79
reverse 79
sol@@ 78
lake 78
stronger 78
unexpected 78
director 78
mid-@@ 78
ple@@ 78
sal 78
passionate 78
tered 78
ak 78
ering 78
ide@@ 78
combine 78
raw 78
glo@@ 78
suggests 78
sh 78
cro@@ 78
pin@@ 78
sy@@ 78
sions 78
worlds 78
behavioral 78
staff 78
presence 78
activities 78
tested 78
comfort 78
paris 78
option 78
mechanical 78
mix 78
statement 78
mystery 78
ped 78
younger 78
climb 78
flew 78
tele@@ 78
occur 78
rapidly 77
walks 77
heroes 77
regions 77
recording 77
telescope 77
ach@@ 77
meaningful 77
detect 77
plans 77
generated 77
corporate 77
drives 77
technique 77
philosophy 77
mic 77
defense 77
nor 77
sy 77
trend 77
magnetic 77
equation 77
determine 77
suit 77
clouds 77
afternoon 77
thin 77
ken@@ 77
ford 77
well-being 77
entertainment 77
largely 77
component 77
symmetry 77
cortex 77
paradigm 77
va 77
architects 77
selection 77
touched 77
films 77
particle 77
dy@@ 77
remind 77
om 76
shor@@ 76
musical 76
eggs 76
performing 76
printing 76
mad 76
finance 76
organism 76
proof 76
17@@ 76
rever@@ 76
app@@ 76
handle 76
operate 76
wondered 76
physically 76
decline 76
prices 76
frankly 76
squ@@ 76
stu@@ 76
nor@@ 76
innovative 76
unclear 76
rein@@ 76
gender 76
sculpture 76
chicago 76
ologists 76
engaged 76
abstract 76
str@@ 76
wheel 75
tre@@ 75
flo@@ 75
severe 75
globe 75
directions 75
phase 75
genius 75
nowhere 75
sustainability 75
tro@@ 75
ens 75
not@@ 75
released 75
sto@@ 75
ologist 75
sor@@ 75
ye@@ 75
tea 75
evening 75
actions 75
pure 75
designs 75
ana 75
victims 75
vehicles 75
transformed 75
edi@@ 75
origami 75
21st 75
launch 75
exact 75
attempt 75
der@@ 75
celebrate 75
blog 75
lighting 74
val 74
cook 74
20@@ 74
dense 74
vessels 74
19th 74
distributed 74
tall 74
functional 74
conclusion 74
author 74
ing-@@ 74
egypt 74
soul 74
pocket 74
ty@@ 74
sticks 74
sty 74
internal 74
la 74
fuels 74
interestingly 74
ctors 74
clothes 74
scan 74
chose 74
eu@@ 74
underwater 74
van 74
angle 74
co-@@ 74
required 74
paintings 74
false 74
somewhat 74
mechanism 74
resistance 74
golden 74
processing 74
60s 73
piano 73
whales 73
poem 73
instruments 73
embrace 73
admit 73
potentially 73
election 73
14@@ 73
intense 73
arctic 73
zo@@ 73
haiti 73
equally 73
volume 73
button 73
messages 73
stayed 73
1.@@ 73
scared 73
zoom 73
faced 73
mat@@ 73
joined 73
collected 73
lan@@ 73
gue 73
measured 73
stable 73
illegal 72
50,000 72
kin@@ 72
participate 72
oni@@ 72
welcome 72
greenhouse 72
bot@@ 72
quarter 72
chapter 72
songs 72
electro@@ 72
measuring 72
post-@@ 72
korea 72
end@@ 72
hello 72
divided 72
pla@@ 72
silence 72
sle@@ 72
agreed 72
wherever 72
ger@@ 72
surely 72
ev@@ 72
plate 72
lovely 72
sweden 72
german 72
human@@ 72
court 72
bible 72
dolphins 72
gro@@ 72
est@@ 72
rice 72
careful 72
clinic 72
by-@@ 72
posing 72
ec@@ 72
puzzle 72
actor 72
ss 72
density 72
aries 72
teams 72
tom 71
bf 71
split 71
berg 71
invent 71
extinct 71
wise 71
multi@@ 71
din@@ 71
danger 71
j 71
economies 71
divide 71
alization 71
cou@@ 71
chip 71
shut 71
dge 71
powered 71
connecting 71
furniture 71
matic 71
muslim 71
graphic 71
xi@@ 71
height 71
laugh 71
root 71
2005 71
infinite 71
obesity 71
ships 71
bike 71
incentives 71
savings 71
obama 71
ink 70
ren@@ 70
christmas 70
perform 70
th-@@ 70
commitment 70
classic 70
session 70
unknown 70
exc@@ 70
grass 70
lifestyle 70
grows 70
identical 70
nest 70
hur@@ 70
geo@@ 70
grab 70
exploring 70
challenging 70
domin@@ 70
iron 70
interview 70
september 70
till 70
ani@@ 70
concrete 70
explo@@ 70
weak 70
soft 70
slides 70
busy 70
villages 70
centuries 69
prototype 69
sum 69
input 69
overall 69
aside 69
pregnant 69
af@@ 69
chocolate 69
reference 69
placed 69
new@@ 69
existed 69
frank 69
lon@@ 69
feature 69
gray 69
disappeared 69
automatically 69
constant 69
gates 69
causing 69
lands 69
arguments 69
lin@@ 69
inspiring 69
parking 69
bell 69
capit@@ 69
ol 69
lung 69
congress 69
70s 69
records 69
pile 69
four-@@ 69
passing 69
conver@@ 69
flower 69
narrative 69
forming 69
usual 69
dirty 69
fortune 69
russia 69
microscope 69
circuit 69
intuitive 69
implications 69
kingdom 69
mur@@ 69
struck 69
march 69
spider 69
enable 68
score 68
cop@@ 68
bility 68
hunger 68
19 68
spreading 68
appreciate 68
sheep 68
cry 68
ray 68
painful 68
20,000 68
apparently 68
secondly 68
2009 68
x-ray 68
depending 68
france 68
consumers 68
ina 68
cam@@ 68
suffer 68
shock 68
gener@@ 68
iphone 68
stations 68
son@@ 68
symptoms 68
interactive 68
properly 68
peter 68
reaching 68
estimate 68
entered 68
functions 68
memor@@ 68
latest 68
granted 68
carried 68
hes 68
immune 68
probability 68
offered 68
bles 68
breathe 68
desk 67
parent 67
disorders 67
season 67
enemy 67
free@@ 67
club 67
hydro@@ 67
mul@@ 67
disorder 67
,000 67
fis@@ 67
script 67
depend 67
non@@ 67
hum@@ 67
samples 67
ft 67
housing 67
romantic 67
powers 67
outcomes 67
translate 67
half-@@ 67
liver 67
year-olds 67
attacks 67
snow 67
toxic 67
happier 67
persi@@ 67
texas 67
judge 67
dor@@ 67
tures 67
ining 67
dramatically 67
tasks 67
synthetic 67
dent 67
awesome 67
congo 67
remove 67
spar@@ 67
elephant 67
cies 67
bes 67
pit@@ 66
ids 66
pig 66
hill 66
capitalism 66
work@@ 66
dot 66
conservation 66
long-@@ 66
tin@@ 66
yer 66
cau@@ 66
wil@@ 66
ken 66
dozen 66
rising 66
hide 66
nets 66
ear 66
tragedy 66
temp@@ 66
maintain 66
silicon 66
tower 66
dependent 66
clever 66
ists 66
16@@ 66
broad@@ 66
concepts 66
latin 66
charity 66
alist 66
curiosity 66
phrase 66
border 66
breathing 66
ra 66
hang 66
spoken 66
symbol 66
all@@ 66
behave 66
onal 66
ese 66
telephone 66
destroyed 65
adapt 65
2004 65
inch 65
mess 65
bias 65
resolution 65
fusion 65
chart 65
22 65
backwards 65
mainly 65
fortunately 65
papers 65
assume 65
fifth 65
bee 65
higgs 65
ize 65
clay 65
secure 65
tiles 65
dish 65
illusion 65
0@@ 65
islamic 65
advertising 65
aring 65
27 65
shell 65
accessible 65
application 65
tour 65
cement 65
ences 65
bac@@ 65
poli@@ 65
meetings 65
balloon 65
ey 65
standards 65
recovery 65
links 65
friendly 65
agency 65
und@@ 65
repli@@ 65
organize 65
scary 65
increases 65
facial 65
shoulder 65
ghana 65
appears 65
populations 65
sis 65
destroy 65
arity 64
provides 64
educated 64
wel@@ 64
geographic 64
ots 64
prefer 64
calculate 64
chest 64
tag 64
headed 64
photo@@ 64
inspire 64
whale 64
pay@@ 64
shi@@ 64
breaks 64
determined 64
involves 64
tie 64
apartment 64
ep@@ 64
heaven 64
disappear 64
classes 64
optimistic 64
cup 64
wanting 64
by@@ 64
appeared 64
liber@@ 64
smoke 64
hat@@ 64
bla@@ 64
conversations 64
eli@@ 64
distant 64
six-@@ 64
contrast 64
bet 64
controlling 64
les@@ 64
stly 64
all-@@ 64
transparency 64
historical 64
ph 64
oned 63
extent 63
embedded 63
ological 63
thri@@ 63
pos@@ 63
regul@@ 63
ridiculous 63
cour@@ 63
plan@@ 63
demonstrate 63
seed 63
linear 63
funded 63
aff@@ 63
reflect 63
ners 63
attached 63
microsoft 63
clock 63
ore 63
lens 63
landed 63
ir 63
pt 63
ignore 63
frequency 63
oldest 63
shed 63
thrown 63
herself 63
kers 63
ain 63
cute 63
license 63
adam 63
reduction 63
fiber 63
tied 63
legacy 63
blow 63
oxford 63
orbit 63
darkness 63
dynamics 63
atlantic 63
afterwards 63
physicist 63
reputation 63
january 63
spiritual 63
loop 63
morality 63
jack 63
tain 63
orange 63
contra@@ 63
ideal 63
cycles 62
fascinated 62
neuron 62
op 62
productivity 62
pen 62
golf 62
floating 62
mid@@ 62
muscles 62
stanford 62
so-called 62
naked 62
uganda 62
exhibition 62
mes 62
drinking 62
monkey 62
via 62
truck 62
hardly 62
surrounded 62
cell@@ 62
nurses 62
stock 62
fixed 62
chaos 62
pul@@ 62
virtually 62
locked 62
cheaper 62
units 62
ethical 62
fer 62
parallel 62
worker 62
frozen 62
tan@@ 62
colony 62
len@@ 62
dioxide 62
soviet 62
ell@@ 62
photography 62
rel@@ 62
produces 62
pet@@ 61
astonishing 61
opposed 61
chimpanzees 61
traveled 61
reef 61
represented 61
angeles 61
lecture 61
seats 61
tired 61
grandfather 61
autism 61
holds 61
bly 61
host 61
mes@@ 61
cated 61
talent 61
excuse 61
dig 61
drawn 61
tech 61
communications 61
allowing 61
positions 61
copyright 61
colle@@ 61
motivation 61
80s 61
tical 61
sheet 61
presented 61
on-@@ 61
lea@@ 61
ture 61
kar@@ 61
bel@@ 61
habitat 61
personality 61
plenty 61
ugly 61
emergency 61
academic 61
pon@@ 61
ending 60
capita 60
precisely 60
ash 60
shu@@ 60
plays 60
chosen 60
memories 60
achieved 60
tting 60
anger 60
adding 60
journalist 60
overcome 60
opens 60
gate 60
toilet 60
2006 60
expert 60
tan 60
fan 60
ach 60
globalization 60
pose 60
hearts 60
ei@@ 60
poorest 60
pushing 60
8@@ 60
continues 60
ethiopia 60
cin@@ 60
post@@ 60
spots 60
smallpox 60
discoveries 60
official 60
providing 60
extract 60
missed 60
lations 60
elling 60
tax 60
vulnerability 60
stat@@ 60
bars 59
jewish 59
oc@@ 59
quar@@ 59
k-@@ 59
excellent 59
limb 59
filter 59
pled 59
static 59
bit@@ 59
tt@@ 59
dedicated 59
reduced 59
likes 59
beer 59
silent 59
ination 59
derek 59
bow 59
currency 59
lift 59
fears 59
cable 59
permanent 59
provided 59
photographed 59
seas 59
photographer 59
agenda 59
pers 59
speakers 59
diabetes 59
eric 59
2003 59
gol@@ 59
limits 59
thick 59
sports 59
elsewhere 59
native 59
bul@@ 59
psychological 59
super-@@ 59
explaining 59
o-@@ 59
ben 59
volunteers 59
brief 59
angry 59
pace 59
sil@@ 59
95 59
goo@@ 59
drill 59
ale 59
cap 59
glamorous 58
retro@@ 58
polar 58
pilot 58
tries 58
writers 58
knee 58
muslims 58
lam@@ 58
raising 58
pointed 58
courage 58
ast 58
dur@@ 58
includes 58
killer 58
yours 58
.com 58
cher 58
imagined 58
fluid 58
searching 58
fabulous 58
with@@ 58
firm 58
allo@@ 58
removed 58
rush 58
gps 58
lin 58
hollywood 58
asks 58
kb 58
gut 58
chief 58
hungry 58
terrorism 58
architectural 58
orchestra 58
integrated 58
tricks 58
earthquake 58
wal@@ 58
harm 58
alien 58
tribes 58
diagram 58
surfaces 58
finds 58
cave 58
martin 58
-like 58
bay 58
trucks 58
ther 58
oning 58
facility 58
laid 58
26 58
pyramid 58
ery 57
bicycle 57
output 57
collecting 57
graphics 57
trends 57
ene 57
consequence 57
review 57
mel@@ 57
dignity 57
psycho@@ 57
foods 57
0,000 57
sleeping 57
contains 57
sharp 57
borders 57
poly@@ 57
condu@@ 57
moder@@ 57
teri@@ 57
bin 57
aircraft 57
recognized 57
ances 57
gation 57
accidents 57
im 57
sub-@@ 57
qualities 57
react 57
qui@@ 57
suicide 57
artistic 57
glasses 57
rarely 57
person@@ 57
fres@@ 57
pool 57
crossing 57
fri@@ 57
letting 57
jail 57
0.@@ 57
circles 57
storm 57
layers 57
economist 57
wan@@ 57
tly 57
flip 57
scales 57
clients 57
openness 57
affordable 57
vable 57
amongst 57
pulling 57
practices 57
skull 57
fiction 57
pp@@ 57
essing 57
insu@@ 57
sl@@ 57
shooting 56
nurse 56
privilege 56
regret 56
airport 56
tors 56
chi@@ 56
guide 56
elled 56
ris@@ 56
drove 56
tives 56
underground 56
quest 56
crying 56
coloni@@ 56
4,000 56
june 56
focusing 56
controls 56
loud 56
ration 56
neighbor 56
dust 56
transport 56
sensory 56
mini@@ 56
boards 56
23 56
cats 56
cash 56
wards 56
sky@@ 56
ately 56
gang 56
eye@@ 56
protecting 56
conclude 56
precise 56
gging 56
13@@ 56
mining 56
ecosystems 56
recognition 56
agricultural 56
poster 56
super 56
na 55
she@@ 55
optimism 55
federal 55
rwanda 55
glamour 55
customers 55
800 55
boundaries 55
vertical 55
ham@@ 55
figuring 55
observation 55
amazon 55
diverse 55
250 55
colleague 55
climbing 55
origin 55
encounter 55
hil@@ 55
rescue 55
repair 55
ingredients 55
receive 55
hanging 55
devil 55
unlikely 55
improvement 55
tank 55
succeed 55
sport 55
informed 55
honey 55
council 55
hire 55
asi@@ 55
ll 55
tile 55
returned 55
humor 55
cast 55
ep 55
viral 55
mammals 55
fortunate 55
tations 55
swa@@ 55
bronx 55
2001 55
predictions 55
insurance 55
mode 55
owned 55
neuroscience 55
ku@@ 55
gore 55
emerge 55
picking 55
-up 55
speaker 55
consume 55
manhattan 55
resi@@ 55
biologists 55
smo@@ 55
variation 55
cambridge 55
bis@@ 55
brian 55
suggesting 55
interactions 55
vital 54
initial 54
demon@@ 54
mus@@ 54
sand@@ 54
nobel 54
underlying 54
damn 54
separated 54
highway 54
sar@@ 54
ment@@ 54
depressed 54
predicted 54
bears 54
someday 54
vol@@ 54
gan@@ 54
fran@@ 54
sla@@ 54
mation 54
ed@@ 54
mixed 54
concern 54
liberal 54
monitor 54
witness 54
dinosaur 54
seeds 54
wat@@ 54
poet 54
weapon 54
rebuild 54
fathers 54
october 54
cen@@ 54
dimension 54
computation 54
transparent 54
65 54
bom@@ 54
ine@@ 54
tumors 54
dness 54
constructed 54
rio 54
footprint 54
neural 54
unbelievable 54
saturn 54
mice 54
symbols 54
corn 54
dolphin 54
gathering 54
mit@@ 54
sales 54
proper 54
pump 54
globally 54
utili@@ 54
diagnosed 54
escape 54
palm 54
emerged 54
ented 54
sm 54
maker 54
forests 54
tter 54
governance 54
robotic 54
policies 54
inches 54
ya 54
shadow 54
rocks 54
meal 54
stones 54
realm 54
90s 54
treatments 53
1990s 53
asteroid 53
distra@@ 53
aspects 53
winning 53
plot 53
pink 53
essence 53
frog 53
vacuum 53
mines 53
brush 53
characteristics 53
chil@@ 53
crops 53
wea@@ 53
ements 53
phantom 53
males 53
skeleton 53
twi@@ 53
stages 53
served 53
detection 53
favor 53
offers 53
lined 53
app 53
ka 53
committed 53
shit 53
innovations 53
originally 53
sm@@ 53
1960 53
n-@@ 53
barely 53
cartoon 53
rely 53
salt 53
inv@@ 53
spinal 53
bon@@ 53
briefly 53
stores 53
electronics 53
surprisingly 53
teenagers 53
uns@@ 53
pris@@ 53
smooth 53
watts 53
deli@@ 53
farmer 53
backs 53
32 53
musicians 53
toes 53
failing 53
historic 52
preserve 52
tension 52
bottles 52
invite 52
harvest 52
industries 52
imaging 52
mall 52
multi-@@ 52
cha@@ 52
methods 52
extended 52
armed 52
hardware 52
begun 52
ast@@ 52
consistent 52
buried 52
reminded 52
injury 52
shelf 52
florida 52
cher@@ 52
3.@@ 52
ams 52
pound 52
laser 52
lac@@ 52
ased 52
amed 52
-to-@@ 52
interacting 52
cooperation 52
zer 52
tony 52
genetics 52
revenue 52
instructions 52
explosion 52
reported 52
sely 52
contemporary 52
county 52
pointing 52
occasionally 52
efforts 52
strategies 52
subway 52
fruit 52
700 52
wash 52
black@@ 52
reports 52
tip 52
lawyers 52
kit@@ 52
dress 52
senior 52
illu@@ 52
dictionary 52
eless 52
boom 52
spi@@ 52
joe 52
hot@@ 52
perceive 52
thin@@ 52
rain@@ 52
baseball 52
engaging 52
mil@@ 52
document 52
richer 52
cho@@ 51
shrimp 51
ade 51
domestic 51
suspect 51
unds 51
spectacular 51
scratch 51
struggling 51
actors 51
fits 51
expectancy 51
stre@@ 51
may@@ 51
daughters 51
successfully 51
ah@@ 51
announced 51
tap 51
founded 51
alities 51
translation 51
off@@ 51
alists 51
blame 51
evolve 51
shopping 51
howard 51
gged 51
seek 51
flag 51
exposed 51
beliefs 51
sam@@ 51
mri 51
pushed 51
life-@@ 51
compli@@ 51
debt 51
mentation 51
green@@ 51
silly 51
marks 51
fertili@@ 51
hea@@ 51
plastics 51
earn 51
domain 51
generating 51
relations 51
exponential 51
viol@@ 51
inging 51
hyper@@ 51
conflicts 51
elections 51
eted 51
painted 51
nerve 51
advis@@ 51
toy 51
oxytocin 51
micro-@@ 51
soli@@ 51
sisters 51
c. 51
classical 51
articles 51
dest 50
onic 50
engagement 50
dopamine 50
transplant 50
alzheimer 50
1980s 50
gentleman 50
intuition 50
sac@@ 50
predi@@ 50
opera 50
vagina 50
balls 50
kno@@ 50
ack 50
discovering 50
defe@@ 50
kills 50
dear 50
parties 50
affects 50
sensors 50
turkey 50
leverage 50
cheese 50
hab@@ 50
universities 50
pigs 50
conf@@ 50
attract 50
fting 50
classi@@ 50
sits 50
upset 50
bers 50
theories 50
footage 50
cotton 50
uncle 50
acy 50
robust 50
procedure 50
limit 50
mer 50
ored 50
sentences 50
garbage 50
regime 50
pil@@ 50
bol@@ 50
dive 50
play@@ 50
tracks 50
visited 50
banks 50
sacred 50
cations 50
cians 50
contain 50
taliban 50
sub-saharan 50
buil@@ 50
gli@@ 50
rats 50
gy@@ 50
rolling 50
kan@@ 50
brain@@ 50
dominant 50
besides 50
plug 49
ot 49
ony 49
contribu@@ 49
crucial 49
demographic 49
blogs 49
ass@@ 49
colored 49
essed 49
sher@@ 49
ises 49
entrepreneur 49
signature 49
drew 49
tuna 49
milli@@ 49
tun@@ 49
shifting 49
football 49
staying 49
wings 49
announ@@ 49
discuss 49
za@@ 49
panels 49
power@@ 49
sou@@ 49
shots 49
luck 49
describes 49
glad 49
miracle 49
stics 49
simulation 49
formation 49
needle 49
worms 49
expectations 49
collaborative 49
iting 49
iling 49
contribute 49
hin@@ 49
moore 49
trash 49
inten@@ 49
gather 49
jesus 49
den 49
dist@@ 49
diving 49
flexible 49
operations 49
identified 49
folding 49
30,000 49
sheets 49
horri@@ 49
exam@@ 49
mayor 49
journal 49
tam@@ 49
henry 49
mill 49
contract 49
flows 49
mo 49
expres@@ 49
guns 49
ess@@ 49
pm 49
stairs 49
subtle 49
hypothesis 49
sul@@ 49
february 49
cord 49
pandemic 49
warning 49
clin@@ 49
serving 49
whatsoever 49
bizarre 49
cially 49
consciously 49
analyze 48
bubbles 48
bags 48
ek 48
accepted 48
gal@@ 48
recru@@ 48
depth 48
italy 48
scores 48
mol@@ 48
scra@@ 48
hitting 48
tab@@ 48
spin 48
syndrome 48
aged 48
penguin 48
initi@@ 48
entropy 48
forgotten 48
delivered 48
description 48
array 48
memes 48
proposed 48
extinction 48
jim 48
slavery 48
dec@@ 48
restor@@ 48
views 48
inst@@ 48
mushroom 48
paralyzed 48
arrive 48
threw 48
teen 48
washing 48
external 48
luckily 48
feynman 48
smith 48
robotics 48
sw 48
run@@ 48
pas@@ 48
coke 48
caring 48
rock@@ 48
leather 48
resistant 48
shelter 48
dating 48
replicate 48
rope 48
breakfast 48
surgeons 48
neat 48
suggested 48
outer 48
immer@@ 48
exclu@@ 48
mechanisms 48
edges 48
tune 48
profits 48
chairs 48
clothing 48
cious 48
geometry 48
mal 48
uncomfortable 48
lawyer 48
airplanes 48
dul@@ 48
an-@@ 48
trains 48
arian 48
endangered 48
cake 48
bin@@ 48
aming 48
cross-@@ 47
fires 47
tubes 47
iness 47
acted 47
recei@@ 47
di 47
jellyfish 47
ts@@ 47
blan@@ 47
fabric 47
sauce 47
rb 47
portion 47
tribe 47
fts 47
mail 47
wildlife 47
elderly 47
comparison 47
33 47
tends 47
permission 47
antarctica 47
dity 47
eled 47
antly 47
keyboard 47
wind@@ 47
phosphorus 47
resilience 47
nowadays 47
stated 47
enti@@ 47
motors 47
gras 47
investing 47
cus 47
tor 47
programming 47
shanghai 47
lock 47
extend 47
translated 47
initially 47
belong 47
altitude 47
owner 47
charges 47
sa 47
reducing 47
winds 47
ownership 47
bats 47
abilities 47
promote 47
trajectory 47
ght@@ 47
1970s 47
biodiversity 47
0s 47
elementary 47
pot 47
established 47
alle@@ 47
gonna 47
tate 47
bucks 47
fro@@ 47
egg 47
ensure 47
captured 47
client 47
pig@@ 47
bob 47
quot@@ 47
terror 47
experimental 47
reform 47
methane 47
route 47
empire 47
pants 47
obje@@ 47
eness 47
pol@@ 47
lincoln 47
the-@@ 47
reliable 47
reser@@ 47
supported 47
advance 47
abuse 47
youth 47
thir@@ 46
nat@@ 46
bli@@ 46
independence 46
demonstration 46
answered 46
dropping 46
ush 46
ght 46
uncertainty 46
participants 46
doors 46
flowing 46
reserve 46
vibra@@ 46
nuts 46
worthy 46
verse 46
sixth 46
agent 46
gic 46
blank 46
ner@@ 46
ph.d. 46
q@@ 46
fraction 46
administration 46
comedy 46
rat 46
adventure 46
soup 46
28 46
inventor 46
thus 46
remaining 46
grateful 46
ville 46
whi@@ 46
dictat@@ 46
wider 46
promised 46
imagery 46
audio 46
esses 46
portrait 46
cont@@ 46
er-@@ 46
vegetables 46
december 46
merely 46
scre@@ 46
compassionate 46
algorithm 46
terribly 46
fancy 46
prefer@@ 46
prepare 46
expanding 46
g-@@ 46
frontal 46
tim 46
ank 46
mapping 46
discipline 46
russian 46
infection 46
consul@@ 46
engineered 46
continuing 46
gically 46
initiative 46
pitch 46
jazz 46
wers 46
sons 46
impression 46
tal@@ 46
cows 46
inevitable 46
tendency 45
pois@@ 45
realizing 45
bug 45
beneath 45
stops 45
corre@@ 45
steven 45
homo 45
barrier 45
aling 45
mag@@ 45
vel@@ 45
hon@@ 45
gotta 45
dated 45
shirt 45
drivers 45
immediate 45
fragile 45
mathematicians 45
assumptions 45
agreement 45
unding 45
rose 45
substance 45
ridge 45
stroke 45
christian 45
remained 45
ooh 45
mt 45
primitive 45
yers 45
olo@@ 45
lar@@ 45
leg@@ 45
remembered 45
thers 45
summit 45
channels 45
widely 45
crack 45
reminds 45
suffered 45
atomic 45
insect 45
demands 45
tissues 45
comic 45
elected 45
criminal 45
weak@@ 45
gradually 45
counting 45
ass 45
annual 45
enables 45
repeat 45
interpretation 45
commun@@ 45
adopted 45
admini@@ 45
smallest 45
slo@@ 45
first-@@ 45
clu@@ 45
wer 45
investig@@ 45
analogy 45
pockets 45
jun@@ 45
fibers 45
measures 45
sel@@ 45
no-@@ 45
strangers 45
pretend 45
laughing 45
magical 45
wheat 45
tears 45
visions 45
gaps 45
profoundly 45
printer 45
cosmic 45
2002 44
lic 44
expecting 44
restaurants 44
bled 44
cuts 44
accounts 44
smarter 44
rob@@ 44
ster@@ 44
emp@@ 44
neck 44
reli@@ 44
ities 44
kevin 44
narrow 44
dialogue 44
6,000 44
hear@@ 44
association 44
29 44
proportion 44
bat 44
comment 44
confused 44
quit 44
biosphere 44
15@@ 44
supplies 44
tent 44
pizza 44
abraham 44
facilities 44
homework 44
holy 44
completed 44
rapid 44
lg 44
abo@@ 44
technically 44
ual 44
transfer 44
capability 44
ral 44
stry 44
reveal 44
pollin@@ 44
persu@@ 44
eaten 44
database 44
grandchildren 44
ly@@ 44
aw@@ 44
adap@@ 44
ski@@ 44
audi@@ 44
loves 44
partly 44
folds 44
ham 44
covering 44
improving 44
calories 44
circuits 44
sandwich 44
infections 44
planes 44
suck 44
documents 44
wheels 44
50s 44
gent 44
pet 44
sum@@ 44
blin@@ 44
boo@@ 44
instru@@ 44
objective 44
spain 44
plain 44
shocked 44
woke 44
ai@@ 44
significantly 44
shar@@ 44
antibiotics 44
canopy 44
pause 44
gained 44
traditions 44
formula 44
puzzles 44
bound 44
achievement 44
threats 44
factories 44
offices 44
grandparents 44
hat 44
rings 44
district 44
120 44
strike 44
dawn 44
extension 44
garage 44
w-@@ 44
sciences 44
attractive 43
syn@@ 43
horizon 43
inequality 43
toys 43
amy 43
insights 43
ratio 43
campus 43
pairs 43
earliest 43
categories 43
command 43
profile 43
scanning 43
jumped 43
finan@@ 43
plum@@ 43
che 43
greek 43
pes 43
experiencing 43
entering 43
odds 43
dutch 43
ential 43
insulin 43
attitude 43
mp@@ 43
wheelchair 43
rep@@ 43
enhan@@ 43
delhi 43
eve 43
ill 43
sunday 43
philosopher 43
occurs 43
civilizations 43
pad 43
fat@@ 43
port 43
terrorists 43
gods 43
gallery 43
innocent 43
fan@@ 43
int 43
recover 43
comple@@ 43
performed 43
10-@@ 43
2050 43
arabic 43
smoking 43
essi@@ 43
law@@ 43
fastest 43
defining 43
finger@@ 43
adapted 43
85 43
mysterious 43
frustrated 43
comics 43
unhappy 43
bulb 43
restore 43
un-@@ 43
astro@@ 43
researcher 43
freely 43
continents 43
ading 43
ambi@@ 43
wr@@ 43
and-@@ 43
interior 43
prisoners 43
tangible 43
credi@@ 43
delivery 43
category 43
ghts 43
marketplace 43
physicists 43
parliament 43
physician 43
incentive 43
hong 43
proven 43
stepped 43
included 43
soldier 43
tone 43
impacts 43
scar@@ 43
errors 42
explored 42
apo@@ 42
choosing 42
kick 42
johnson 42
ax@@ 42
curriculum 42
huh 42
ecological 42
over-@@ 42
bia 42
competitive 42
ful@@ 42
virginia 42
foot@@ 42
nutrients 42
miserable 42
april 42
strands 42
limitations 42
lap 42
eg@@ 42
deception 42
foundations 42
p-@@ 42
rivers 42
dean 42
breeding 42
ki 42
knife 42
impressive 42
voting 42
reefs 42
privacy 42
cancers 42
confident 42
loaded 42
closest 42
convenient 42
cer 42
rhythm 42
clear@@ 42
é@@ 42
expansion 42
download 42
chasing 42
thermal 42
friday 42
blown 42
open-@@ 42
invested 42
cricket 42
approaching 42
tar@@ 42
sna@@ 42
craft 42
mand@@ 42
hunting 42
ceo 42
observe 42
mosquito 42
pursue 42
clon@@ 42
realistic 42
musician 42
skeletal 42
vor@@ 42
ells 42
refriger@@ 42
branches 42
improved 42
crew 42
eting 42
epi@@ 42
shortly 42
bee@@ 42
fron@@ 42
troops 42
deserve 42
swiss 42
engines 42
citizen 42
tized 42
prevention 42
20s 42
pac@@ 42
cratic 42
expedition 42
1990 42
jihad 42
dominated 42
joshua 42
lou@@ 42
spanish 42
prostate 42
anonymous 42
ress 42
poll@@ 42
wealthy 42
volunteer 42
pic@@ 42
deaf 42
gathered 42
electron 41
builds 41
detailed 41
grades 41
m. 41
victim 41
popul@@ 41
mathematician 41
nearby 41
ngos 41
seeking 41
correctly 41
turing 41
thr@@ 41
ace 41
leap 41
tioned 41
zers 41
newspapers 41
larry 41
stack 41
threshold 41
lists 41
mon 41
anxiety 41
targets 41
yu@@ 41
scope 41
wooden 41
laptops 41
ishing 41
20-@@ 41
grasp 41
renewable 41
charged 41
hunt 41
lion 41
ticket 41
exception 41
gated 41
assemble 41
nan@@ 41
cian 41
tated 41
expressions 41
vietnam 41
illustrate 41
cia 41
assumption 41
aro@@ 41
jet 41
stor@@ 41
ests 41
stimul@@ 41
onia 41
passenger 41
myth 41
full-@@ 41
isolated 41
shocking 41
difficulty 41
judgment 41
inti@@ 41
instantly 41
jac@@ 41
tongue 41
estimated 41
fur@@ 41
agencies 41
italian 41
stephen 41
alpha 41
delicious 41
top@@ 41
open-source 41
mia 41
bend 41
cle@@ 41
predators 41
elephants 41
packed 41
tran@@ 41
rou@@ 41
autonomous 41
mature 41
glue 41
appearance 41
smiling 41
classrooms 41
cartoons 41
refer 41
denti@@ 41
tering 41
lic@@ 41
logical 41
alistic 41
30-@@ 41
yield 41
selfish 41
goodbye 41
alcohol 41
bangladesh 41
literacy 41
zi@@ 41
representation 41
0-@@ 41
conducted 41
communic@@ 41
republic 41
philanthropy 41
bo 41
newton 41
de-@@ 41
aded 41
pleasant 41
influenced 41
replaced 41
resem@@ 41
compelling 41
picks 41
offering 41
gt 41
rei@@ 40
boats 40
titan 40
yourselves 40
terrifying 40
dressed 40
homeless 40
tsunami 40
spra@@ 40
storytelling 40
lau@@ 40
panel 40
reflection 40
lungs 40
bun@@ 40
retirement 40
blu@@ 40
our@@ 40
ton@@ 40
steal 40
dozens 40
seal 40
hol@@ 40
helium 40
eling 40
auto@@ 40
recipe 40
redwood 40
ethnic 40
tragic 40
indians 40
thy 40
throwing 40
ty-@@ 40
sus@@ 40
electrons 40
similarly 40
two-thirds 40
arguing 40
wa 40
plu@@ 40
coo@@ 40
crows 40
beating 40
vin 40
helicopter 40
potent 40
hired 40
vaccin@@ 40
physi@@ 40
badly 40
colli@@ 40
defen@@ 40
gases 40
purposes 40
intensity 40
12@@ 40
dre@@ 40
sale 40
passive 40
m-@@ 40
colonies 40
transforming 40
partnership 40
despair 40
fun@@ 40
installation 40
kidney 40
microbial 40
secre@@ 40
stability 40
contrary 40
requ@@ 40
diameter 40
phenomena 40
gen 40
matrix 40
connectivity 40
tom@@ 40
kins 40
aled 40
branch 40
transmission 40
bite 40
ecology 40
instant 40
versions 40
enemies 40
broad 40
flash 40
bulbs 40
ser 40
hei@@ 40
ceiling 40
psychologists 40
sei@@ 40
bond 40
mechanics 40
deci@@ 40
nelson 40
hard@@ 40
digi@@ 40
bombs 40
rowing 40
connects 40
construct 40
ang@@ 40
conservative 40
spor@@ 40
fallen 40
bureau@@ 40
intent 40
gor@@ 40
oms 40
dal 40
oring 40
breakthrough 40
planetary 40
digit 40
wrap 39
narratives 39
spon@@ 39
i.@@ 39
teenage 39
deliber@@ 39
wires 39
ban 39
sustain 39
origins 39
duck 39
tables 39
calm 39
clubs 39
convert 39
yards 39
tips 39
marry 39
missions 39
posted 39
prediction 39
strongly 39
advan@@ 39
meanwhile 39
whis@@ 39
paradox 39
harmony 39
ries 39
civili@@ 39
sections 39
burden 39
primarily 39
manual 39
radically 39
decrease 39
tolerance 39
000-@@ 39
ze@@ 39
jeff 39
time-@@ 39
mentally 39
panic 39
nerves 39
bru@@ 39
gear 39
lord 39
lowest 39
nin@@ 39
storage 39
masses 39
file 39
tedtalk 39
plac@@ 39
gras@@ 39
heart@@ 39
joseph 39
vice 39
tat@@ 39
generous 39
encouraging 39
unable 39
affecting 39
benjamin 39
55 39
santa 39
overhead 39
voted 39
l.a. 39
simultaneously 39
insane 39
chances 39
au 39
dose 39
scenario 39
cate 39
labs 39
headlines 39
animation 39
+ 39
st. 39
tail@@ 39
neighborhoods 39
day@@ 39
locations 39
seti 39
mandela 39
forgot 39
emergence 39
insi@@ 39
tex@@ 39
handed 39
supporting 39
academy 39
tackle 39
aked 39
oes 39
scenes 39
denial 39
pills 39
waters 39
dough 39
ron 39
disability 39
oth@@ 39
reasonable 39
lei@@ 39
cles 39
thro@@ 39
cellular 39
gene@@ 39
lli@@ 39
biologist 39
mindset 39
48 39
ker@@ 39
psychiat@@ 39
mike 39
sexy 39
sink 39
reactor 39
restri@@ 39
carolina 39
od@@ 38
asing 38
theoretical 38
drum 38
plates 38
poin@@ 38
swi@@ 38
zones 38
tion-@@ 38
alizing 38
gh 38
reson@@ 38
wl 38
wedding 38
genocide 38
boss 38
migr@@ 38
fted 38
binary 38
prior 38
deals 38
commit 38
brand@@ 38
dest@@ 38
40,000 38
folded 38
fate 38
structural 38
hr@@ 38
daniel 38
pride 38
amazed 38
cum@@ 38
unprecedented 38
interpre@@ 38
tear 38
competing 38
coat 38
audiences 38
foie 38
beijing 38
addi@@ 38
nutri@@ 38
drops 38
butter@@ 38
elite 38
du 38
disabled 38
ignored 38
tionally 38
four@@ 38
custom@@ 38
previously 38
doubled 38
installed 38
vaccines 38
magnitude 38
stac@@ 38
mushrooms 38
gorgeous 38
read@@ 38
chips 38
dimensional 38
downtown 38
gran@@ 38
predictable 38
urge 38
absence 38
minus 38
dilemma 38
gesture 38
compete 38
reactions 38
2.@@ 38
arily 38
equations 38
critici@@ 38
mating 38
mor 38
decre@@ 38
frightening 38
tia 38
tage 38
motivated 38
approved 38
approaches 38
calculations 38
selected 38
camps 38
ures 38
equality 38
sensation 38
t. 38
ert 38
electrodes 38
arrested 38
book@@ 38
ric 38
vari@@ 38
tin 38
x-@@ 38
gover@@ 38
acid 38
thre@@ 38
fought 38
package 38
occurring 38
utes 38
lions 38
uplo@@ 38
eight-@@ 38
proposition 38
vessel 38
lit 38
intervention 38
wright 38
absor@@ 38
kin 38
bold 38
torture 38
catching 38
stro@@ 38
eal 38
preparing 38
aesthetic 38
human-@@ 38
ai 38
participation 38
courses 38
cti@@ 38
tale 37
sen 37
halfway 37
follows 37
traits 37
authorities 37
ency 37
passes 37
distinct 37
hus@@ 37
communicating 37
surgeries 37
rupt 37
succeeded 37
likelihood 37
distances 37
patents 37
shine 37
angiogenesis 37
home@@ 37
threatened 37
suits 37
inci@@ 37
monitoring 37
females 37
elev@@ 37
veri@@ 37
welfare 37
ctu@@ 37
sten@@ 37
surgical 37
commodity 37
remarkably 37
200,000 37
pione@@ 37
located 37
hun@@ 37
quanti@@ 37
approached 37
fence 37
bacterial 37
concert 37
prosthetic 37
responses 37
verbal 37
teaches 37
dependence 37
silver 37
chur@@ 37
clue 37
professionals 37
inevitably 37
propose 37
slums 37
batteries 37
division 37
strings 37
phenomenal 37
hiding 37
vents 37
dou@@ 37
stretch 37
rotate 37
195@@ 37
pupp@@ 37
fs 37
posi@@ 37
genetically 37
burned 37
demo@@ 37
camel 37
carries 37
cir@@ 37
enabled 37
ft@@ 37
d. 37
fal@@ 37
hardest 37
wee@@ 37
sch@@ 37
sized 37
sni@@ 37
mutation 37
cyber@@ 37
scaling 37
isi@@ 37
analy@@ 37
candidate 37
guarantee 37
challenged 37
assignment 37
landscapes 37
supermarket 37
bored 37
eliminate 37
banking 37
joy@@ 37
pir@@ 37
reas@@ 37
lee 37
simpli@@ 37
obstacles 37
helpful 37
healing 37
tedtalks 37
officer 37
covers 37
obese 37
kis@@ 37
minimum 37
dumb 37
ubiquitous 37
collapsed 37
kong 37
corals 37
trou@@ 37
straightforward 37
everest 37
concentrated 37
publish 37
beautifully 37
eds 37
vin@@ 37
ultrasound 37
sett@@ 37
hans 37
leaf 37
ell 37
moun@@ 37
capabilities 37
harbor 37
cylinder 37
virtu@@ 37
equ@@ 36
compromise 36
berry 36
rubber 36
journalists 36
heritage 36
amazingly 36
life@@ 36
bridges 36
neutral 36
elegant 36
ints 36
cooperative 36
excitement 36
hook 36
multiply 36
genomes 36
themes 36
measurements 36
aero@@ 36
keepers 36
mimic 36
closing 36
mind@@ 36
scanner 36
nick 36
tel@@ 36
poss@@ 36
estimates 36
william 36
presents 36
rough 36
sacrifice 36
murder 36
proce@@ 36
36 36
loads 36
intended 36
peoples 36
failures 36
drag 36
condoms 36
backyard 36
mary 36
kindness 36
zealand 36
tunnel 36
pis@@ 36
poison 36
publishing 36
itable 36
historically 36
sensor 36
charlie 36
texting 36
activist 36
fr@@ 36
span 36
jones 36
intensive 36
actively 36
chase 36
inn@@ 36
recession 36
obser@@ 36
sors 36
publi@@ 36
creator 36
ampli@@ 36
august 36
ement 36
koran 36
disagree 36
biomass 36
workforce 36
weigh 36
tanzania 36
1960s 36
olympics 36
mates 36
perfe@@ 36
47 36
cator 36
donor 36
sam 36
ental 36
bowl 36
hemisphere 36
heading 36
stal@@ 36
indu@@ 36
regard 36
suff@@ 36
safer 36
scott 36
additional 36
norden 36
cube 36
worrying 36
keys 36
temple 36
casting 36
discrimin@@ 36
inf@@ 36
namely 36
satellites 36
negoti@@ 36
ireland 36
nigerian 36
variations 36
pill 36
privileged 36
tured 36
lay@@ 36
realization 36
regardless 36
hills 36
customer 36
spinning 36
copies 36
motiv@@ 36
significance 36
aggressive 36
heating 36
blood@@ 36
frequently 36
wei@@ 36
systematically 36
shore 36
attitudes 36
socially 36
1950s 36
institutional 36
mira@@ 36
recycling 36
izing 36
arri@@ 36
guilty 36
compla@@ 36
destiny 36
strip 36
personalized 36
bad@@ 36
ay 36
imagin@@ 36
juice 36
ddle 36
rolled 36
sively 36
trace 36
venture 36
break@@ 36
census 36
calculus 36
migration 36
right-hand 36
abed 36
contribution 35
jan@@ 35
dents 35
integrate 35
feeds 35
reserves 35
asian 35
subur@@ 35
unders 35
sau@@ 35
extraordinarily 35
icon 35
switched 35
bert 35
selves 35
nation@@ 35
stays 35
virgin 35
expertise 35
coverage 35
rub@@ 35
and-a-half 35
raped 35
secrets 35
ium 35
outs 35
poses 35
carpet 35
comparing 35
controversial 35
habit@@ 35
ongoing 35
great-@@ 35
determines 35
mize 35
loving 35
chim@@ 35
interviews 35
ous@@ 35
ut 35
continuous 35
lottery 35
navigate 35
i. 35
ath@@ 35
items 35
chamber 35
lessly 35
pling 35
manipulate 35
telescopes 35
hallucinations 35
filling 35
choir 35
high-tech 35
longevity 35
peers 35
rating 35
ories 35
interpret 35
terrain 35
investors 35
favorites 35
aim 35
lifespan 35
é 35
relief 35
spill 35
authentic 35
andrew 35
healthier 35
a.m. 35
shakespeare 35
intact 35
yo 35
separ@@ 35
72 35
listened 35
blowing 35
leonardo 35
rent 35
november 35
s. 35
locally 35
glimpse 35
coin 35
advances 35
wer@@ 35
enjoyed 35
acquire 35
maximum 35
logo 35
ction@@ 35
cris@@ 35
ital 35
high@@ 35
alex 35
precious 35
bud@@ 35
transformative 35
milo 35
israeli 35
empowered 35
assets 35
grant 35
mud 35
believing 35
psychologist 35
visually 35
luxury 35
graphs 35
relation 35
ingredient 35
rap@@ 35
simpler 35
parks 35
paste 35
canvas 35
believes 35
meme 35
fet@@ 35
cus@@ 35
spreads 35
correspon@@ 35
rainforest 35
horses 35
dding 35
ritual 35
oy@@ 35
claims 35
request 35
eri@@ 35
reaches 35
taxes 35
legislation 35
sequences 35
colo@@ 35
copenhagen 35
interviewed 35
impli@@ 34
unfortunate 34
neys 34
teenager 34
skep@@ 34
separation 34
autonomy 34
ppy 34
enjoying 34
cab@@ 34
nant 34
stored 34
mankind 34
continuously 34
stam@@ 34
mot@@ 34
striking 34
vel 34
archi@@ 34
cape 34
smells 34
habits 34
index 34
tas@@ 34
activated 34
diarrhea 34
gest 34
simplest 34
bab@@ 34
truths 34
ministry 34
farms 34
detector 34
aims 34
topics 34
provo@@ 34
ater 34
civic 34
8,000 34
decor@@ 34
convey 34
elu@@ 34
understands 34
terrific 34
medication 34
landing 34
concei@@ 34
visu@@ 34
obli@@ 34
aching 34
websites 34
large-scale 34
authors 34
lewis 34
column 34
prosperity 34
com 34
visualization 34
mainstream 34
loan 34
dates 34
strategic 34
ulating 34
h-@@ 34
ans@@ 34
1999 34
hopeful 34
chef 34
ue 34
rewards 34
mobility 34
ffs 34
indonesia 34
d.c. 34
compute 34
probe 34
devastating 34
bir@@ 34
peac@@ 34
hall@@ 34
tar 34
concer@@ 34
millimeter 34
diplomacy 34
broader 34
194@@ 34
boom@@ 34
dung 34
household 34
deepest 34
adopt 34
curves 34
acquired 34
concentration 34
nevertheless 34
execu@@ 34
main@@ 34
para@@ 34
enter@@ 34
atu@@ 34
cent@@ 34
gency 34
50@@ 34
intimacy 34
cheat 34
inher@@ 34
temporary 34
ature 34
gas@@ 34
pray 34
six@@ 34
scrip@@ 34
atom 34
expor@@ 34
ort 34
epidemi@@ 34
speaks 34
indus 34
double-@@ 34
proposal 34
graduated 34
mess@@ 34
overwhelming 34
enjo@@ 34
25,000 34
cultiv@@ 34
dirt 34
bed@@ 34
tled 34
lun@@ 34
trivial 34
applying 34
swal@@ 34
approximately 34
portraits 34
ck-@@ 34
cliff 34
vation 34
processor 34
towns 34
farming 34
retina 34
magician 34
stically 34
evolving 34
tax@@ 34
roll@@ 34
educate 34
copied 34
streams 34
honestly 34
hormone 34
deployed 34
world-@@ 34
mere 34
temperatures 34
brow@@ 34
ared 34
organizing 34
cocaine 34
criminals 33
strates 33
kilo@@ 33
adju@@ 33
symmetries 33
scaff@@ 33
accountability 33
off-@@ 33
nur@@ 33
surveillance 33
pie 33
storyteller 33
vas@@ 33
suggestion 33
mycelium 33
190@@ 33
pity 33
cyrus 33
deb@@ 33
ally-@@ 33
automobile 33
nearest 33
periods 33
dow@@ 33
tropical 33
dead@@ 33
ga 33
pursuit 33
exploit 33
secretary 33
consumed 33
but@@ 33
textbooks 33
dence 33
bedroom 33
2,@@ 33
wore 33
algae 33
zy 33
relax@@ 33
safely 33
aliens 33
exten@@ 33
ype 33
fif@@ 33
destroying 33
contributed 33
mood 33
whoever 33
37 33
cracy 33
yp@@ 33
infra@@ 33
respe@@ 33
masters 33
depos@@ 33
spee@@ 33
mumbai 33
commu@@ 33
ney 33
travels 33
chat@@ 33
rays 33
overwhelmed 33
pouring 33
bil@@ 33
ater@@ 33
scans 33
ple 33
exposure 33
squares 33
shifts 33
anium 33
imit@@ 33
coach 33
triangle 33
ini@@ 33
dam@@ 33
useless 33
ski 33
fever 33
see@@ 33
hometown 33
hen@@ 33
than@@ 33
graphical 33
manager 33
prisoner 33
mari@@ 33
territory 33
60,000 33
olympic 33
meals 33
dation 33
monterey 33
symphony 33
mobili@@ 33
rs 33
opinions 33
aristotle 33
pulls 33
gui@@ 33
demonstrated 33
marrow 33
proved 33
philosophical 33
bian 33
cel@@ 33
iranian 33
trigger 33
documented 33
dic 33
thor@@ 33
resolve 33
implant 33
switzerland 33
jay 33
sizes 33
residents 33
bills 33
tags 33
award 33
readers 33
passage 33
arthur 33
hormones 33
adjust 33
stolen 33
zer@@ 33
gandhi 33
platforms 33
hopes 33
founder 33
lative 33
item 33
organi@@ 33
mount 33
repeated 33
pper 33
form@@ 33
cups 33
ibm 33
crossed 33
purple 33
cluster 33
fired 33
posed 33
single-@@ 33
embarrassing 33
bio-@@ 33
cham@@ 33
lifted 33
woods 33
pill@@ 33
1998 33
bak@@ 32
etic 32
professors 32
regar@@ 32
cares 32
sible 32
dun@@ 32
seattle 32
programmers 32
omy 32
heal@@ 32
harry 32
deadly 32
unfair 32
burst 32
arians 32
thou@@ 32
constitu@@ 32
sake 32
labeled 32
grams 32
flavor 32
whoa 32
july 32
visualize 32
surrounding 32
defini@@ 32
matched 32
sectors 32
activ@@ 32
expressed 32
ent-@@ 32
sometime 32
neanderthals 32
shred@@ 32
loose 32
mcdonald 32
pli@@ 32
priorities 32
hawaii 32
profession 32
producers 32
reconci@@ 32
wage 32
bacterium 32
ema@@ 32
eding 32
ups 32
ust 32
twenty-@@ 32
reveals 32
magnificent 32
funds 32
revealed 32
hand-@@ 32
sey 32
cleaning 32
kni@@ 32
ye 32
prey 32
apples 32
secular 32
scri@@ 32
berlin 32
integration 32
files 32
prints 32
winner 32
til@@ 32
shy 32
dev@@ 32
univers@@ 32
mechan@@ 32
synchroni@@ 32
clinton 32
cheating 32
afghan 32
sma@@ 32
oma 32
tants 32
joint 32
fi 32
blindness 32
accomplished 32
comm@@ 32
ick 32
reproduce 32
kr@@ 32
youngest 32
expen@@ 32
nonprofit 32
observed 32
ted@@ 32
printed 32
attacked 32
proje@@ 32
poles 32
introduction 32
ckers 32
rul@@ 32
spacecraft 32
contemp@@ 32
gists 32
rethink 32
quarters 32
texts 32
ish@@ 32
deva@@ 32
en-@@ 32
mics 32
refer@@ 32
thrilled 32
reck@@ 32
oper@@ 32
drawings 32
modi@@ 32
old-@@ 32
beam 32
a.@@ 32
celebr@@ 32
yeast 32
stewart 32
conser@@ 32
bugs 32
grave 32
encouraged 32
distinction 32
yemen 32
chemi@@ 32
digging 32
codes 32
chromosome 32
networking 32
seemingly 32
pharmaceutical 32
hierarchy 32
ce-@@ 32
ica 32
diver@@ 32
vir@@ 32
minority 32
shoulders 32
wrapped 32
gold@@ 32
fir@@ 32
bic 32
investments 32
unseen 32
recor@@ 32
phot@@ 32
spiders 32
connectome 32
horror 32
habit 32
dancers 32
warmer 32
pays 32
flas@@ 32
parachute 32
adoption 32
jupiter 32
rob 32
celebrated 32
chile 32
visiting 32
spare 32
&apos;clock 32
-and-@@ 32
alig@@ 32
belongs 32
singapore 32
encyclopedia 32
shing 32
shr@@ 32
defend 31
rat@@ 31
bands 31
sculptures 31
mentor 31
shifted 31
famine 31
nonsense 31
firms 31
diagnosis 31
empower 31
storms 31
damaged 31
thesis 31
universes 31
scot@@ 31
lanes 31
dama@@ 31
after@@ 31
ko 31
corporations 31
hostile 31
meditation 31
senti@@ 31
peri@@ 31
tum@@ 31
frightened 31
consi@@ 31
tling 31
dental 31
irony 31
slower 31
pipes 31
beetle 31
ome 31
staring 31
weighs 31
philosophers 31
calculation 31
wound 31
optical 31
jh 31
workplace 31
laden 31
seventh 31
sing@@ 31
grace 31
judgments 31
cables 31
wir@@ 31
copper 31
ali 31
school@@ 31
improvements 31
bother 31
unconscious 31
infe@@ 31
visi@@ 31
sty@@ 31
admi@@ 31
punishment 31
anesthesia 31
jerusalem 31
renewables 31
mar 31
maneu@@ 31
sele@@ 31
ind 31
tiger 31
nasty 31
utterly 31
contributing 31
ressed 31
activists 31
iconic 31
pin 31
collectively 31
survived 31
nitrogen 31
girlfriend 31
revenues 31
rape 31
counts 31
shorter 31
obe@@ 31
caps 31
craig 31
tooth@@ 31
intui@@ 31
observations 31
risky 31
clinics 31
priority 31
experim@@ 31
shoe 31
physicians 31
lied 31
celebrity 31
carri@@ 31
emails 31
wrist 31
conductor 31
vascular 31
chromosomes 31
functioning 31
octopus 31
highlight 31
estate 31
peaceful 31
wishes 31
stered 31
2011 31
vent@@ 31
orders 31
ins@@ 31
composition 31
gues 31
lity 31
dete@@ 31
gel 31
interconnected 31
tagged 31
medicines 31
1950 31
gling 31
stan 31
conduct 31
cattle 31
self-interest 31
squir@@ 31
behalf 31
intriguing 31
arti@@ 31
lear@@ 31
pain@@ 31
onstage 31
incident 31
lips 31
recommend 31
prop@@ 31
dom@@ 31
laughter 31
captain 31
ross 31
anthropolo@@ 31
kat@@ 31
toilets 31
spec@@ 31
advo@@ 31
projection 31
characteri@@ 31
worm 31
dru@@ 31
viewing 31
holders 31
computational 31
eyed 31
occupy 31
inhi@@ 31
occasion 31
coordination 31
spell 31
tioning 31
disappears 31
eigh@@ 31
revol@@ 31
concentrate 31
metric 31
perspectives 31
collabor@@ 31
variable 31
accelerating 31
ctable 31
korean 31
dder 31
id@@ 31
enormously 31
avoi@@ 31
desktop 31
ich 30
sco@@ 30
p.@@ 30
economically 30
receptor 30
tis 30
rises 30
wiped 30
alan 30
embracing 30
corporation 30
30s 30
ghtful 30
recycled 30
98 30
cky 30
recommen@@ 30
dispar@@ 30
kiss 30
scen@@ 30
nel@@ 30
prayer 30
perceived 30
appreciation 30
beef 30
350 30
magnet 30
gies 30
circum@@ 30
stum@@ 30
ambitious 30
cloth 30
za 30
materi@@ 30
melt 30
albert 30
asthma 30
twin 30
sadly 30
synthesis 30
key@@ 30
12,000 30
demo 30
corresponds 30
17th 30
hard-@@ 30
usa 30
vegetable 30
mp 30
addiction 30
attracted 30
vent 30
mi 30
passions 30
witnessed 30
perpet@@ 30
momentum 30
tokyo 30
spr@@ 30
tool@@ 30
side@@ 30
concerns 30
mani@@ 30
counter 30
belly 30
critic 30
destination 30
2020 30
seals 30
adoles@@ 30
fores@@ 30
ja 30
royal 30
kn@@ 30
intention 30
touching 30
ora 30
iceland 30
sculp@@ 30
abandoned 30
slice 30
oriented 30
emplo@@ 30
odor 30
thylac@@ 30
assumed 30
acu@@ 30
wk 30
johnny 30
predator 30
soap 30
cruel 30
hness 30
sahara 30
gains 30
upside 30
reflected 30
oli@@ 30
oran@@ 30
apps 30
treasure 30
propaganda 30
ion 30
accum@@ 30
blew 30
vitamin 30
sexually 30
consider@@ 30
was@@ 30
broccoli 30
ums 30
transi@@ 30
seri@@ 30
ousness 30
mutations 30
cence 30
accelerate 30
low-cost 30
ve-@@ 30
cream 30
honored 30
mented 30
disasters 30
pel@@ 30
gradu@@ 30
bb@@ 30
pipeline 30
fol@@ 30
tz 30
infinity 30
talented 30
sylvia 30
hop@@ 30
devi@@ 30
wells 30
managers 30
seawater 30
master@@ 30
som@@ 30
door@@ 30
ares 30
transmit 30
friction 30
grains 30
mosquitos 30
diamonds 30
livestock 30
chemotherapy 30
shoots 30
cro 30
budgets 30
squid 30
shipping 30
gross 30
pencil 30
findings 30
crimes 30
sierra 30
trading 30
las@@ 30
terrified 30
esi@@ 30
tuesday 30
aluminum 30
adver@@ 30
lego 30
ware 30
lasting 30
cating 30
refle@@ 30
pulse 30
refugee 30
roofs 30
fic 30
bull@@ 30
prototypes 30
practicing 30
ge-@@ 30
mixing 30
pricing 30
pus@@ 30
adaptation 30
ena 30
bath 30
criteria 30
associate 30
riding 30
tanks 30
atives 30
spray 30
ima@@ 30
behold 29
authenticity 29
viewer 29
stereotyp@@ 29
shops 29
athle@@ 29
catholic 29
eats 29
boundary 29
thi@@ 29
cart 29
hyper-@@ 29
label 29
copying 29
b. 29
mask 29
vations 29
rus@@ 29
heavily 29
sage 29
seas@@ 29
preparation 29
operated 29
corners 29
inse@@ 29
pollu@@ 29
presenting 29
protocell 29
greatly 29
cousin 29
festival 29
deck 29
vary 29
nutrition 29
awkward 29
cope 29
decision-making 29
beha@@ 29
1980 29
electromagnetic 29
l-@@ 29
install 29
formal 29
pit 29
dden 29
stein 29
millennium 29
politically 29
coding 29
bent 29
thailand 29
color@@ 29
abundance 29
buttons 29
frustration 29
open@@ 29
trips 29
fungi 29
incre@@ 29
natasha 29
mod@@ 29
basking 29
maintenance 29
vul@@ 29
loses 29
occu@@ 29
jane 29
shining 29
eval 29
pack@@ 29
dvd 29
calculated 29
alexander 29
firing 29
maxi@@ 29
dragonflies 29
revolutions 29
generates 29
rome 29
penet@@ 29
columns 29
chin 29
barrel 29
playful 29
satisfaction 29
convicted 29
select 29
logi@@ 29
pour 29
accoun@@ 29
climbed 29
monster 29
depic@@ 29
omed 29
ops 29
3,@@ 29
acids 29
junk 29
embarrassed 29
lum@@ 29
weigh@@ 29
film@@ 29
acknowledge 29
pathetic 29
injuries 29
cular 29
disgust 29
jews 29
nonetheless 29
translator 29
trapped 29
shat@@ 29
offen@@ 29
dat@@ 29
mach@@ 29
electri@@ 29
curi@@ 29
ceremony 29
presum@@ 29
whit@@ 29
premise 29
rockets 29
farther 29
alike 29
desperate 29
unity 29
documentary 29
decent 29
staircase 29
congestion 29
flat@@ 29
entry 29
profitable 29
fulness 29
mother@@ 29
coordin@@ 29
dele@@ 29
dice 29
artifacts 29
bribe 29
timing 29
guards 29
implement 29
pathways 29
1,500 29
tize 29
path@@ 29
oppres@@ 29
1994 29
debris 29
stimulation 29
abundant 29
fit@@ 29
ght-@@ 29
heal 29
dian 29
borrow 29
critically 29
rela@@ 29
clusters 29
mind-@@ 29
tains 29
guard 29
accuracy 29
differenti@@ 29
fisher@@ 29
tted 29
reasoning 29
deri@@ 29
beg@@ 29
sequ@@ 29
hydr@@ 29
fai@@ 29
disap@@ 29
max 29
chemist 29
earth@@ 29
egyptian 29
fur 29
port@@ 29
scal@@ 29
left-hand 29
contained 29
tedly 29
islam@@ 29
ama 29
well-known 29
ethics 29
mies 29
tricky 29
tuned 29
1900 29
prin@@ 29
schizophrenia 29
marked 29
committee 29
beaten 29
fast-@@ 29
adul@@ 29
gest@@ 29
negle@@ 29
abstra@@ 29
manner 29
vei@@ 29
loy@@ 29
buddhist 29
brands 29
poems 29
pros@@ 29
agents 28
ames 28
accompanied 28
18th 28
humility 28
messy 28
acres 28
uh 28
establish 28
wiring 28
boun@@ 28
wri@@ 28
headline 28
hop 28
spontaneous 28
introver@@ 28
sensing 28
fabri@@ 28
traces 28
of-@@ 28
nau@@ 28
ordered 28
50-@@ 28
counted 28
gestures 28
crashes 28
flesh 28
irrational 28
crea@@ 28
leopard 28
collap@@ 28
promising 28
tick@@ 28
disciplines 28
vac@@ 28
age-@@ 28
kosovo 28
paths 28
easiest 28
diagno@@ 28
participating 28
acc@@ 28
terrorist 28
tales 28
gle 28
ama@@ 28
att@@ 28
pipe 28
monsoon 28
shaking 28
compound 28
planned 28
touches 28
tasmanian 28
bandwidth 28
atlanta 28
convincing 28
gasoline 28
common@@ 28
rement 28
97 28
foster 28
bathroom 28
patch 28
cardboard 28
exotic 28
ards 28
dishes 28
simulate 28
affe@@ 28
year@@ 28
chimpanzee 28
jug@@ 28
jud@@ 28
licen@@ 28
zero-@@ 28
sequencing 28
addressing 28
scientifically 28
generosity 28
dial 28
gles 28
donors 28
democra@@ 28
incu@@ 28
exponentially 28
pro-@@ 28
tious 28
assembly 28
pan 28
losses 28
whistle 28
sends 28
sarah 28
insur@@ 28
embar@@ 28
bble 28
pick@@ 28
xic@@ 28
gle@@ 28
venti@@ 28
rains 28
marathon 28
concent@@ 28
tely 28
mammal 28
format 28
fix@@ 28
jan 28
arise 28
ong 28
shepherd 28
ires 28
noisy 28
roo@@ 28
inventions 28
caves 28
immense 28
jum@@ 28
nam@@ 28
mom@@ 28
intimate 28
calculating 28
programmed 28
pc 28
lebanon 28
reporter 28
hai@@ 28
ular 28
crap 28
43 28
netherlands 28
pleased 28
republicans 28
consuming 28
dire@@ 28
frequencies 28
canadian 28
determin@@ 28
powerpoint 28
e. 28
ref@@ 28
tel 28
kling 28
investigation 28
diplomat 28
acceler@@ 28
brave 28
attach 28
fract@@ 28
prescription 28
answering 28
25@@ 28
milky 28
humanitarian 28
ecolo@@ 28
motivate 28
tooth 28
galapagos 28
secondary 28
lately 28
crop 28
kit 28
equals 28
collision 28
apartments 28
technologi@@ 28
saudi 28
emotionally 28
richest 28
considering 28
phoenix 28
strations 28
planted 28
spatial 28
commit@@ 28
berkeley 28
ao 28
stunning 28
thood 28
potatoes 28
elizabeth 28
horizontal 28
gecko 28
nucleus 28
mesh 28
mir@@ 28
matches 28
asset 28
han 28
multipli@@ 28
chapters 28
wet 28
hood 28
blah 28
bombsight 28
piles 28
palestinian 28
aster 28
ire 28
negotiate 28
symmetrical 28
orized 28
composed 28
anderson 28
alarm 28
ultraviolet 28
mers 28
tight 27
involve 27
delight 27
refugees 27
actu@@ 27
fantasy 27
regrets 27
quad@@ 27
counter-@@ 27
rehear@@ 27
diamond 27
yard 27
ly-@@ 27
instruction 27
tomato 27
diff@@ 27
prophe@@ 27
kelly 27
titles 27
resul@@ 27
preventing 27
sketch 27
reader 27
randomly 27
representing 27
dome 27
prince 27
distur@@ 27
effici@@ 27
essive 27
interviewer 27
households 27
prevalence 27
equity 27
hul@@ 27
recognizing 27
eternal 27
lighter 27
kicked 27
compounds 27
analyzed 27
relativity 27
transit 27
indicate 27
aus@@ 27
consensus 27
kindergarten 27
lamp 27
grounds 27
constraints 27
adds 27
supports 27
deny 27
banjo 27
kidding 27
secu@@ 27
perceptions 27
beds 27
friendship 27
parenting 27
reporting 27
columbia 27
stomach 27
fishermen 27
veness 27
assuming 27
finishing 27
kilometer 27
carl 27
sticking 27
expanded 27
stare 27
hacking 27
wins 27
disper@@ 27
wolfram 27
sne@@ 27
authoritarian 27
escal@@ 27
peculiar 27
breakdown 27
eks 27
ebay 27
facili@@ 27
conclu@@ 27
ghty 27
dr 27
favor@@ 27
degra@@ 27
1930s 27
aston@@ 27
laughed 27
or-@@ 27
von 27
managing 27
per-@@ 27
melting 27
chronic 27
stopping 27
prob@@ 27
loo@@ 27
pond 27
biop@@ 27
130 27
enterprise 27
nesses 27
tially 27
non-zero-sum 27
requi@@ 27
hackers 27
tating 27
delivering 27
fifty 27
wra@@ 27
hypothes@@ 27
sig@@ 27
metals 27
coastal 27
ples 27
presidential 27
represent@@ 27
stic@@ 27
cambodia 27
rop@@ 27
occasi@@ 27
injured 27
candidates 27
4.@@ 27
pets 27
attacking 27
lobby 27
rolls 27
primate 27
frontier 27
editor 27
wol@@ 27
clean@@ 27
ulated 27
candy 27
francis 27
chains 27
machinery 27
gled 27
primates 27
31 27
psychiatric 27
specialized 27
exceptions 27
34 27
norm 27
archive 27
seven-@@ 27
96 27
symbolic 27
jonathan 27
who@@ 27
confront 27
glacier 27
responded 27
far-@@ 27
tism 27
shel@@ 27
adequate 27
erup@@ 27
deep-@@ 27
cooling 27
comments 27
overnight 27
exploded 27
patri@@ 27
float 27
blogging 27
spiral 27
sensitivity 27
disturbing 27
bust 27
accumulate 27
150,000 27
optimi@@ 27
commons 27
mm 27
alice 27
crude 27
dic@@ 27
se-@@ 27
assu@@ 27
toss 27
filmed 27
checking 27
shield 27
night@@ 27
metabolism 27
famously 27
ptions 27
fault 27
ash@@ 27
mmed 27
cousins 27
calcium 27
centi@@ 27
commission 27
formers 27
stock@@ 27
belon@@ 27
fda 27
mirrors 27
under-@@ 27
00@@ 27
steam 27
c-@@ 27
vocabulary 27
squared 27
clips 27
observing 27
doses 27
angles 27
indicates 27
oo@@ 27
uniform 27
b-@@ 27
balanced 27
vering 27
ven 27
astronomers 27
spheres 27
peer 27
whe@@ 27
helmet 27
coca-cola 27
well@@ 27
clues 26
joining 26
defeat 26
sudan 26
implemented 26
replacing 26
scu@@ 26
cool@@ 26
unded 26
awe 26
transplan@@ 26
operates 26
daddy 26
mama 26
millennia 26
resilient 26
alphabet 26
tattoo 26
ler@@ 26
leap@@ 26
waste@@ 26
juggling 26
rows 26
fruits 26
snake 26
rituals 26
nt 26
brazilian 26
inters 26
culturally 26
mimi@@ 26
empowering 26
liberty 26
ctivity 26
thered 26
equilibrium 26
grabbed 26
min 26
trusted 26
rail@@ 26
million-@@ 26
commodities 26
freezing 26
bruce 26
infectious 26
disney 26
verb 26
wheel@@ 26
solo 26
practically 26
journalism 26
bag@@ 26
forgive 26
short@@ 26
powder 26
tribal 26
bangalore 26
mixture 26
regulations 26
washed 26
countless 26
elevator 26
dreamed 26
pigeon 26
tide 26
encountered 26
couch 26
filters 26
dot@@ 26
hmm 26
surviving 26
resses 26
texture 26
condi@@ 26
fear@@ 26
ampu@@ 26
loc@@ 26
frogs 26
cared 26
15,000 26
hut 26
relatives 26
diagnostic 26
alright 26
correlation 26
occupied 26
jumps 26
heroic 26
climbers 26
ane@@ 26
cracks 26
sang 26
emphasize 26
shelves 26
1997 26
tter@@ 26
tary 26
monit@@ 26
juvenile 26
exhibit 26
anatomy 26
rations 26
projected 26
hh 26
headquarters 26
dam 26
acknowled@@ 26
protest 26
ishes 26
nights 26
stamp 26
proto@@ 26
aters 26
lectures 26
offspring 26
cost-@@ 26
grow@@ 26
chron@@ 26
nike 26
minerals 26
nodes 26
specialists 26
assure 26
cage 26
urbani@@ 26
tali@@ 26
hacker 26
dynam@@ 26
jur@@ 26
enters 26
ressing 26
paralysis 26
descen@@ 26
deficit 26
tunisi@@ 26
barry 26
deserves 26
checked 26
ball@@ 26
sputnik 26
wom@@ 26
specu@@ 26
jewelry 26
clou@@ 26
termin@@ 26
manufacture 26
segment 26
camels 26
neocortex 26
upright 26
log 26
ever-@@ 26
slope 26
frames 26
acou@@ 26
rick 26
happily 26
astronomy 26
kel@@ 26
tedsters 26
orph@@ 26
eff@@ 26
divi@@ 26
goat 26
knock 26
web@@ 26
logging 26
chun@@ 26
broadcast 26
divergence 26
doc@@ 26
mammography 26
rage 26
rup@@ 26
adh@@ 26
colorful 26
ego 26
innovate 26
road@@ 26
declared 26
artwork 26
redu@@ 26
praying 26
haw@@ 26
dancer 26
tz@@ 26
sms 26
clapping 26
chickens 26
modest 26
consent 26
filmmaker 26
av 26
ong@@ 26
parasite 26
hospit@@ 26
disk 26
auth@@ 26
analyzing 26
catastrophic 26
pump@@ 26
ter-@@ 26
upward 26
understand@@ 26
2.0 26
screening 26
has@@ 26
dp 26
assembled 26
convention 26
mort@@ 26
ero@@ 26
ane 26
mapped 26
rejected 26
dering 26
7,000 26
wasted 26
disappointed 26
receiving 26
fru@@ 26
rover 26
depres@@ 26
2030 26
cybercriminals 26
replacement 26
tesla 26
needles 26
gently 26
ate@@ 26
dum@@ 26
philip 26
weekend 26
ere@@ 26
nut 26
cryst@@ 26
lo 25
reads 25
respon@@ 25
r. 25
holi@@ 25
supportive 25
serves 25
24@@ 25
ghter 25
arable 25
bran@@ 25
hundre@@ 25
entrepreneurship 25
tates 25
hal 25
mouths 25
representative 25
gla@@ 25
liberals 25
conservatives 25
ami 25
baseline 25
ren 25
refuse 25
lever@@ 25
hugely 25
therapies 25
variables 25
ultra-@@ 25
analo@@ 25
dispu@@ 25
snakes 25
episode 25
lower@@ 25
intend 25
jer@@ 25
seasons 25
parkinson 25
free-@@ 25
denmark 25
cocktail 25
regi@@ 25
ac 25
brad 25
neutr@@ 25
gru@@ 25
meta@@ 25
38 25
tibet 25
sands 25
gallon 25
aci@@ 25
brilli@@ 25
monday 25
graduates 25
alties 25
hoo@@ 25
symbio@@ 25
nicely 25
kid@@ 25
nity 25
imagining 25
sebastian 25
polari@@ 25
alty 25
ow@@ 25
microphone 25
anxious 25
rab@@ 25
typ@@ 25
ethic 25
mos@@ 25
bc 25
julian 25
transforma@@ 25
thful 25
blessed 25
resist 25
barrels 25
draws 25
64 25
yiel@@ 25
beetles 25
stent 25
alert 25
ols 25
strikes 25
pumps 25
persuade 25
th-century 25
1995 25
impressed 25
sheer 25
christians 25
spike 25
kennedy 25
tem@@ 25
statistical 25
systematic 25
watson 25
expectation 25
middle-@@ 25
microscopic 25
hurricane 25
ea@@ 25
democrats 25
queu@@ 25
invi@@ 25
prece@@ 25
wonderfully 25
michigan 25
bery 25
var@@ 25
simul@@ 25
snow@@ 25
diplo@@ 25
absorb 25
glorious 25
achieving 25
happiest 25
bloody 25
entation 25
charter 25
agile 25
accounting 25
ambition 25
novelty 25
itation 25
teszler 25
capsu@@ 25
subsi@@ 25
owners 25
belt 25
torial 25
2012 25
statistically 25
individu@@ 25
evaluate 25
thousand@@ 25
stake 25
anniversary 25
moment@@ 25
nano@@ 25
iter@@ 25
surround 25
part@@ 25
cigarette 25
spa@@ 25
traffi@@ 25
immuni@@ 25
ethanol 25
apes 25
52 25
promises 25
pittsburgh 25
tery 25
sells 25
qualified 25
ancestor 25
collaborator 25
scripts 25
pier@@ 25
keith 25
motor@@ 25
textbook 25
illumin@@ 25
carto@@ 25
ette 25
discussions 25
ele@@ 25
babbage 25
rainforests 25
nine-@@ 25
arch@@ 25
hawking 25
lim@@ 25
describing 25
scheme 25
ctively 25
second-@@ 25
spaghetti 25
deforestation 25
dys@@ 25
woo@@ 25
locks 25
awa@@ 25
checklist 25
ore@@ 25
pa 25
bet@@ 25
waited 25
partnerships 25
impaired 25
400,000 25
barriers 25
targeted 25
walker 25
bluefin 25
limit@@ 25
precision 25
regenerate 25
dia 25
talents 25
ame 25
circular 25
substit@@ 25
pron@@ 25
delay 25
purch@@ 25
cellphone 25
marke@@ 25
cial 25
,@@ 25
transfer@@ 25
guitar 25
louis 25
explanations 25
photographers 25
dare 25
exam 25
temporal 25
bikes 25
alo@@ 25
surfing 25
prescri@@ 25
altered 25
relie@@ 25
forcing 25
norms 25
cop 25
recall 25
crab 25
survi@@ 25
tters 25
xy 25
beneficial 25
confined 25
levi@@ 25
league 25
jefferson 25
acre 25
sn@@ 25
ration@@ 25
honey@@ 25
e.@@ 25
assistance 25
obsolete 25
moreover 25
ttle 25
opa@@ 25
lonely 25
eth@@ 25
desperately 25
processed 25
tou@@ 25
asteroids 25
42 25
wilson 25
ech@@ 25
it-@@ 25
pix@@ 25
hybrid 25
ference 25
achie@@ 25
characteristic 25
sedu@@ 25
disabilities 25
museums 24
nom@@ 24
guilt 24
gad@@ 24
hooked 24
refused 24
elegan@@ 24
radar 24
cracked 24
settle 24
condom 24
300,000 24
apollo 24
bow@@ 24
labels 24
carbon-@@ 24
arrest 24
feminist 24
infant 24
galleries 24
gat@@ 24
stine 24
oming 24
tt 24
chess 24
fairness 24
geography 24
cataly@@ 24
nap@@ 24
sequenced 24
strangely 24
slip 24
greeks 24
emerges 24
argued 24
virtue 24
ern@@ 24
earned 24
76 24
portugal 24
developmental 24
spectro@@ 24
gens 24
stan@@ 24
are@@ 24
surveys 24
combat 24
exagger@@ 24
alaska 24
access@@ 24
inje@@ 24
spaces@@ 24
ann 24
petro@@ 24
menu 24
utility 24
isolation 24
markers 24
jar 24
antibodies 24
gigantic 24
interrupted 24
house@@ 24
wives 24
pathway 24
arose 24
1.5 24
sadness 24
40@@ 24
render 24
cooperate 24
suspended 24
nurturing 24
modul@@ 24
expose 24
declining 24
pollutants 24
aver@@ 24
beside 24
inherently 24
researching 24
trap 24
dom 24
affairs 24
child@@ 24
accountable 24
infinitely 24
democracies 24
carnegie 24
respected 24
agrees 24
0 24
mexican 24
coll@@ 24
contradiction 24
painter 24
shower 24
guidance 24
sticky 24
pair@@ 24
bi 24
unstable 24
progression 24
regularly 24
politician 24
ank@@ 24
distribute 24
bono 24
survivors 24
cafe 24
semi-@@ 24
reduces 24
grove 24
kibera 24
competi@@ 24
obsession 24
hit@@ 24
applies 24
sj 24
post-conflict 24
accurately 24
planting 24
confronted 24
ston 24
tained 24
oven 24
intentions 24
belie@@ 24
vacation 24
votes 24
mac@@ 24
crystal 24
environmentally 24
marvelous 24
struc@@ 24
dark@@ 24
ghtly 24
clari@@ 24
uniquely 24
fixing 24
towel 24
forum 24
reproduction 24
summarize 24
buses 24
basement 24
radio@@ 24
towers 24
andy 24
funeral 24
browser 24
guinea 24
alling 24
cosmos 24
will@@ 24
grocery 24
linking 24
indigenous 24
125 24
alternatives 24
logy 24
hammer 24
refined 24
foam 24
heavens 24
ala 24
instinct 24
twist 24
jumping 24
yor@@ 24
kidna@@ 24
rowed 24
probable 24
repeatedly 24
princeton 24
conducting 24
bou@@ 24
self-assembly 24
afterward 24
influences 24
yn@@ 24
portable 24
compar@@ 24
tech@@ 24
elbow 24
morph@@ 24
gardens 24
interventions 24
demanding 24
republican 24
namibia 24
breed 24
salary 24
icons 24
navi@@ 24
brooklyn 24
ession 24
sucks 24
clarity 24
paper@@ 24
founding 24
frau@@ 24
cathedral 24
deca@@ 24
champi@@ 24
ligh@@ 24
origin@@ 24
chimps 24
restrial 24
gage 24
margin@@ 24
frustrating 24
enabling 24
justify 24
coun@@ 24
dump@@ 24
elly 24
acute 24
lama 24
ushahidi 24
sb 24
cutt@@ 24
purchase 24
learns 24
statements 24
roles 24
contin@@ 24
promoting 24
reviewed 24
angel@@ 24
full-time 24
oops 24
valu@@ 24
man-@@ 24
entrance 24
cture 24
gree@@ 24
suc@@ 24
suitcase 24
embodied 24
consists 24
magazines 24
nathan 24
inger 24
strand 24
ousy 24
acceptance 24
rosling 24
magne@@ 24
statue 24
stealing 24
preten@@ 24
250,000 24
j. 24
unic@@ 24
meets 24
stran@@ 24
suspe@@ 24
aggregate 24
bonds 24
calcul@@ 24
dave 24
cholera 24
hman 24
pation 24
basketball 24
volcano 24
eighth 24
el-@@ 24
marker 24
invasive 24
rewar@@ 24
rod 24
metaphor@@ 24
ption 24
mou@@ 24
genuine 24
manipulation 24
yl@@ 24
poll 24
appliances 23
obstacle 23
attempts 23
tect@@ 23
tty 23
saturday 23
mix@@ 23
christ 23
altru@@ 23
fascin@@ 23
controversy 23
naive 23
terri@@ 23
biases 23
fisheries 23
heck 23
sooner 23
noble 23
band@@ 23
intrinsic 23
pers@@ 23
encoura@@ 23
matt 23
sue 23
disruptive 23
grou@@ 23
investigate 23
posters 23
auditorium 23
node 23
hatred 23
cit@@ 23
owe 23
unt 23
stadium 23
likewise 23
goodness 23
anytime 23
caltech 23
progr@@ 23
calendar 23
adolescence 23
mustard 23
identifi@@ 23
punch 23
successes 23
allies 23
laundry 23
stance 23
atheist 23
threatening 23
tenth 23
atheists 23
rd 23
improvis@@ 23
awake 23
irs 23
fossils 23
lers 23
edinburgh 23
ex-@@ 23
jungle 23
concep@@ 23
confli@@ 23
arrow 23
rier 23
chop 23
epy 23
typing 23
ope 23
1991 23
bonus 23
atro@@ 23
wished 23
bamboo 23
darwinian 23
thinkers 23
stret@@ 23
wet@@ 23
energi@@ 23
converted 23
handful 23
escap@@ 23
incidentally 23
bea@@ 23
reti@@ 23
purely 23
responding 23
fool 23
imperative 23
pearl 23
drama 23
screaming 23
regulation 23
cheet@@ 23
market@@ 23
ization 23
problematic 23
supreme 23
mysteries 23
imm@@ 23
apparatus 23
banned 23
tedness 23
misery 23
slept 23
displays 23
acious 23
mac 23
mythology 23
modeling 23
semin@@ 23
detected 23
zoo 23
steady 23
australian 23
minor 23
fuzzy 23
yves 23
ruins 23
agu@@ 23
caribbean 23
compu@@ 23
knees 23
sweat 23
tren@@ 23
command@@ 23
herd 23
applause 23
sug@@ 23
flights 23
skilled 23
mediate 23
mage 23
sighted 23
rachel 23
sno@@ 23
conven@@ 23
puzz@@ 23
ninth 23
hair@@ 23
eit 23
quantities 23
warren 23
constru@@ 23
maintaining 23
biotechnology 23
dio@@ 23
offs 23
myths 23
ised 23
tual 23
willingness 23
conceptual 23
plot@@ 23
plankton 23
skeptical 23
rele@@ 23
theirs 23
blocked 23
red@@ 23
heights 23
tish 23
ideological 23
stell@@ 23
fog 23
vivid 23
fg 23
dylan 23
coma 23
yle 23
cism 23
genomics 23
unified 23
pregnancy 23
humili@@ 23
penalty 23
distribu@@ 23
ella 23
impulse 23
humble 23
eradication 23
ashamed 23
vs 23
influ@@ 23
basket 23
recognizes 23
argu@@ 23
traditionally 23
adaptive 23
commissioned 23
integrity 23
peti@@ 23
2015 23
flour@@ 23
yment 23
collider 23
distingu@@ 23
surplus 23
valid 23
staggering 23
doub@@ 23
projections 23
celebration 23
modified 23
bioluminescence 23
mild 23
ota 23
louder 23
aria 23
edit 23
collaborators 23
trade-@@ 23
squee@@ 23
submit 23
head-tail-@@ 23
roman@@ 23
fails 23
sity 23
ideology 23
viewed 23
parked 23
palestine 23
gon@@ 23
outbreak 23
realities 23
loans 23
optimal 23
accomplish 23
eline 23
candle 23
abroad 23
tization 23
contamin@@ 23
sufficient 23
wonders 23
jo 23
soccer 23
1984 23
lean 23
dreaming 23
legen@@ 23
delicate 23
900 23
zipcar 23
deta@@ 23
returns 23
radius 23
intervene 23
kir@@ 23
circulation 23
quietly 23
stun@@ 23
patience 23
victory 23
redefine 23
accepting 23
cardio@@ 23
nation-@@ 23
envelope 23
bj 23
sustained 23
greenland 23
pointment 23
savan@@ 23
iming 23
bosnia 23
personalities 23
chunk 23
mat 23
cardiac 23
bus@@ 23
cockro@@ 23
grass@@ 23
pleas@@ 23
responsibilities 23
inform 23
thumb 23
bench 23
minded 23
cheap@@ 23
susan 23
fers 23
rides 23
writes 23
bump 23
warm@@ 23
liberia 23
cess 23
aquatic 23
solar-@@ 23
hoped 23
net@@ 23
grapher 23
syria 23
dered 23
squeeze 23
dalai 23
orgasm 23
shipped 23
derived 23
enlightenment 23
checks 23
non-lethal 23
infrared 23
sie@@ 23
analog 23
marin@@ 23
confer@@ 23
corrupt 23
gist 23
appeal 23
bless 23
enco@@ 23
fool@@ 23
airline 23
relates 23
prisons 23
lements 23
destructive 23
breath@@ 23
ket 23
satisfied 23
lows 23
potato 23
default 23
divine 23
guardian 23
plug@@ 23
astronomical 22
gaining 22
jerry 22
jour@@ 22
screens 22
pristine 22
pat 22
longest 22
1.2 22
stressed 22
conve@@ 22
topo@@ 22
consideration 22
din 22
bie 22
crum@@ 22
larvae 22
goats 22
inherent 22
buck@@ 22
axes 22
veterans 22
ticul@@ 22
tural 22
examine 22
unintended 22
mega@@ 22
ya@@ 22
spends 22
arrange 22
spades 22
compatible 22
numerous 22
fluores@@ 22
employed 22
jaw 22
gravitational 22
lane 22
delta 22
iden@@ 22
bananas 22
angels 22
pire 22
egyptians 22
augmented 22
specialist 22
prototyping 22
rem@@ 22
imple@@ 22
mber@@ 22
sterile 22
involving 22
vibrating 22
tastes 22
chin@@ 22
devo@@ 22
nis@@ 22
continually 22
starvation 22
jokes 22
constitution 22
jordan 22
elaborate 22
turn@@ 22
stron@@ 22
poorer 22
tain@@ 22
settled 22
sponsor@@ 22
documenting 22
valve 22
comman@@ 22
waveleng@@ 22
low-income 22
cabinet 22
rescued 22
arly 22
intricate 22
wre@@ 22
eller 22
diagnose 22
norman 22
renaissance 22
dictionaries 22
search@@ 22
ivan 22
lingu@@ 22
exercis@@ 22
individually 22
divorce 22
encing 22
crowds 22
sovereig@@ 22
nick@@ 22
toler@@ 22
lasts 22
voyage 22
hypo@@ 22
queens 22
geese 22
breakthroughs 22
tory 22
spite 22
relax 22
ands 22
func@@ 22
hated 22
slight 22
humankind 22
alter 22
thereby 22
eing 22
erectus 22
cling 22
revolutionary 22
satis@@ 22
fox 22
implanted 22
enhance 22
generic 22
server 22
extending 22
voluntary 22
censorship 22
nectar 22
god@@ 22
selective 22
preserved 22
rated 22
libraries 22
digits 22
tch@@ 22
usion 22
kies 22
surroundings 22
anticipate 22
independently 22
arena 22
colum@@ 22
fatal 22
poets 22
mad@@ 22
rna 22
listed 22
thirdly 22
summary 22
toronto 22
spect 22
jar@@ 22
jackson 22
blade 22
courageous 22
benign 22
repeti@@ 22
asleep 22
equator 22
percep@@ 22
container 22
discussing 22
assem@@ 22
synesthesia 22
rendered 22
aqu@@ 22
aches 22
deciding 22
1-@@ 22
morally 22
peripher@@ 22
tracked 22
pennsylvania 22
fragments 22
emer@@ 22
calculator 22
snap@@ 22
lage 22
illusions 22
interfaces 22
fing 22
speeds 22
sensible 22
northwest 22
ger-@@ 22
high-speed 22
contest 22
infan@@ 22
syste@@ 22
starbucks 22
singer 22
slum 22
entities 22
revi@@ 22
desertification 22
bare 22
appropriately 22
biased 22
glu@@ 22
fea@@ 22
bes@@ 22
collaborate 22
ually 22
scream 22
ur 22
biologically 22
lethal 22
bullet 22
hence 22
apologize 22
computer-@@ 22
close@@ 22
confir@@ 22
mck@@ 22
archy 22
glory 22
leone 22
istic 22
crowd@@ 22
govern 22
idiot 22
hump@@ 22
globalized 22
hotels 22
dick 22
expense 22
dunes 22
lagos 22
armstrong 22
screw 22
coincidence 22
tiv@@ 22
gall@@ 22
bra 22
side-@@ 22
fulfilling 22
police@@ 22
mola 22
pedal 22
disappearing 22
orphanage 22
spine 22
tightly 22
cursor 22
ehouse 22
resurre@@ 22
utop@@ 22
40s 22
drunk 22
fetus 22
invitation 22
pharma@@ 22
3-@@ 22
worthwhile 22
remix 22
stunt 22
flourish 22
genic 22
involvement 22
24-@@ 22
conditioning 22
1970 22
vor 22
unemployment 22
peaks 22
certified 22
augu@@ 22
stres@@ 22
notation 22
bot 22
trin@@ 22
buddha 22
sanitation 22
barefoot 22
tad@@ 22
deploy 22
regimes 22
fertility 22
comparable 22
forma@@ 22
question@@ 22
simon 22
resolved 22
scotland 22
compani@@ 22
real-time 22
distinguish 22
muni@@ 22
hung 22
gon 22
pursuing 22
viable 22
principal 22
agnes 22
pher@@ 22
commer@@ 22
chaotic 22
grim 22
standpoint 22
pressures 22
mastery 22
ambiguity 22
reforms 22
velocity 22
correlated 22
devoted 22
oll@@ 22
sel 22
innovators 22
techni@@ 22
penis 22
grey 22
intra@@ 22
volcanic 22
reed 22
stimulate 22
balloons 22
phy@@ 22
luther 22
cket 22
hipp@@ 22
f-@@ 22
releases 22
ani 22
tickets 21
rendering 21
lightning 21
grief 21
streng@@ 21
annoying 21
activate 21
laure@@ 21
album 21
diana 21
dee@@ 21
summar@@ 21
paradise 21
comprehensive 21
whistling 21
1989 21
abandon 21
cnn 21
khan 21
reinvent 21
jen@@ 21
dug 21
singers 21
schooling 21
tagging 21
industri@@ 21
wounded 21
hippo@@ 21
conscience 21
ease 21
templ@@ 21
gement 21
employment 21
holiday 21
spills 21
retired 21
veter@@ 21
effe@@ 21
enthusiasm 21
cot@@ 21
bumps 21
hel@@ 21
bmw 21
raises 21
evan 21
constrained 21
subsidi@@ 21
defi@@ 21
kiribati 21
ghtest 21
procedures 21
spoo@@ 21
battle@@ 21
oney 21
legitimate 21
stru@@ 21
suns@@ 21
wandering 21
transported 21
moms 21
standardi@@ 21
castle 21
injustice 21
indire@@ 21
packaging 21
repe@@ 21
honesty 21
graham 21
rich@@ 21
deple@@ 21
stranger 21
forbid 21
leaks 21
frequent 21
86 21
meaning@@ 21
venezuela 21
doubling 21
delighted 21
ens@@ 21
you@@ 21
sensi@@ 21
lor@@ 21
commerce 21
inventing 21
voters 21
scul@@ 21
rooted 21
cis@@ 21
automobiles 21
know@@ 21
cide 21
ung@@ 21
alongside 21
holder 21
tribu@@ 21
recep@@ 21
attributes 21
quo 21
ception 21
scape 21
fellows 21
deplo@@ 21
lining 21
1.3 21
linux 21
ais@@ 21
beans 21
locom@@ 21
accompli@@ 21
matching 21
wrest@@ 21
titanic 21
informal 21
reflects 21
needing 21
shrink 21
thic 21
ipod 21
attraction 21
pe-@@ 21
tamiflu 21
austri@@ 21
attra@@ 21
nails 21
edited 21
iceberg 21
hopeless 21
burns 21
centered 21
oping 21
daylight 21
historian 21
preser@@ 21
cerebral 21
dop@@ 21
cubic 21
policy@@ 21
unleas@@ 21
configuration 21
mutual 21
bankers 21
galactic 21
toxins 21
aggre@@ 21
demographics 21
reasonably 21
darfur 21
200-@@ 21
bottom-up 21
scare 21
governmental 21
assistant 21
envy 21
excess 21
kal@@ 21
animate 21
pops 21
addressed 21
folk 21
accommo@@ 21
recovered 21
180 21
ckets 21
bounce 21
fibonacci 21
fort 21
heated 21
cochlear 21
del 21
evo@@ 21
dodo 21
11th 21
stand@@ 21
magnets 21
light-@@ 21
hint 21
yorker 21
deter@@ 21
officials 21
avian 21
policing 21
bending 21
parameters 21
rap 21
pinn@@ 21
assi@@ 21
harvesting 21
emily 21
hitler 21
kable 21
alb@@ 21
coined 21
equipped 21
veil 21
racing 21
watt 21
elders 21
anda 21
gosh 21
ann@@ 21
combining 21
update 21
oecd 21
limbs 21
consu@@ 21
norway 21
add@@ 21
eradicate 21
locking 21
nes@@ 21
hamburger 21
box@@ 21
doug 21
slowed 21
panbanisha 21
questioning 21
worries 21
regional 21
tivity 21
bury 21
strengths 21
schedul@@ 21
luci@@ 21
dod@@ 21
irrigation 21
thum@@ 21
interviewing 21
acr@@ 21
scat@@ 21
environment@@ 21
nightmare 21
vali@@ 21
centimeter 21
directed 21
swing 21
tremendously 21
optimize 21
inner@@ 21
obs@@ 21
arran@@ 21
spli@@ 21
reflective 21
backed 21
deser@@ 21
manu@@ 21
aud@@ 21
journ@@ 21
yale 21
treaty 21
real-@@ 21
troubled 21
que@@ 21
frag@@ 21
appreciated 21
brick 21
psych@@ 21
simil@@ 21
creators 21
jam 21
1945 21
disconnected 21
routine 21
reject 21
gentle 21
counsel@@ 21
kansas 21
neil 21
variability 21
visceral 21
romance 21
capac@@ 21
certific@@ 21
das@@ 21
improvise 21
respiratory 21
nanotechnology 21
res 21
beloved 21
cookie 21
hung@@ 21
lever 21
metabolic 21
accelerated 21
ji@@ 21
q 21
-in-law 21
pressing 21
sound@@ 21
ambiguous 21
scanned 21
testosterone 21
enceladus 21
textile 21
priest 21
ab 21
kill@@ 21
one-on-one 21
officers 21
rist 21
sprin@@ 21
continuity 21
kings 21
zational 21
vo 21
andro@@ 21
watches 21
volunte@@ 21
pads 21
lie@@ 21
oceano@@ 21
canyon 21
shrin@@ 21
self-organizing 21
young@@ 21
py 21
signing 21
nurture 21
ounce 21
onists 21
grounded 21
ni 21
depressing 21
erotic 21
rotating 20
serendi@@ 20
flash@@ 20
retreat 20
holocaust 20
displaced 20
sounded 20
athletes 20
rel 20
pentagon 20
day-to-day 20
inviting 20
focuses 20
potter 20
197@@ 20
accor@@ 20
ro 20
patho@@ 20
billion-@@ 20
modes 20
arizona 20
adop@@ 20
multinational 20
eco-@@ 20
duty 20
traumatic 20
cooper 20
unpredictable 20
gun@@ 20
saves 20
icy 20
launching 20
compass 20
arab@@ 20
sars 20
bour@@ 20
measurable 20
tennis 20
moma 20
malnutrition 20
satisfying 20
balcon@@ 20
et-@@ 20
manufacturers 20
producer 20
esti@@ 20
scaled 20
slave 20
lings 20
tourist 20
tweet 20
mov@@ 20
americ@@ 20
incar@@ 20
nate 20
lakota 20
neuroscientist 20
owns 20
rehabilitation 20
russians 20
manifestation 20
grassroots 20
laugh@@ 20
curved 20
remembering 20
nee@@ 20
dumped 20
esis 20
two-dimensional 20
recon@@ 20
regenerative 20
exquisite 20
imp@@ 20
trunk 20
differ@@ 20
biomimicry 20
practiced 20
sync 20
doodling 20
entrepreneurial 20
riots 20
bell@@ 20
dos 20
reviews 20
slate 20
vy 20
intern@@ 20
iranians 20
limestone 20
membrane 20
hl@@ 20
furthermore 20
campaig@@ 20
philadelphia 20
valent 20
unimagin@@ 20
urban@@ 20
argentina 20
recipro@@ 20
mm@@ 20
inhab@@ 20
ata 20
williams 20
packing 20
empowerment 20
generator 20
near-@@ 20
doms 20
graphically 20
jill 20
christ@@ 20
gratitude 20
skies 20
steer 20
ila 20
defines 20
contagious 20
shallow 20
ram 20
sent@@ 20
-based 20
trailer 20
ough 20
share@@ 20
worship 20
dow 20
submersible 20
nuclei 20
resonance 20
nas@@ 20
risd 20
transmit@@ 20
inefficient 20
lean@@ 20
spouse 20
operational 20
beats 20
desires 20
reactors 20
aug@@ 20
governor 20
charcoal 20
warrior 20
exce@@ 20
fall@@ 20
literal 20
jacket 20
black-@@ 20
dwell 20
ri 20
len 20
orn 20
ipad 20
inhal@@ 20
fighters 20
spin@@ 20
composer 20
employ 20
leak 20
georgia 20
countryside 20
gather@@ 20
anic 20
phil@@ 20
tup 20
settlement 20
nail 20
lized 20
vably 20
rhetor@@ 20
big@@ 20
identities 20
hive 20
disciplinary 20
beethoven 20
evolves 20
hotter 20
implication 20
underway 20
physiology 20
operator 20
poland 20
gar 20
predicting 20
dump 20
bl 20
ari 20
lapse 20
imposed 20
admire 20
ji 20
sony 20
decides 20
ians 20
therap@@ 20
us-@@ 20
murray 20
memorial 20
v. 20
gaze 20
strating 20
wood@@ 20
investigating 20
confron@@ 20
beat@@ 20
taller 20
slogan 20
directors 20
referred 20
ky@@ 20
embassy 20
nano-@@ 20
pic 20
ologically 20
darpa 20
stimulus 20
constit@@ 20
tually 20
province 20
associ@@ 20
burg 20
hero@@ 20
distorted 20
ere 20
registered 20
throws 20
rail 20
trum@@ 20
revolution@@ 20
advantages 20
suspen@@ 20
right-@@ 20
approval 20
dissemin@@ 20
fas@@ 20
hadron 20
gallons 20
beginnings 20
lled 20
harmful 20
chers 20
sailing 20
jamie 20
menting 20
rupe@@ 20
agre@@ 20
automatic 20
x-rays 20
atur@@ 20
degraded 20
underestimate 20
register 20
eradicated 20
jason 20
leds 20
gil@@ 20
knocked 20
triangles 20
utter 20
laboratories 20
mortal 20
programmer 20
lifes@@ 20
pioneer 20
maldives 20
lab@@ 20
weekly 20
tress 20
attend 20
subscri@@ 20
trait 20
cassini 20
boots 20
falcon 20
admit@@ 20
ironically 20
olly 20
recycle 20
fitting 20
collar 20
tch 20
ety 20
foun@@ 20
lakes 20
eman@@ 20
acoustic 20
tails 20
ideo 20
employee 20
attachment 20
dening 20
inclusive 20
amateurs 20
explorers 20
donations 20
kur@@ 20
193@@ 20
hunters 20
dimin@@ 20
medications 20
tick 20
stunts 20
massachusetts 20
improvisation 20
stepping 20
corrid@@ 20
disgusting 20
dings 20
ticals 20
elessly 20
small-@@ 20
altogether 20
swedish 20
produ@@ 20
statistic 20
scop@@ 20
encounter@@ 20
replicating 20
chand@@ 20
convenience 20
cartoonist 20
publicly 20
glucose 20
chair@@ 20
offshore 20
glow 20
sten 20
artic@@ 20
mediterranean 20
pervasive 20
temper@@ 20
theft 20
valued 20
developers 20
cooked 20
venter 20
suburban 20
cane 20
een 20
plying 20
coherent 20
scarce 20
tul@@ 20
strictly 20
metropolitan 20
descri@@ 20
tortured 20
15th 20
soft@@ 20
cali@@ 20
ignorance 20
bulg@@ 20
siblings 20
iner@@ 20
symboli@@ 20
ground@@ 20
assess@@ 20
der-@@ 20
endless 20
contents 20
conception 20
ssi@@ 20
nec@@ 20
exit 20
stigma 20
um-@@ 20
mming 20
finite 20
lot@@ 20
arabia 20
.com. 20
prising 20
rigid 20
simulated 20
substantial 20
sydney 20
fic@@ 20
arrows 20
placing 20
orientation 20
refu@@ 20
choreo@@ 20
amino 20
fon@@ 20
59 20
irri@@ 20
theor@@ 20
agnostic 20
vented 20
randomness 20
pepper 20
differ 20
drinks 20
synapses 20
depths 20
qaeda 20
intrinsically 20
avenue 20
jury 20
ef@@ 20
execution 20
custom 20
existential 19
montana 19
incomplete 19
dune 19
wasting 19
correspond 19
excer@@ 19
lyn@@ 19
tops 19
intellectu@@ 19
dissi@@ 19
lasted 19
atmospheric 19
taiwan 19
git@@ 19
ey@@ 19
basics 19
contacts 19
synthes@@ 19
injection 19
cros@@ 19
introducing 19
kes@@ 19
cyber 19
bump@@ 19
fies 19
thirds 19
prizes 19
yn 19
harness 19
ark 19
natalie 19
tutor@@ 19
manages 19
parall@@ 19
extensive 19
terminal 19
sth@@ 19
accent 19
sustaining 19
kilograms 19
uc@@ 19
arial 19
2.5 19
entertaining 19
hairs 19
ini 19
indoor 19
instincts 19
anticipated 19
dged 19
pus 19
glaciers 19
matics 19
carcino@@ 19
sperm 19
developer 19
hect@@ 19
dragged 19
roy 19
skip 19
nepal 19
partial 19
trea@@ 19
astrolab@@ 19
rec@@ 19
fights 19
twen@@ 19
construc@@ 19
unlock 19
spontaneously 19
midst 19
blows 19
phas@@ 19
compen@@ 19
camp@@ 19
zations 19
circuitry 19
method@@ 19
transmitted 19
sign@@ 19
rsw 19
sex@@ 19
duration 19
mean@@ 19
laying 19
twins 19
gifts 19
prolifer@@ 19
decei@@ 19
10th 19
7,@@ 19
sole 19
strains 19
manipul@@ 19
tu 19
autistic 19
monum@@ 19
i.q. 19
sessions 19
carved 19
kyoto 19
sect 19
dwar@@ 19
e.u. 19
commonly 19
gn@@ 19
firmly 19
140 19
fluctuations 19
inmates 19
12-@@ 19
heli@@ 19
ung 19
treas@@ 19
arithmetic 19
vis 19
affir@@ 19
academics 19
editors 19
stries 19
phic 19
team@@ 19
oting 19
ara 19
interven@@ 19
pools 19
rus 19
pancreatic 19
tant 19
mundane 19
brea@@ 19
camer@@ 19
1986 19
dallas 19
certainty 19
sketches 19
wages 19
gordon 19
fundraising 19
oliver 19
4,@@ 19
advocate 19
scru@@ 19
dude 19
gour@@ 19
explode 19
state-of-the-art 19
hallucin@@ 19
intersection 19
opo@@ 19
ctiveness 19
stence 19
d-up 19
natur@@ 19
puppet 19
excellence 19
crow@@ 19
ppers 19
victori@@ 19
neu@@ 19
charts 19
bibli@@ 19
eland 19
ruled 19
macro@@ 19
dable 19
spre@@ 19
slices 19
smiles 19
mark@@ 19
t-shirt 19
brus@@ 19
quir@@ 19
buys 19
ening 19
s-on 19
enced 19
band-@@ 19
scholars 19
encryp@@ 19
varieties 19
less@@ 19
barbar@@ 19
implants 19
coperni@@ 19
airports 19
steering 19
relevance 19
floors 19
donation 19
cleaned 19
twenty 19
weir@@ 19
detroit 19
linguistic 19
chat 19
datab@@ 19
intri@@ 19
supermassive 19
katrina 19
blue@@ 19
entity 19
manuscript 19
tian 19
zimbabwe 19
bali 19
flexibility 19
vie@@ 19
uk 19
tedx 19
nonviolent 19
opposition 19
crowded 19
mozart 19
reinventing 19
nairobi 19
commentary 19
sat@@ 19
boost 19
archae@@ 19
goliath 19
asto@@ 19
profession@@ 19
ues 19
figu@@ 19
blur@@ 19
northeast 19
favelas 19
rg 19
acade@@ 19
carrot 19
briga@@ 19
drift 19
dj 19
toll 19
rot 19
apparent 19
ox@@ 19
mister 19
edu@@ 19
portra@@ 19
este@@ 19
competitors 19
empath@@ 19
forehead 19
preservation 19
publication 19
cand@@ 19
kl@@ 19
telephones 19
mammogram 19
gyrus 19
bites 19
commandments 19
lenses 19
live@@ 19
angular 19
gating 19
appeti@@ 19
oun@@ 19
protocells 19
instances 19
rhythms 19
digit@@ 19
searches 19
mite 19
atrazine 19
slowing 19
million@@ 19
aire 19
butt 19
danish 19
judges 19
freeze 19
export 19
wning 19
hob@@ 19
acquisition 19
one-third 19
tho@@ 19
tattoos 19
submer@@ 19
fills 19
med@@ 19
playground 19
tude 19
bited 19
cha 19
slu@@ 19
ceram@@ 19
redesign 19
opped 19
industrialized 19
lobe 19
ingenuity 19
kim 19
evident 19
heel 19
5-@@ 19
hs 19
acceleration 19
pedestri@@ 19
plat@@ 19
germs 19
galileo 19
flags 19
dog@@ 19
drilling 19
helpless 19
dividing 19
detectors 19
rex 19
dread@@ 19
amsterdam 19
1968 19
mold 19
do-@@ 19
essions 19
complaining 19
endeavor 19
ti 19
deserts 19
1996 19
reagan 19
appearing 19
enrich@@ 19
salmon 19
numb 19
anom@@ 19
tos@@ 19
respectful 19
hypothetical 19
hug 19
explorer 19
caregi@@ 19
limitation 19
tape@@ 19
placebo 19
transistor 19
rightly 19
subtra@@ 19
asis 19
closure 19
scrat@@ 19
minimal 19
notions 19
anten@@ 19
hy 19
charging 19
mista@@ 19
stumbled 19
evalu@@ 19
beaches 19
vism 19
convi@@ 19
coordinate 19
p. 19
cleaner 19
58 19
dn@@ 19
orbiting 19
immensely 19
trauma 19
fame 19
mustache 19
grip 19
21@@ 19
bos@@ 19
log@@ 19
oregon 19
ironic 19
bucket 19
premi@@ 19
complain 19
processors 19
basin 19
contradi@@ 19
sri 19
cists 19
passionately 19
jam@@ 19
hetero@@ 19
captcha 19
for-@@ 19
tuberculosis 19
grandmothers 19
centigrade 19
settings 19
worldview 19
degradation 19
carbonate 19
blast 19
permanently 19
shadows 19
schedule 19
compose 19
occupation 19
mum 19
ema 19
let@@ 19
anth@@ 19
oxy@@ 19
emaker 19
.org 19
news@@ 19
stering 19
psychopath 19
rainfall 19
83 19
das 19
superior 19
bath@@ 19
hurts 19
prou@@ 19
not-@@ 18
unsustainable 18
ticism 18
rift 18
ddled 18
ras@@ 18
indoors 18
pts 18
belts 18
strict 18
daun@@ 18
cooler 18
flap 18
def@@ 18
bioluminescent 18
fulfill 18
novels 18
illa 18
couples 18
bloggers 18
literary 18
110 18
77 18
ste 18
articulate 18
aspirations 18
mini 18
inte@@ 18
formu@@ 18
references 18
suspicious 18
,000-@@ 18
pop-@@ 18
inexpensive 18
crocodile 18
flock 18
mosque 18
squat@@ 18
combinations 18
transcend 18
pel 18
sup@@ 18
crushed 18
tempest 18
ggles 18
whist@@ 18
vietnamese 18
enlighten@@ 18
distinctive 18
ander 18
doc 18
ceos 18
cative 18
94 18
mons 18
evi@@ 18
defending 18
galois 18
way@@ 18
finland 18
developments 18
southeast 18
manipulated 18
subje@@ 18
wipe 18
hig@@ 18
orchestr@@ 18
mentors 18
melody 18
dependen@@ 18
impor@@ 18
discussed 18
attribu@@ 18
cosm@@ 18
slaves 18
kenyan 18
57 18
ctly 18
obtained 18
suggestions 18
pepsi 18
seafood 18
depen@@ 18
bank@@ 18
strokes 18
gan 18
kles 18
thouse 18
clas@@ 18
enthusiastic 18
visitors 18
vivi@@ 18
remin@@ 18
nicole 18
spiri@@ 18
nings 18
verge 18
overwhel@@ 18
boyfriend 18
transistors 18
44 18
migraine 18
good@@ 18
av@@ 18
translates 18
turkish 18
regulate 18
testimony 18
christopher 18
satur@@ 18
develop@@ 18
ambulan@@ 18
payment 18
schol@@ 18
ambassador 18
exhi@@ 18
juven@@ 18
educating 18
49 18
archimedes 18
valent@@ 18
convergence 18
marcus 18
bind 18
unacceptable 18
penetrate 18
posit@@ 18
turtles 18
beck 18
witn@@ 18
eliminated 18
ie@@ 18
450 18
chariot 18
acceptable 18
multiverse 18
liberation 18
unite 18
bulk 18
aerial 18
appealing 18
pediatri@@ 18
ression 18
grabs 18
swap 18
1993 18
orleans 18
races 18
junior 18
footprints 18
fragmented 18
mantis 18
explicit 18
dron 18
reje@@ 18
exhilar@@ 18
elder 18
roger 18
xes 18
denomin@@ 18
80,000 18
fier@@ 18
sation 18
28@@ 18
cruise 18
conc@@ 18
banker 18
cameron 18
crater 18
metrics 18
eye-@@ 18
tahrir 18
ired 18
mph 18
inflation 18
compos@@ 18
plato 18
issued 18
retail 18
margaret 18
widespread 18
olive 18
midnight 18
gifted 18
returning 18
balan@@ 18
meantime 18
triple 18
slas@@ 18
accidentally 18
lays 18
synthesize 18
smartest 18
intentional 18
tell@@ 18
criticism 18
genu@@ 18
suring 18
colom@@ 18
chord 18
unemployed 18
rie 18
tunas 18
photogra@@ 18
twin@@ 18
improves 18
arized 18
wal-mart 18
flood 18
consistently 18
dil@@ 18
sque@@ 18
plo@@ 18
promot@@ 18
baker 18
good-@@ 18
third-@@ 18
semi@@ 18
campaigns 18
cion 18
bund@@ 18
claws 18
stag@@ 18
controller 18
earth-@@ 18
mmer 18
tot@@ 18
preju@@ 18
algebra 18
jon 18
cess@@ 18
anony@@ 18
incremental 18
ffer 18
shouting 18
jeans 18
struggled 18
champion 18
40-@@ 18
onics 18
enzyme 18
tea@@ 18
negotiating 18
hex@@ 18
birth@@ 18
accused 18
recipes 18
stin@@ 18
echo@@ 18
tizing 18
aesthetics 18
kilos 18
intel 18
murdered 18
subjective 18
interro@@ 18
clever@@ 18
fiscal 18
phthalates 18
crank 18
amateur 18
arteries 18
peanuts 18
remotely 18
mash 18
antenna 18
shaping 18
stretched 18
simplistic 18
highl@@ 18
transcendence 18
sweeping 18
inspi@@ 18
personnel 18
allen 18
interference 18
insecure 18
cumu@@ 18
billboard 18
thankfully 18
sym@@ 18
varied 18
donated 18
sidewalk 18
experimenter 18
i-@@ 18
il-@@ 18
ulties 18
lis 18
ee@@ 18
explores 18
migrate 18
prioritize 18
acity 18
yable 18
dd 18
preventable 18
space-time 18
dary 18
humi@@ 18
feminine 18
chie@@ 18
inventors 18
foxo 18
himalayas 18
desc@@ 18
transcen@@ 18
lessness 18
ffed 18
neurological 18
pirate 18
ceased 18
embraced 18
nerd 18
lamb 18
shuff@@ 18
ag 18
clar@@ 18
bladder 18
barack 18
53 18
block@@ 18
contexts 18
pilots 18
mentary 18
play-@@ 18
jeal@@ 18
posture 18
walkable 18
mites 18
iq 18
adverti@@ 18
eng@@ 18
submitted 18
controll@@ 18
connecticut 18
benef@@ 18
instinctively 18
competent 18
pies 18
editing 18
routinely 18
famili@@ 18
massively 18
citizen@@ 18
ola 18
respects 18
headaches 18
claimed 18
awards 18
periodic 18
styles 18
peel 18
cils 18
oppon@@ 18
1975 18
tality 18
breasts 18
middle-class 18
addicted 18
arbitrary 18
metaphors 18
take-@@ 18
shells 18
chalk 18
reco@@ 18
dispen@@ 18
te-@@ 18
saint 18
julia 18
reminder 18
cross@@ 18
crun@@ 18
translating 18
demos 18
anne 18
liers 18
extremes 18
cairo 18
faint 18
lement 18
aby@@ 18
trek 18
mock@@ 18
programm@@ 18
graders 18
vors 18
mas 18
use@@ 18
astronom@@ 18
retin@@ 18
artifi@@ 18
abu 18
chop@@ 18
rigor@@ 18
mahmoud 18
empiri@@ 18
freak 18
animations 18
som 18
guarante@@ 18
palace 18
eager 18
ologies 18
cd 18
keen 18
pesticides 18
guidel@@ 18
yr 18
phen@@ 18
ison 18
outrageous 18
conclusions 18
eries 17
floods 17
rebel 17
feasi@@ 17
humming@@ 17
melan@@ 17
civilian 17
stical 17
sums 17
lifelong 17
dg 17
divers 17
imaginary 17
boil 17
ight 17
residential 17
trusting 17
aks 17
fum@@ 17
winners 17
coins 17
ingeni@@ 17
turtle 17
restricted 17
vet@@ 17
foreground 17
fulfilled 17
optics 17
brew 17
hour@@ 17
timber 17
jennifer 17
excuses 17
poke 17
western@@ 17
gots 17
explicitly 17
brutal 17
low@@ 17
check@@ 17
grapes 17
contaminated 17
labor@@ 17
moti@@ 17
eps 17
lightweight 17
costa 17
integrating 17
internation@@ 17
top-@@ 17
highways 17
crawling 17
usage 17
imbalance 17
invaded 17
iest 17
handy 17
dangers 17
ngo 17
cephal@@ 17
legos 17
recipi@@ 17
ivory 17
snap 17
93 17
protective 17
mitted 17
legiti@@ 17
lithium 17
80@@ 17
marri@@ 17
visualizing 17
sequently 17
ancy 17
neanderthal 17
replied 17
gi 17
ingu@@ 17
mills 17
fairy 17
blobs 17
motorcycle 17
continuum 17
tapped 17
arc 17
humane 17
rey 17
d.@@ 17
circul@@ 17
oxide 17
arrangement 17
extrover@@ 17
thread 17
curator 17
embarras@@ 17
pakistani 17
dining 17
impres@@ 17
ar-@@ 17
paradox@@ 17
responsive 17
smartphone 17
dious 17
automotive 17
technician 17
southwest 17
illiterate 17
pathogens 17
triggers 17
paraly@@ 17
wrin@@ 17
presidents 17
sanitary 17
juan 17
animated 17
solves 17
dol@@ 17
ho 17
nests 17
appe@@ 17
cist 17
educators 17
creation@@ 17
cryp@@ 17
gram@@ 17
tarian 17
remembers 17
zar@@ 17
tigers 17
metast@@ 17
decentralized 17
lump 17
innov@@ 17
oral 17
bumble@@ 17
bertie 17
mr 17
scopy 17
short-term 17
mermaid 17
evapo@@ 17
fin 17
crabs 17
conceive 17
scholarship 17
negotiation 17
inquir@@ 17
vola@@ 17
ony@@ 17
strips 17
mug@@ 17
versa 17
manufactur@@ 17
whistles 17
pragmatic 17
volts 17
out-of-@@ 17
dlock 17
drip 17
libr@@ 17
aus 17
room@@ 17
gian 17
macy 17
ones@@ 17
cues 17
vague 17
depri@@ 17
exhausted 17
structured 17
tlen@@ 17
tread@@ 17
payo@@ 17
fundament@@ 17
hunter-@@ 17
nm 17
revelation 17
sin 17
mathematically 17
mble 17
paleont@@ 17
bili@@ 17
archie 17
hes@@ 17
surrounds 17
habitats 17
forgiveness 17
alliance 17
sympathy 17
stocks 17
ballet 17
milit@@ 17
biom@@ 17
sic 17
absurd 17
euros 17
argues 17
ett 17
reluct@@ 17
vibrant 17
roman 17
senator 17
fried 17
taboo 17
bloo@@ 17
antiangiogenic 17
bronze 17
quantitative 17
impac@@ 17
cras@@ 17
token 17
expands 17
fans 17
boiling 17
centralized 17
ancestry 17
followers 17
anthropologist 17
drowning 17
myth@@ 17
newly 17
sexuality 17
sweat@@ 17
kindly 17
chewing 17
fashi@@ 17
mmm 17
spiritu@@ 17
vocal 17
orable 17
ddler 17
delivers 17
ables 17
supposedly 17
aunt 17
reacting 17
iraq@@ 17
experimenting 17
rar@@ 17
comet 17
thrust 17
diego 17
ny@@ 17
communal 17
repor@@ 17
drought 17
exceptional 17
ctoral 17
rouge 17
tie@@ 17
aka 17
1,100 17
perpetu@@ 17
boy@@ 17
displayed 17
amanda 17
paragra@@ 17
halls 17
marines 17
severely 17
dig@@ 17
injected 17
performances 17
swar@@ 17
isaac 17
left-@@ 17
popping 17
dealt 17
absorbed 17
violin 17
acumen 17
trust@@ 17
intellect 17
monthly 17
nanotu@@ 17
oce@@ 17
prospect 17
moses 17
15-@@ 17
urgent 17
sham@@ 17
timeline 17
rabbits 17
crashed 17
pathology 17
alter@@ 17
iny 17
1918 17
quiz 17
explosions 17
some@@ 17
rand 17
rabbit 17
tehran 17
precipit@@ 17
energe@@ 17
dor 17
cognitively 17
professions 17
throat 17
70,000 17
denied 17
arou@@ 17
isol@@ 17
wallet 17
viewers 17
geometric 17
serotonin 17
ettes 17
posts 17
rebuilding 17
focal 17
square-@@ 17
obscure 17
vinci 17
vegas 17
superstar 17
erness 17
needless 17
surge 17
mity 17
sponsor 17
abalone 17
providers 17
meadow 17
decisi@@ 17
analytical 17
triggered 17
nish 17
polite 17
parap@@ 17
stabili@@ 17
refin@@ 17
abused 17
chor@@ 17
acle 17
pots 17
aler 17
sulfide 17
adventures 17
provi@@ 17
zip 17
ape 17
ignor@@ 17
venus 17
indication 17
advertise@@ 17
aspiration 17
superconductor 17
sacrifi@@ 17
blocking 17
epilep@@ 17
usable 17
evol@@ 17
inhabited 17
gehry 17
wned 17
congratu@@ 17
fort@@ 17
formul@@ 17
blueprint 17
arin 17
ough@@ 17
booms 17
ay@@ 17
fashioned 17
conspiracy 17
12th 17
inno@@ 17
anatom@@ 17
loops 17
decep@@ 17
manifest 17
commercials 17
emission 17
nazi 17
gamma 17
eliminating 17
inver@@ 17
oscar 17
emitted 17
imed 17
boson 17
reali@@ 17
publisher 17
specimens 17
poured 17
assau@@ 17
holistic 17
adily 17
tourism 17
noticing 17
got@@ 17
reconstruct 17
halt 17
embo@@ 17
commands 17
malig@@ 17
taxi 17
mamm@@ 17
oth 17
mono@@ 17
europe@@ 17
currents 17
hunter 17
imitation 17
movember 17
jersey 17
nollywood 17
thur@@ 17
fe 17
30@@ 17
vet 17
attempted 17
croch@@ 17
zu@@ 17
margin 17
theore@@ 17
punish 17
fry 17
centric 17
antidote 17
veget@@ 17
shout 17
glas@@ 17
concus@@ 17
stabilize 17
hir@@ 17
gangs 17
inspe@@ 17
societal 17
cheated 17
nment 17
anim@@ 17
poorly 17
inser@@ 17
skype 17
african-@@ 17
gateway 17
cogni@@ 17
blink 17
progressive 17
eden 17
persons 17
switches 17
cosmology 17
vector 17
nex@@ 17
fitted 17
crow 17
wilderness 17
conqu@@ 17
yel@@ 17
beard 17
kam@@ 17
observer 17
coinci@@ 17
seller 17
ministers 17
graffiti 17
elevated 17
skeletons 17
rectangle 17
87 17
anecdot@@ 17
prescribe 17
positively 17
diagrams 17
thou 17
solu@@ 17
underwear 17
delete 17
fishes 17
triumph 17
catastrophe 17
progressi@@ 17
similarities 17
executive 17
edward 17
ceptible 17
confusing 17
illustration 17
availability 17
diver 17
torna@@ 17
romo 17
dove 17
railroad 17
thick@@ 17
contracts 17
kas@@ 17
paro@@ 17
una 17
ign 17
madness 17
entitled 17
inject 17
officially 17
touch@@ 17
consumer@@ 17
tempor@@ 17
lish 17
mineral 17
flooding 17
skyscra@@ 17
cds 17
domest@@ 17
superhero 17
south@@ 16
gical 16
tless 16
mmers 16
tropic@@ 16
mutant 16
suffi@@ 16
bach 16
reg@@ 16
emit@@ 16
ed-@@ 16
5.@@ 16
hiv-positive 16
harn@@ 16
cers 16
fungus 16
philanthro@@ 16
sevent@@ 16
hoods 16
quick@@ 16
gur@@ 16
az@@ 16
2,500 16
ills 16
bal 16
pine 16
lyri@@ 16
encies 16
navy 16
jonas 16
lover 16
surpris@@ 16
hyp@@ 16
homo@@ 16
nie@@ 16
hack 16
bitten 16
listen@@ 16
uter@@ 16
cello 16
intrigu@@ 16
joel 16
orthodo@@ 16
wiki@@ 16
ath 16
outsi@@ 16
harmon@@ 16
nian 16
lhc 16
fluidi@@ 16
nie 16
call@@ 16
stop@@ 16
shal@@ 16
conta@@ 16
sop@@ 16
membran@@ 16
connec@@ 16
py@@ 16
embryo 16
technolog@@ 16
ikea 16
bator 16
eleanor 16
magni@@ 16
rip 16
ug@@ 16
arkansas 16
hertz 16
switching 16
ili@@ 16
symptom 16
flickr 16
84 16
1957 16
ist@@ 16
arch 16
tes@@ 16
nikol@@ 16
rati@@ 16
substan@@ 16
care@@ 16
steward@@ 16
yemen@@ 16
evolution@@ 16
haul 16
floo@@ 16
comedi@@ 16
6.@@ 16
short-@@ 16
aa 16
missile 16
dawkins 16
athei@@ 16
pavilion 16
eva 16
jet@@ 16
reu@@ 16
strator 16
rements 16
ranging 16
won@@ 16
tles 16
take@@ 16
europa 16
arios 16
nicholas 16
promp@@ 16
puri@@ 16
c.@@ 16
of-the-@@ 16
cals 16
ania 16
ria 16
marshall 16
und 16
carb@@ 16
khmer 16
dex 16
1982 16
autonom@@ 16
sook 16
bonobo 16
geek 16
nano 16
moo@@ 16
bbc 16
anno@@ 16
pr 16
fts@@ 16
blind@@ 16
colorado 16
kepler 16
imperi@@ 16
instal@@ 16
automated 16
1976 16
sopa 16
a. 16
langley 16
questi@@ 16
abnormal 16
fitness 16
alfred 16
prac@@ 16
charis@@ 16
doha 16
gary 16
accumu@@ 16
stole 16
germ 16
oon 16
cators 16
algorith@@ 16
tedglobal 16
rest@@ 16
serv@@ 16
gadgets 16
warfare 16
eins 16
geni@@ 16
b.c. 16
tennessee 16
booth 16
penny 16
sab@@ 16
categ@@ 16
epo@@ 16
cele@@ 16
jaws 16
plaque 16
burial 16
steri@@ 16
dium 16
philippe 16
monopoly 16
irrelevant 16
aimee 16
curr@@ 16
bhutan 16
springs 16
1983 16
ades 16
anders 16
oblivi@@ 16
omet@@ 16
aten 16
contain@@ 16
partis@@ 16
kle 16
catalog 16
ington 16
class@@ 16
500,000 16
nancy 16
ape@@ 16
evapor@@ 16
navigation 16
parti@@ 16
os@@ 16
photograph@@ 16
yan 16
numer@@ 16
percei@@ 16
participat@@ 16
amphi@@ 16
face-@@ 16
hazard 16
suite 16
turbul@@ 16
kick@@ 16
ch-@@ 16
glori@@ 16
stit@@ 16
hyperbolic 16
stereo 16
slam@@ 16
astronau@@ 16
sank 16
aviation 16
gando 16
ino@@ 16
expedi@@ 16
seven@@ 16
anes@@ 16
propulsion 16
56 16
distri@@ 16
alia 16
sman 16
compet@@ 16
kol@@ 16
ternal 16
maj@@ 16
cos@@ 16
vals 16
ss@@ 16
moon@@ 16
spac@@ 16
leo 16
incorpor@@ 16
billion@@ 16
bonobos 16
deprivation 16
walmart 16
carni@@ 16
titude 16
surve@@ 16
boar@@ 16
dy-@@ 16
92 16
enzy@@ 16
crus@@ 16
160 16
giants 16
zable 16
cran@@ 16
stand-up 16
pest 16
guided 16
rum@@ 16
wax 16
60@@ 16
tougher 16
ang 16
1985 16
kt 16
casual 16
transpor@@ 16
anna 16
drums 16
vers@@ 16
cates 16
ghten@@ 16
vine 16
walter 16
yan@@ 16
still@@ 15
tte 15
robo@@ 15
calyp@@ 15
comprehen@@ 15
fere 15
boot 15
reve@@ 15
tofu 15
vail@@ 15
glob@@ 15
sages 15
aquarium 15
sever@@ 15
trick@@ 15
paras@@ 15
tha 15
puber@@ 15
lux@@ 15
attribute 15
mber 15
freud 15
elle 15
schizophren@@ 15
somalia 15
qatar 15
bern@@ 15
warri@@ 15
non 15
veling 15
80-@@ 15
imf 15
hudson 15
5,@@ 15
justi@@ 15
divor@@ 15
assign@@ 15
what@@ 15
neum@@ 15
vaginas 15
filing 15
rho@@ 15
his@@ 15
extremis@@ 15
bomb@@ 15
inde@@ 15
measu@@ 15
1992 15
marshmallow 15
lexi@@ 15
extin@@ 15
gler 15
swee@@ 15
maria 15
gal 15
phr@@ 15
akers 15
asive 15
toyota 15
sion@@ 15
impulses 15
penicillin 15
friend@@ 15
chant 15
biot@@ 15
ech 15
supercomputer 15
art@@ 15
rider 15
incenti@@ 15
spir@@ 15
bp 15
sali@@ 15
cod 15
roosevelt 15
superman 15
fahrenheit 15
expo 15
top-down 15
peer-to-peer 15
barbara 15
metaboli@@ 15
notebook 15
tedster 15
thu@@ 15
philipp@@ 15
passen@@ 15
ves@@ 15
atori@@ 15
paint@@ 15
molas 15
tit@@ 15
of@@ 15
cker@@ 15
dai 15
ju 15
1973 15
conne@@ 15
unbelie@@ 15
hers 15
cep@@ 15
situ@@ 15
prostit@@ 15
lib@@ 15
sad@@ 15
censor@@ 15
vermeer 15
hybri@@ 15
zambia 15
boarding 15
apartheid 15
trilli@@ 15
dimitri 15
diffusion 15
rene@@ 15
vision@@ 15
alled 15
pipa 15
ein 15
pins 15
jas@@ 15
seren@@ 15
helix 15
acci@@ 15
business@@ 15
bec@@ 15
vc 15
sket@@ 15
stro 15
trine 15
ling@@ 15
cigar@@ 15
avatar 15
uv 15
monolo@@ 15
leu@@ 15
pianist 15
karen 15
diet@@ 15
remot@@ 15
flam@@ 15
integra@@ 15
sick@@ 15
predat@@ 15
180@@ 15
ener@@ 15
eviden@@ 15
there@@ 15
inputs 15
marg@@ 15
74 15
sta 15
lich@@ 15
interfer@@ 15
pharmaceu@@ 15
miller 15
chad 15
asy 15
chu 15
foli@@ 15
julie 15
ome@@ 15
impro@@ 15
performer 15
aly 15
cochrane 15
erosion 15
guar@@ 15
ddy 15
tipping 15
tification 15
vered 15
quali@@ 15
dent@@ 15
christi@@ 15
fbi 15
cides 15
ulate 15
99.@@ 15
ubuntu 15
particip@@ 15
fibro@@ 15
intelli@@ 15
liqui@@ 15
rant 15
punk 15
ont@@ 15
sweeney 15
any@@ 15
smi@@ 15
196@@ 15
microscop@@ 15
gir@@ 15
kh 15
multi-touch 15
nevada 15
embry@@ 15
awar@@ 15
rand@@ 15
73 15
susie 15
zzy 15
ily 15
kay 15
ened 15
mans 15
copy@@ 15
nug@@ 15
sia 15
hubble 15
resour@@ 15
follo@@ 15
daf-2 15
stirling 15
kanzi 15
stanley 15
thanksgiving 15
repertoire 15
gb 15
geny 15
table@@ 15
sioux 15
geological 15
story@@ 15
cet 15
go-@@ 15
thes@@ 15
ipods 14
darwin@@ 14
vani@@ 14
omes 14
hiroshima 14
festivals 14
rabbi 14
kate 14
ier 14
weal@@ 14
fmri 14
lap@@ 14
fins 14
kamen 14
janine 14
marco 14
partments 14
mik@@ 14
rang 14
madagas@@ 14
greg 14
tras@@ 14
exu@@ 14
cel 14
zin@@ 14
fab@@ 14
anima@@ 14
bihar 14
2-@@ 14
tim@@ 14
polymer 14
fade 14
1987 14
supernova 14
low-tech 14
itali@@ 14
62 14
expan@@ 14
spectac@@ 14
pardon 14
phili@@ 14
downs 14
170 14
lah 14
participant 14
wu@@ 14
saul 14
botswana 14
coup 14
ramp@@ 14
alls 14
bart 14
miami 14
lling 14
si 14
antiretro@@ 14
ald 14
appreci@@ 14
ury 14
ada@@ 14
prot@@ 14
babylon 14
cradle 14
dm@@ 14
nels 14
stances 14
sav@@ 14
sediment 14
tiers 14
sha 14
elf 14
workshops 14
unbe@@ 14
hosti@@ 14
gap@@ 14
mann 14
burger 14
rebel@@ 14
netra 14
extra-@@ 14
upgrade 14
titudes 14
solly 14
diab@@ 14
loser 14
tro 14
vest@@ 14
mind-wandering 14
pedi@@ 14
shaw 14
line@@ 14
invasion 14
berries 14
foreig@@ 14
uns 14
world@@ 14
karl 14
harris 14
nep@@ 14
eduardo 14
genom@@ 14
guts 14
weibo 14
ino 14
hamlet 14
jacqueline 14
proportion@@ 14
makeup 14
kil@@ 14
bye 14
exhau@@ 14
sally 14
immigrant 14
extern@@ 14
combin@@ 14
dend 14
h5n1 14
volcan@@ 14
simulator 14
leng@@ 14
1949 14
geri@@ 14
back-@@ 14
benki 14
mba 14
robin 14
samuel 14
mond 14
immigr@@ 14
angel 14
zi 14
fluctu@@ 14
ethiop@@ 14
las 14
doo 14
attemp@@ 14
turi@@ 14
sabba@@ 14
sean 14
mahatma 14
irrever@@ 14
multitasking 14
reme@@ 14
mitchell 14
modular 14
workshop 14
gger 14
demen@@ 14
tra 14
asym@@ 14
js 14
stake@@ 14
picasso 14
cule 14
transc@@ 14
fossi@@ 14
sergio 14
diffic@@ 14
mississippi 14
achilles 14
lisa 14
lawrence 14
metic 14
ona 14
treat@@ 14
malcolm 14
reven@@ 14
dra 14
extr@@ 14
lesterland 14
bedro@@ 14
sor 14
wild@@ 14
show@@ 14
promotion 14
sequel 14
arrange@@ 14
prie@@ 14
chuck 14
docum@@ 14
doll@@ 14
pastor 14
declar@@ 14
zk 14
alar@@ 14
tm 14
kahn 14
fau@@ 14
row@@ 14
galvao 14
je 14
aven@@ 14
arma@@ 14
rory 14
ulty 14
autobio@@ 14
mali@@ 14
gravi@@ 14
endo@@ 14
broadmoor 14
collagen 14
0,@@ 14
bass 14
carter 14
centr@@ 14
ity-@@ 14
bai@@ 14
hock@@ 14
steak 14
oakland 14
heroin 14
) 14
ld 14
chu@@ 14
mati@@ 14
jazeera 14
dep@@ 14
uh-@@ 14
hab 14
biting 14
appl@@ 14
fo 14
wash@@ 14
schwarz@@ 14
1978 14
rig 14
mrs. 14
phers 14
adi@@ 14
villa@@ 14
dubai 14
mantra 14
cle 14
pc@@ 14
sourcing 14
404 14
stir@@ 14
200@@ 14
ridicul@@ 14
russell 14
f. 14
fortun@@ 14
ris 14
jewel@@ 14
lesters 14
warner 14
fax 14
oprah 14
1962 14
efully 14
cit 13
rotation 13
emu@@ 13
omin@@ 13
8.@@ 13
intensi@@ 13
lind@@ 13
agra 13
umin@@ 13
bins 13
yland 13
chro@@ 13
repu@@ 13
ohio 13
aba 13
bean 13
matthew 13
39 13
abc 13
kabul 13
ferti@@ 13
shah 13
autop@@ 13
oly@@ 13
68 13
ces@@ 13
batman 13
mili@@ 13
ial 13
istanbul 13
anas 13
archet@@ 13
suey 13
billy 13
rotten 13
meg@@ 13
82 13
hem 13
comfort@@ 13
domini@@ 13
redund@@ 13
undercover 13
vre 13
aspen 13
nanome@@ 13
me-@@ 13
rais@@ 13
teen@@ 13
colleges 13
pathy 13
approxima@@ 13
teddy 13
dives 13
dolby 13
proble@@ 13
danny 13
luke 13
femin@@ 13
kurzweil 13
wick 13
porn 13
geria 13
tos 13
cathe@@ 13
crocodi@@ 13
taylor 13
blues 13
cp 13
71 13
atri@@ 13
porno@@ 13
manifest@@ 13
arro@@ 13
real@@ 13
tso 13
sour@@ 13
inferior 13
tutor 13
establishment 13
quarks 13
lassi@@ 13
straig@@ 13
geo-@@ 13
ational 13
fel@@ 13
stefan 13
neighbor@@ 13
ignorant 13
odysseus 13
ira 13
out-@@ 13
mete@@ 13
sci@@ 13
xen@@ 13
rett 13
sies 13
chs 13
360 13
typo@@ 13
eck 13
lock@@ 13
sergey 13
gos 13
hardy 13
arb@@ 13
israelis 13
ring@@ 13
essex 13
jargon 13
guru 13
auto 13
dock 13
helicop@@ 13
bid 13
rane 13
ruption 13
energ@@ 13
cern 13
proton 13
phon@@ 13
menop@@ 13
priva@@ 13
7.@@ 13
mop 13
quadri@@ 13
rede@@ 13
exac@@ 13
.org. 13
jimmy 13
psychopath@@ 13
usda 13
end-@@ 13
pean@@ 13
ister 13
hem@@ 13
asper@@ 13
nega@@ 13
pessimi@@ 13
davis 13
rect@@ 13
flor@@ 13
uit 13
prostitution 13
cowboy 13
patter@@ 13
tb 13
futur@@ 13
carol 13
gul@@ 13
faul@@ 13
tis@@ 13
parab@@ 13
wick@@ 13
jor@@ 13
champag@@ 13
ee 13
chari@@ 13
usi@@ 13
metri@@ 13
browne 13
identi@@ 13
tivi@@ 13
yo-@@ 13
engli@@ 13
orch@@ 13
hangs 13
ywood 13
nazis 13
humano@@ 13
atta@@ 13
exxon 13
ctives 13
ethni@@ 13
o.@@ 13
packa@@ 13
plur@@ 13
evange@@ 13
dengue 13
graphi@@ 13
dak@@ 13
thetic 13
proli@@ 13
succe@@ 13
lob@@ 13
passi@@ 13
colon@@ 13
sers 13
gab@@ 13
portal 13
sations 13
qua@@ 13
one@@ 13
79 13
crimin@@ 13
jama@@ 13
zero-sum 13
distin@@ 13
volu@@ 13
diment 13
1969 13
day-@@ 13
bollywood 13
meen 13
random@@ 13
sophistic@@ 13
bald 13
gery 13
glas 13
sapiens 13
gould 13
proteom@@ 13
trickster 13
dt 13
mr@@ 13
hypertext 13
vage 13
johan@@ 13
nes 13
influenza 13
ventil@@ 13
olds 13
gho@@ 13
chor 13
skydiving 13
eping 13
redwoods 13
strated 13
vancouver 13
abdu@@ 13
arm@@ 13
minnesota 13
ballast 13
sk 13
disgu@@ 13
nett 13
gilbert 13
illed 13
89 13
voyager 13
aggression 13
spring@@ 13
lanka 13
packs 13
disrup@@ 13
essay 13
monument 13
at-@@ 13
epit@@ 13
eames 13
mosquit@@ 13
bam@@ 13
1967 13
dl 13
plau@@ 13
kee@@ 13
princi@@ 13
cad 13
histori@@ 13
stion 13
toaster 13
musi@@ 13
shirky 13
ezra 13
schild 13
lian 13
chemo@@ 13
ordin@@ 13
twe@@ 13
georgetown 13
posal 13
popcorn 13
yl 13
drake 13
70@@ 13
aorta 13
stero@@ 13
spu@@ 13
tour@@ 13
41 13
bulldo@@ 13
exi@@ 13
78 13
iel 13
palette 13
osc@@ 13
ddt 13
ww@@ 13
orphan@@ 13
strat@@ 13
sas@@ 13
reflex 13
klein 13
myo@@ 13
transducer 13
onym 13
spl@@ 13
establi@@ 13
ku 13
zz 13
virg@@ 13
buffalo 13
al-q@@ 13
aeda 13
newton@@ 13
palestini@@ 13
photoshop 12
60-@@ 12
81 12
sheila 12
conveni@@ 12
propor@@ 12
dale 12
noah 12
beck@@ 12
54 12
neutrin@@ 12
messen@@ 12
rica 12
ez 12
100-@@ 12
nic@@ 12
syner@@ 12
buff@@ 12
propag@@ 12
experiment@@ 12
tium 12
fern@@ 12
contagi@@ 12
bahamas 12
gurt 12
erie 12
psyche 12
strate 12
aura 12
metr@@ 12
heada@@ 12
sousa 12
coc@@ 12
usc 12
haz@@ 12
pover@@ 12
astern 12
catalo@@ 12
maslow 12
white@@ 12
tus@@ 12
ada 12
vot@@ 12
amo@@ 12
screen@@ 12
atlas 12
great@@ 12
tag@@ 12
rid@@ 12
tweets 12
chi 12
1947 12
iles 12
ci 12
heim 12
riverside 12
invisi@@ 12
quet@@ 12
seth 12
es-@@ 12
sober@@ 12
shment 12
dilemmas 12
bb 12
wolf 12
disson@@ 12
gel@@ 12
reno@@ 12
farm@@ 12
orthop@@ 12
reka 12
sea@@ 12
zy@@ 12
melo@@ 12
mao 12
aph@@ 12
hiv-@@ 12
sutherland 12
ima 12
1979 12
esther 12
oter 12
hysi@@ 12
rockefeller 12
jad 12
ng 12
geor@@ 12
friedman 12
dupli@@ 12
infil@@ 12
safe@@ 12
tinkering 12
elvis 12
negroponte 12
pale@@ 12
pep@@ 12
duke 12
clark 12
dennett 12
noti@@ 12
babylon@@ 12
giga@@ 12
feder@@ 12
yang 12
marc 12
andre@@ 12
echo 12
eless@@ 12
eti@@ 12
sburg 12
biomedi@@ 12
juli@@ 12
anec@@ 12
dote 12
up-@@ 12
advent@@ 12
manage@@ 12
guer@@ 12
width 12
trage 12
anni@@ 12
í@@ 12
jesse 12
desper@@ 12
mellon 12
hill@@ 12
splashy 12
blogger 12
nostal@@ 12
repres@@ 12
wid@@ 12
potter@@ 12
opec 12
migra@@ 12
emphasi@@ 12
gill 12
invasi@@ 12
mash@@ 12
knowled@@ 12
whiskey 12
swahili 12
destro@@ 12
rezero 12
oles@@ 12
opho@@ 12
osama 12
beri@@ 12
interrup@@ 12
equi@@ 12
51 12
statisti@@ 12
maje@@ 12
renti@@ 12
priv@@ 12
29@@ 12
mitochondri@@ 12
recycl@@ 12
ringe 12
alligator 12
stes 12
psycholo@@ 12
meme@@ 12
ein@@ 12
dir@@ 12
frost 12
grad 12
doodle 12
astic 12
so-@@ 12
bonnet 12
borough 12
cybor@@ 12
crete 12
event@@ 12
mun@@ 12
jon@@ 12
bruno 12
rufus 12
stockholm 12
sandwiches 12
beverly 12
op-@@ 12
flop 12
buster 12
inary 12
gorilla 12
sati@@ 12
exp@@ 12
enz@@ 12
hen 12
k. 12
accenture 12
theatre 12
ronald 12
sudhir 12
11@@ 12
ellip@@ 12
illinois 12
light@@ 12
harm@@ 12
studios 12
leys 12
outsour@@ 12
emi@@ 12
hein@@ 12
gaga 12
lier 12
kore@@ 12
km 12
1974 12
derer 12
formal@@ 12
hoo 12
ley@@ 12
cardi@@ 12
homosexu@@ 12
ging@@ 12
gend 12
leton 12
esday 12
sustain@@ 12
dv@@ 12
# 12
never@@ 12
nd 12
lucy 12
anthony 12
legis@@ 12
ula 12
uss 12
street@@ 12
okap@@ 12
8,@@ 12
posite 12
bris 12
1965 12
portland 12
1981 12
antici@@ 12
scap@@ 12
tainment 12
arrogant 12
ryan 12
hr 12
franklin 12
ze-@@ 12
red-@@ 12
institution@@ 12
flakes 12
aires 12
vegetation 12
maitreya 12
e8 12
tent@@ 12
troy 12
mathematica 12
nac@@ 12
preci@@ 12
kans 12
bure@@ 12
án 12
noma@@ 12
provin@@ 12
justin 12
cohen 12
shes 12
paradig@@ 12
derick 12
moderni@@ 12
tbp 12
favela 12
theat@@ 12
boeing 12
alition 12
ming@@ 12
feed@@ 12
mous 12
tasman@@ 12
evaluation 12
terence 12
alhambra 12
mp3 12
mbi 12
v-day 12
offensive 12
pau@@ 12
= 12
gman 12
dar 12
eeg 12
styro@@ 12
synapse 12
pp 12
uli@@ 12
bilbao 12
moz@@ 12
ice@@ 12
unk 12
merito@@ 12
patrick 12
norwe@@ 12
synchr@@ 11
bine 11
q. 11
stant 11
connect@@ 11
apologi@@ 11
peru 11
kris@@ 11
hn@@ 11
00 11
stigmati@@ 11
introdu@@ 11
choo@@ 11
alli@@ 11
oxi@@ 11
motto 11
t.b. 11
meas@@ 11
bren@@ 11
gence 11
horn 11
osaurus 11
influen@@ 11
paulo 11
td 11
cient 11
asth@@ 11
missouri 11
homer 11
23@@ 11
implan@@ 11
ct-@@ 11
alexandria 11
know-how 11
medic@@ 11
lest 11
ati 11
rebecca 11
hyderabad 11
thank@@ 11
poni@@ 11
ander@@ 11
west@@ 11
scho@@ 11
1988 11
occurr@@ 11
seymour 11
wi-fi 11
dens 11
dka 11
cook@@ 11
w.@@ 11
memo@@ 11
onist 11
esot@@ 11
unaids 11
laun@@ 11
yoga 11
spider@@ 11
mus 11
jack@@ 11
diversi@@ 11
netflix 11
evelyn 11
hierarch@@ 11
bonnie 11
psy@@ 11
22@@ 11
ppe@@ 11
lone 11
ctures 11
750 11
hoe 11
hay@@ 11
kara@@ 11
north@@ 11
extremi@@ 11
cock 11
positives 11
minim@@ 11
jacques 11
foren@@ 11
mission@@ 11
yellow@@ 11
vern@@ 11
tts 11
caus@@ 11
econom@@ 11
chap@@ 11
semble 11
chen 11
max@@ 11
atom@@ 11
hou@@ 11
pande@@ 11
glenn 11
ukra@@ 11
promin@@ 11
suppor@@ 11
sures 11
therapeu@@ 11
whirlwind 11
ket@@ 11
aer@@ 11
greg@@ 11
lov@@ 11
dies@@ 11
erik 11
sis@@ 11
hn 11
amaz@@ 11
gaza 11
idol 11
and-a-@@ 11
seni@@ 11
infer@@ 11
zhou 11
rhex 11
eful 11
consum@@ 11
shir@@ 11
utter@@ 11
broo@@ 11
tarahumara 11
pari@@ 11
dah 11
ron@@ 11
plas@@ 11
ses@@ 11
quer 11
exhibi@@ 11
ile 11
ecuad@@ 11
ted-@@ 11
discus@@ 11
cafeteria 11
grin@@ 11
fond 11
webs 11
ulose 11
hansen 11
paired 11
jabbar 11
parade 11
kim@@ 11
homini@@ 11
mum@@ 11
ever@@ 11
dine 11
aden@@ 11
eco@@ 11
webcam 11
saddam 11
sane 11
resol@@ 11
lang 11
kiki 11
oted 11
ade@@ 11
ices 11
adv@@ 11
watt-@@ 11
pper@@ 11
gia 11
triceratops 11
tability 11
roy@@ 11
martha 11
gag@@ 11
zur@@ 11
celebri@@ 11
iphones 11
dc 11
bei@@ 11
blogo@@ 11
jeep 11
fest 11
touri@@ 11
tta 11
vivian 11
pisa 11
pho@@ 11
serge@@ 11
lifest@@ 11
pore 11
targe@@ 11
insky 11
phan@@ 11
sie 11
tedmed 11
diaspora 11
46 11
liter 11
demand@@ 11
casey 11
asphalt 11
dame 11
inge 11
alg@@ 11
bub@@ 11
o.k. 11
pipelines 11
suspi@@ 11
carolyn 11
dley 11
bill@@ 11
tolerant 11
emmanuel 11
91 11
avo@@ 11
racy 11
victoria 11
ke-@@ 11
amy@@ 11
baxter 11
structions 11
ghet@@ 11
tiso@@ 11
18-@@ 11
fren@@ 11
bombar@@ 11
pie@@ 11
proportional 11
itely 11
head-@@ 11
alisa 11
dab@@ 11
hemis@@ 11
peer-@@ 11
butter 11
gie 11
fuss 11
eh 11
scan@@ 11
dem@@ 11
wag@@ 11
ranger 11
where@@ 11
nel 11
johns 11
phar@@ 11
j.@@ 11
enting 11
ib 11
tans 11
flus@@ 11
bies 11
zen 11
kon@@ 11
michoac@@ 11
tedx@@ 11
thetics 11
legi@@ 11
ori 11
autos 11
bandura 11
anga 11
helen 11
latr@@ 11
pur 11
charlotte 11
tier 11
aurora 11
gell@@ 11
smiley 11
jets 11
lider 11
humor@@ 11
ram@@ 11
tyran@@ 11
jean 11
kli@@ 11
chment 11
alabama 11
negatives 11
iv 11
extrem@@ 11
logarith@@ 11
mach 11
strato@@ 11
ernest 11
alterna@@ 11
cans 11
tial 11
najmuddin 11
stair@@ 11
heres 11
disco@@ 11
andal 11
explor@@ 11
bby 11
crats 11
issu@@ 11
ó@@ 11
kne@@ 11
bach@@ 11
manchester 11
vement 11
betra@@ 10
judy 10
monade 10
ato@@ 10
auschwitz 10
ett@@ 10
inspir@@ 10
ckens 10
idi@@ 10
ig 10
tee 10
thei@@ 10
wan 10
gen-@@ 10
sala@@ 10
6,@@ 10
salman 10
jere@@ 10
afford@@ 10
wy@@ 10
ylon 10
sp 10
16-@@ 10
agen@@ 10
pto@@ 10
dant 10
vam@@ 10
pou@@ 10
eded 10
parano@@ 10
mexic@@ 10
chem@@ 10
nih 10
coura@@ 10
mato@@ 10
dently 10
omen 10
chau@@ 10
craw@@ 10
po 10
minto 10
overflow 10
nah 10
thai 10
poten@@ 10
gosla@@ 10
pursu@@ 10
mam@@ 10
mini-@@ 10
wing@@ 10
indiana 10
miser@@ 10
los@@ 10
guatemala 10
ffel 10
cyberspace 10
tus 10
ypass 10
sch 10
brid@@ 10
nyu 10
eral 10
lux 10
63 10
isy 10
cargill 10
kerala 10
anthropo@@ 10
celine 10
sopran@@ 10
pascal 10
arthritis 10
malaysia 10
distor@@ 10
gressi@@ 10
ille 10
conserva@@ 10
euro 10
stomatopo@@ 10
teraby@@ 10
gus@@ 10
gau@@ 10
carson 10
wey 10
itarian 10
headset 10
cabin@@ 10
pinker 10
grab@@ 10
dless 10
bobby 10
dations 10
1966 10
kuwait 10
laps 10
gabriel 10
elli 10
transplantation 10
mcluhan 10
transmitter 10
samar@@ 10
ularly 10
alex@@ 10
deregu@@ 10
240 10
aviv 10
wide-@@ 10
literate 10
zon@@ 10
sofa 10
bay@@ 10
novogratz 10
adri@@ 10
spam 10
mobs 10
dows 10
rhino@@ 10
iler 10
envel@@ 10
tata 10
gand@@ 10
ause 10
sche@@ 10
alco@@ 10
shirts 10
ml 10
ance@@ 10
budapest 10
nab@@ 10
intu@@ 10
lucas 10
tral 10
math@@ 10
pont 10
rying 10
opping 10
tori@@ 10
wales 10
sachs 10
un 10
wollen 10
harvest@@ 10
agri@@ 10
laparo@@ 10
makoko 10
disc@@ 10
neo@@ 10
emper@@ 10
pos 10
prosper@@ 10
stress@@ 10
airbnb 10
constra@@ 10
thermo@@ 10
stat 10
ried 10
celsius 10
stuart 10
tol@@ 10
sagmeister 10
ridi@@ 10
hirshhorn 10
orion 10
fair@@ 10
stige 10
patrio@@ 10
outs@@ 10
hussein 10
cam 10
kri@@ 10
preg@@ 10
frank@@ 10
gut@@ 10
geno@@ 10
rin@@ 10
igbo 10
antor 10
starter 10
klu@@ 10
gang@@ 10
informa@@ 10
pati@@ 10
instin@@ 10
gress@@ 10
uruguay 10
banal 10
ority 10
trance 10
oz 10
oul 10
rough@@ 10
mole@@ 10
sari 10
mafi@@ 10
austin 10
senegal 10
nobyl 10
turk 10
beatles 10
hannah 10
hopkins 10
lynn 10
car-sharing 10
plutonium 10
optimist 10
unle@@ 10
fraser 10
sem@@ 10
hose 10
kw@@ 10
ap 10
liche 10
randi 10
cockpit 10
thal@@ 10
gible 10
turbo 10
aspi@@ 10
hobby 10
lol 10
singul@@ 10
ret@@ 10
sargas@@ 10
pal 10
rebellion 10
rm 10
fare 10
sushi 10
adrenal@@ 10
hawai@@ 10
cl 10
lev@@ 10
tres@@ 10
mist 10
thom 10
jurassic 10
isot@@ 10
ffe@@ 10
papu@@ 10
mubarak 10
rhin@@ 10
berners-lee 10
mei@@ 10
bion@@ 10
stimuli 10
fragi@@ 10
yochai 10
vels 10
fuller 10
beginn@@ 10
unes 10
discipl@@ 10
au-prince 10
brut@@ 10
nonverb@@ 10
cardo 10
rockett 10
nbc 10
wall@@ 10
rag@@ 10
teach@@ 10
fig@@ 10
bien@@ 10
iowa 10
giraffe 10
bottom@@ 10
corn@@ 10
hydropho@@ 10
.s. 10
ucla 10
psychopa@@ 10
pro 10
nib@@ 10
awi 10
g. 10
lak@@ 10
dred 10
bmi 10
fusi@@ 10
yahoo 10
harlem 10
ende@@ 10
strate@@ 10
rapi@@ 10
pluri@@ 10
pam@@ 10
coher@@ 10
mammo@@ 10
git 10
rifu@@ 10
matthieu 10
hamp@@ 10
eno 10
yin 10
pani@@ 10
weapon@@ 10
telev@@ 10
– 10
shire 10
prozac 10
win-@@ 10
edison 10
moglobin 10
missi@@ 10
goli@@ 10
forbes 10
boltzmann 10
manus@@ 10
baugh 10
pert 10
nuan@@ 10
matri@@ 10
nixon 10
cynthia 10
ques 10
dennis 10
eloqu@@ 10
macintosh 10
appli@@ 10
turbin@@ 10
adams 10
madison 10
threat@@ 10
gee@@ 10
daw@@ 10
ek@@ 10
kor@@ 10
bu 10
aah 10
etti 9
bis 9
ana@@ 9
hip-@@ 9
simpson 9
gate@@ 9
illusion@@ 9
bingo 9
8-@@ 9
curity 9
romegal@@ 9
linus 9
chy@@ 9
sao 9
terr@@ 9
curtis 9
orium 9
cere@@ 9
eu 9
arez 9
sensor@@ 9
otto 9
z. 9
amen 9
jordans 9
minster 9
tedwomen 9
sovi@@ 9
hospi@@ 9
toll@@ 9
morgan 9
fei@@ 9
eur@@ 9
leop@@ 9
jean-@@ 9
michel 9
kiva 9
gin 9
deen 9
shri@@ 9
gabyte 9
pesti@@ 9
allan 9
pakistan@@ 9
marduk 9
collins 9
volvo 9
taining 9
soundtrack 9
mona@@ 9
stery 9
88 9
spen@@ 9
ibu@@ 9
barcode 9
ret 9
esthes@@ 9
thes 9
marx 9
dicate 9
pradesh 9
hillary 9
r-@@ 9
aser 9
dn 9
jab@@ 9
ctus 9
iso@@ 9
deng 9
dyson 9
note@@ 9
mau@@ 9
brook 9
vity 9
mega-@@ 9
descartes 9
religi@@ 9
whitney 9
ingo 9
ahmed 9
ole@@ 9
muffin 9
á@@ 9
robinson 9
cornell 9
magi@@ 9
invest@@ 9
oklahoma 9
marie 9
illi@@ 9
philosophi@@ 9
hyperbo@@ 9
yam@@ 9
mt@@ 9
lex@@ 9
synthesizer 9
alan@@ 9
tk 9
gans 9
kens 9
simu@@ 9
ak-@@ 9
lust 9
trage@@ 9
hamed 9
queensland 9
anor@@ 9
engel@@ 9
demor@@ 9
mathema@@ 9
365 9
mail@@ 9
rie@@ 9
ura 9
cision 9
lihood 9
laura 9
dus 9
67 9
guil@@ 9
artill@@ 9
winter@@ 9
yst@@ 9
mise 9
dem 9
bras 9
aut 9
kaluza 9
ds@@ 9
controversi@@ 9
effor@@ 9
vibri@@ 9
antibio@@ 9
rockwell 9
warf 9
eira 9
1800 9
berk@@ 9
mae@@ 9
baby@@ 9
tum 9
jacob@@ 9
cox 9
ide 9
lobby@@ 9
argent@@ 9
altos 9
gymnosop@@ 9
versa@@ 9
erb@@ 9
altar 9
catherine 9
tai@@ 9
gren@@ 9
oll 9
1850 9
barri@@ 9
kleiber 9
angola 9
freu@@ 9
fracking 9
myhrvold 9
erer 9
ack@@ 9
smil@@ 9
arrogan@@ 9
herr@@ 9
dient 9
cust@@ 9
airlines 9
ment-@@ 9
houston 9
daphne 9
inven@@ 9
epiphy@@ 9
pyg@@ 9
parach@@ 9
holland 9
shekhar 9
cleveland 9
pl 9
toma@@ 9
esa@@ 9
danger@@ 9
dehy@@ 9
leb@@ 9
leviathan 9
neurolo@@ 9
brit@@ 9
commodi@@ 9
u.@@ 9
hna 9
uniqu@@ 9
yi 9
pent@@ 9
wingsuit 9
aller@@ 9
tora@@ 9
pear@@ 9
loh 9
robicsek 9
magnes@@ 9
tyr@@ 9
kentucky 9
lolcats 9
bess 9
ficial 9
krab@@ 9
quake 9
fred 9
beau 9
tribun@@ 9
curren@@ 9
dle 9
attac@@ 9
nashville 9
wel 9
caroline 9
caf@@ 9
tenden@@ 9
muti 9
secon@@ 9
sanghamit@@ 9
chr@@ 9
trainer 9
dum 9
edith 9
cholester@@ 9
herbie 9
fle 9
himi 9
wur@@ 9
remix@@ 9
enri@@ 9
kindle 9
chev@@ 9
concern@@ 9
chocol@@ 9
kev@@ 9
greenpeace 9
crick 9
lyn 9
oud 9
tyranno@@ 9
saurus 9
urable 9
66 9
chlorop@@ 9
ager 9
ctory 9
willi@@ 9
jessica 9
nerds 9
rad@@ 9
clim@@ 9
nk 9
dson 9
agra@@ 9
pyth@@ 9
pessi@@ 9
govern@@ 9
sala 9
alberto 9
shmi 9
pran@@ 9
neumann 9
paula 9
wisconsin 9
ik@@ 9
hh@@ 9
flexi@@ 9
tici@@ 9
o. 9
kath@@ 9
lick@@ 9
ela 9
dialog 9
diale@@ 9
eson 9
cad@@ 9
dis 9
1940 9
marsh@@ 9
dney 9
stern 9
girl@@ 9
australopithe@@ 9
ite@@ 9
terry 9
revel@@ 9
zu 9
rhy@@ 9
thermodynam@@ 9
stab@@ 9
ports 9
sui@@ 9
boyle 9
budrus 9
1858 9
endea@@ 9
hindi 9
brunel 9
dit 9
peter@@ 9
imper@@ 9
pierre 9
hausti@@ 9
boli@@ 9
jose 9
maui 9
atmosp@@ 9
cerem@@ 9
huntington 9
raleigh 9
emma 9
mption 9
phil 9
deu@@ 9
normal@@ 9
marathons 9
kobe 9
denburg 9
maeda 9
rca 9
smartphones 9
arc@@ 9
gering 9
cken@@ 8
splas@@ 8
yor 8
mated 8
schul@@ 8
richards 8
thier 8
li 8
kine@@ 8
aden 8
australi@@ 8
tili@@ 8
confi@@ 8
partner@@ 8
qualifi@@ 8
norm@@ 8
meth@@ 8
stere@@ 8
lag 8
quisi@@ 8
specim@@ 8
gni@@ 8
stur@@ 8
cational 8
enriquez 8
ph.@@ 8
cken 8
tment 8
invent@@ 8
buffet 8
machin@@ 8
isla@@ 8
hc 8
vic 8
sher 8
urs 8
hier@@ 8
tal 8
idy@@ 8
kra@@ 8
noon 8
kle@@ 8
strom 8
notic@@ 8
ross@@ 8
ellen 8
tational 8
lan 8
media-@@ 8
tender 8
aaron 8
zeit@@ 8
geist 8
cocktails 8
integr@@ 8
make@@ 8
liest 8
video-@@ 8
arium 8
rick@@ 8
lett 8
infr@@ 8
muti@@ 8
gs@@ 8
tn@@ 8
israeli@@ 8
ese@@ 8
gments 8
helpl@@ 8
und-@@ 8
cas 8
vid 8
dimension@@ 8
stunt@@ 8
irration@@ 8
1953 8
mcdon@@ 8
paci@@ 8
velo@@ 8
foo@@ 8
mauriti@@ 8
nai@@ 8
exo@@ 8
eine 8
zap@@ 8
unts 8
selam 8
servi@@ 8
fiel@@ 8
elli@@ 8
tern@@ 8
gly 8
bene@@ 8
byr@@ 8
meter-@@ 8
neurolog@@ 8
hydra@@ 8
feu@@ 8
w. 8
witz 8
phi@@ 8
650 8
1500 8
synago@@ 8
mw 8
kun@@ 8
rhyth@@ 8
padd@@ 8
hell@@ 8
ral@@ 8
aha 8
hmen 8
veg@@ 8
freaks 8
allison 8
fide 8
hori@@ 8
mith@@ 8
calcu@@ 8
pulsion 8
eisen@@ 8
diag@@ 8
zen@@ 8
essig 8
eld 8
logos 8
awk@@ 8
skul@@ 8
ita 8
tica 8
planet@@ 8
ipcc 8
trig@@ 8
electr@@ 8
exem@@ 8
etry 8
mah 8
partment 8
ord 8
abel 8
sori@@ 8
iran-@@ 8
matically 8
br 8
eur 8
hygiene 8
down-@@ 8
ario 8
stle 8
derartu 8
ges@@ 8
perio@@ 8
nei@@ 8
pete 8
chen@@ 8
embr@@ 8
fili@@ 8
linear@@ 8
techno@@ 8
traje@@ 8
alber@@ 8
aje@@ 8
tee@@ 8
twitter@@ 8
kler 8
gent@@ 8
ply 8
gupta 8
mast 8
thos 8
ith 8
immun@@ 8
frie@@ 8
vier 8
modifi@@ 8
dood@@ 8
46@@ 8
mea@@ 8
tages 8
ady 8
fanta@@ 8
core@@ 8
compan@@ 8
chefs 8
ado 8
isis 8
ego@@ 8
pate 8
responsi@@ 8
fen@@ 8
nigeri@@ 8
parasi@@ 8
zetas 8
sequent 8
science-@@ 8
yi@@ 8
replac@@ 8
strug@@ 8
qualit@@ 8
gratu@@ 8
seli@@ 8
wack@@ 8
sophi@@ 8
etes 8
organ@@ 8
6-@@ 8
kan 8
mosa@@ 8
nerv@@ 8
bunker 8
gorillas 8
span@@ 8
module 8
geomet@@ 8
guit@@ 8
priori@@ 8
dentally 8
tories 8
philips 8
rwand@@ 8
solidar@@ 8
ores 7
state-@@ 7
llo 7
dinger 7
ros@@ 7
int@@ 7
eter 7
eder 7
harv@@ 7
mosqu@@ 7
v-@@ 7
tera 7
sche 7
h. 7
beau@@ 7
semester 7
wes@@ 7
ishment 7
coast@@ 7
invol@@ 7
fen 7
michel@@ 7
kro@@ 7
timel@@ 7
inclu@@ 7
osity 7
wac@@ 7
abor@@ 7
( 7
gaby@@ 7
asha 7
quez 7
kilo 7
hau@@ 7
perv@@ 7
fana@@ 7
uten 7
schwar@@ 7
scha@@ 7
accep@@ 7
stoma@@ 7
through@@ 7
sell@@ 7
jung 7
amt 7
dick@@ 7
opera@@ 7
vide@@ 7
ender 7
space-@@ 7
metropoli@@ 7
instit@@ 7
zens 7
pol 7
mously 7
custo@@ 7
ores@@ 7
cany@@ 7
be-@@ 7
chir@@ 7
boot@@ 7
vices 7
ok@@ 7
buch@@ 7
gros@@ 7
tier@@ 7
emergen@@ 7
famil@@ 7
è@@ 7
maid 7
oi@@ 7
verti@@ 7
ma-@@ 7
geiger 7
wonder@@ 7
tank@@ 7
sir@@ 7
visit@@ 7
zel 7
pyrami@@ 7
stark 7
abra@@ 7
glen@@ 7
rels 7
orie 7
manipu@@ 7
gend@@ 7
lol@@ 7
tempo 7
element@@ 7
fos 7
author@@ 7
enthusi@@ 7
mir 7
con 7
fam@@ 7
aber@@ 7
mangro@@ 7
tle 7
blog@@ 7
ks@@ 7
rationale 7
kt@@ 7
busin@@ 7
mandel@@ 7
brot 7
chester 7
caro@@ 7
flan@@ 7
fa 7
biolo@@ 7
glimp@@ 7
regre@@ 7
sels 7
sus 7
lle 7
arsenal 7
opi@@ 7
buddh@@ 7
web-@@ 7
certi@@ 7
bacteri@@ 7
quit@@ 7
odys@@ 7
appear@@ 7
shei@@ 7
n1 7
griff@@ 7
dago@@ 7
sper@@ 7
t-shirts 7
elo@@ 7
babysi@@ 7
holo@@ 7
tle@@ 7
suns 7
tox@@ 7
liter@@ 7
cow@@ 7
vil@@ 7
e-mail 7
explan@@ 7
recogni@@ 7
come@@ 7
ordinarily 7
video@@ 7
year-@@ 7
budd@@ 7
gyp@@ 7
vitam@@ 7
genous 7
rot@@ 7
celebra@@ 7
chens 7
carbon@@ 7
une 7
stration 7
opy 7
muster 7
dise@@ 7
portu@@ 7
villa 7
prepar@@ 7
appropri@@ 7
liar 7
action@@ 7
stud@@ 7
qat@@ 7
diam@@ 7
stin 7
uri@@ 7
jim@@ 7
amer 7
schum@@ 7
-mann 7
essenti@@ 7
laden@@ 7
institu@@ 7
horizon@@ 7
icon@@ 7
rem 7
elimin@@ 7
mut@@ 7
success@@ 7
aristot@@ 7
prof@@ 7
hm@@ 7
eli 7
oren 7
kton 7
ef 7
agi@@ 7
ale@@ 7
symmetri@@ 7
toug@@ 7
kon 7
anticip@@ 7
forest@@ 7
delic@@ 7
intro@@ 7
viscer@@ 7
haha@@ 7
opti@@ 7
tex 7
traumati@@ 7
cin 7
pf@@ 7
stereot@@ 7
kas 7
quantifi@@ 7
seu@@ 7
elt 7
bt 7
funk@@ 7
mutter@@ 7
lear 7
% 7
cambo@@ 7
teries 7
continu@@ 7
quarti@@ 7
hm 7
enab@@ 6
stick@@ 6
cks@@ 6
enes 6
ando 6
novo@@ 6
crick@@ 6
hai 6
lifel@@ 6
tow@@ 6
rott@@ 6
nanometer 6
phosphor@@ 6
king@@ 6
abili@@ 6
avi@@ 6
turally 6
bel 6
umines@@ 6
canadi@@ 6
braun 6
ote 6
certain@@ 6
schro@@ 6
vory 6
fox@@ 6
speak@@ 6
zucker@@ 6
flung 6
stad@@ 6
lik@@ 6
gela@@ 6
gig 6
ite 6
infi@@ 6
1000 6
river@@ 6
ateful 6
cht 6
anthro@@ 6
da-@@ 6
cript 6
circu@@ 6
hamas 6
gurus 6
pasta 6
bler 6
arbitr@@ 6
nik 6
ingness 6
fantas@@ 6
mel 6
rau@@ 6
promis@@ 6
natu@@ 6
drin@@ 6
space@@ 6
taxi@@ 6
masse 6
experi@@ 6
por 6
afgh@@ 6
stadi@@ 6
locke 6
biome@@ 6
fischer@@ 6
travel@@ 6
ritu@@ 6
mell@@ 6
agr@@ 6
dollar@@ 6
hi-@@ 6
excep@@ 6
kant 6
scholar@@ 6
job@@ 6
tice 6
dee 6
har 6
behavi@@ 6
himalay@@ 6
stein@@ 6
euro@@ 6
is-@@ 6
u-@@ 6
cept 6
reper@@ 6
arre@@ 6
deutsch 6
bhu@@ 6
simp@@ 6
sole@@ 6
ution 6
motiva@@ 6
och@@ 6
zab@@ 6
station@@ 6
rad 6
such@@ 6
ende 6
citly 6
bor 6
pment 6
impul@@ 6
phthal@@ 6
fing@@ 6
thie@@ 6
oo 6
geb@@ 6
ation@@ 6
appar@@ 6
lett@@ 6
massi@@ 6
kel 6
sung 6
reb@@ 6
ano@@ 6
commission@@ 6
chal@@ 6
tast@@ 6
cole 6
zim@@ 6
graph@@ 6
wis@@ 6
adequ@@ 6
embra@@ 6
cet@@ 6
feld 6
rescu@@ 6
leon@@ 6
latte 6
geous 6
best@@ 6
glam@@ 6
occupi@@ 6
expe@@ 6
wander@@ 6
amazon@@ 6
albu@@ 6
hu 6
motive 6
ihu@@ 6
.a. 6
raid 6
til 6
annu@@ 6
wen 6
minu@@ 6
reci@@ 6
@ 6
dients 6
vens 6
tung 6
raff@@ 6
expli@@ 6
emotion@@ 6
nir@@ 6
gered 6
riel 6
asp@@ 6
u.s.-@@ 6
signi@@ 6
gymn@@ 6
jag@@ 6
frame@@ 6
spit@@ 6
koko 6
uring 6
worth@@ 6
meet@@ 6
eil 6
wal 6
^ 6
aes@@ 6
arsen@@ 6
aggressi@@ 6
kar 6
expos@@ 6
parli@@ 6
eb@@ 6
hof@@ 6
percent@@ 6
auto-@@ 6
aband@@ 6
fris@@ 6
aaaa@@ 6
ffe 6
solar@@ 6
unab@@ 6
esh 6
za-@@ 6
tanz@@ 6
mens 6
aor@@ 6
college-@@ 6
absur@@ 6
saf@@ 6
eren 6
need@@ 6
lager 6
wen@@ 6
kapu@@ 6
volk@@ 6
britan@@ 6
tig@@ 6
iden 6
phenomen@@ 6
ambassad@@ 6
privat@@ 6
bezo@@ 6
malari@@ 6
monu@@ 6
amm@@ 6
smar@@ 6
kru@@ 6
auge 6
ballo@@ 6
quer@@ 6
rr@@ 6
respect@@ 5
aid@@ 5
jose@@ 5
geon 5
schrö@@ 5
sili@@ 5
zig@@ 5
other@@ 5
sim@@ 5
test@@ 5
eis@@ 5
verb@@ 5
oct@@ 5
suit@@ 5
hygi@@ 5
abe 5
fund@@ 5
steu@@ 5
prototyp@@ 5
rea@@ 5
thur 5
brazi@@ 5
appro@@ 5
bial 5
mah@@ 5
ha-@@ 5
immedi@@ 5
upp@@ 5
orni@@ 5
kenne@@ 5
musli@@ 5
ht@@ 5
mana@@ 5
ster-@@ 5
feld@@ 5
defic@@ 5
routin@@ 5
chlor@@ 5
labyrin@@ 5
edly 5
megawatt 5
rors 5
astron@@ 5
exer@@ 5
multination@@ 5
shou@@ 5
die-@@ 5
vili@@ 5
ener 5
millenni@@ 5
popu@@ 5
obsc@@ 5
mich@@ 5
trie@@ 5
xe 5
happ@@ 5
onally 5
prior@@ 5
zac@@ 5
wand 5
leans 5
amit@@ 5
stif@@ 5
incen@@ 5
gration 5
arbit@@ 5
stopp@@ 5
voy@@ 5
hub@@ 5
fest@@ 5
raft 5
den-@@ 5
stil@@ 5
accu@@ 5
geckos 5
vey 5
atures 5
fabul@@ 5
param@@ 5
wit@@ 5
feel@@ 5
osau@@ 5
era@@ 5
irani@@ 5
ehrlich 5
kul@@ 5
yfish 5
gels 5
trium@@ 5
leth@@ 5
fung@@ 5
alphab@@ 5
coch@@ 5
floss 5
intervie@@ 5
ball-@@ 5
dei@@ 5
expect@@ 5
trau@@ 5
nev@@ 5
rut@@ 5
expec@@ 5
synchron@@ 5
bever@@ 5
ultra@@ 5
like@@ 5
99@@ 5
wie@@ 5
ten-@@ 5
prei@@ 5
kab@@ 5
weblogs 5
depressi@@ 5
codi@@ 5
grun@@ 5
koso@@ 5
stab 5
slow@@ 5
bie@@ 5
walt 5
pop@@ 5
ene@@ 5
montage 5
tv-@@ 5
locker 5
muff@@ 5
nia 5
found@@ 5
ante 5
stung 5
tw@@ 5
surro@@ 5
langu@@ 5
miner@@ 5
car-@@ 5
contr@@ 5
desig@@ 5
cei@@ 5
ament 5
stead 5
alp@@ 5
hoff@@ 5
dragon@@ 5
inn 5
captch@@ 5
musta@@ 5
todes 5
hend 5
die@@ 5
ctual 5
school-@@ 5
parameter 5
modu@@ 5
orities 5
tasking 5
tode 5
prevent@@ 5
chri@@ 5
frei@@ 5
figh@@ 5
tatto@@ 5
psychop@@ 5
atten 5
modern@@ 5
ubi@@ 5
isch 5
ypt 5
flag@@ 5
fant@@ 5
taneous 5
jell@@ 5
rome@@ 5
femini@@ 5
mitten 5
bik 5
two@@ 5
zig 5
ully 5
aida 5
belo@@ 5
degre@@ 5
attle 5
industr@@ 5
face@@ 5
tete 5
more@@ 5
schen 5
staf@@ 5
quas@@ 5
insulin@@ 5
bron@@ 5
-in-@@ 5
reich 5
contro@@ 5
turk@@ 5
spiel@@ 5
chai 5
aa@@ 5
thom@@ 5
ortho@@ 5
pler 5
alum@@ 5
sich@@ 5
episo@@ 5
gress 5
tible 5
chel@@ 5
protot@@ 5
gator 5
inevi@@ 5
fail@@ 5
potenti@@ 4
wein@@ 4
sprang 4
viron@@ 4
hart@@ 4
thres@@ 4
knopf 4
smart@@ 4
shepher@@ 4
tara@@ 4
orten 4
elec@@ 4
califor@@ 4
cola 4
hack@@ 4
naz@@ 4
transpar@@ 4
forestation 4
fischer 4
bao 4
riski@@ 4
brill@@ 4
neur@@ 4
pite 4
ult 4
challen@@ 4
titu@@ 4
vat@@ 4
magnifi@@ 4
angst 4
holl@@ 4
mobil@@ 4
prise 4
consci@@ 4
agon 4
vulner@@ 4
kom@@ 4
acht 4
mass@@ 4
gio 4
ae@@ 4
kern@@ 4
uni 4
kie@@ 4
va-@@ 4
arr@@ 4
vict@@ 4
gem 4
versary 4
samer 4
billi@@ 4
verage 4
worl@@ 4
bens 4
quantita@@ 4
nun 4
mush@@ 4
expand@@ 4
accessi@@ 4
emo@@ 4
alis@@ 4
convin@@ 4
progno@@ 4
thane 4
kraft 4
spri@@ 4
mahl@@ 4
centu@@ 4
spani@@ 4
vege@@ 4
see-@@ 4
dopamin@@ 4
blas@@ 4
encyclo@@ 4
haus@@ 4
zent@@ 4
mund 4
stating 4
ffen 4
silic@@ 4
shoul@@ 4
zit@@ 4
cock@@ 4
gestion 4
synap@@ 4
supre@@ 4
hol 4
ik 4
profi@@ 4
pedia 4
ã@@ 4
bots@@ 4
vene@@ 4
renew@@ 4
marvel@@ 4
chines@@ 4
enth@@ 4
cke 4
kunst@@ 4
oto@@ 4
weiser 4
kinder 4
resear@@ 4
fter 4
unter 4
abs 4
galac@@ 4
volun@@ 4
know-@@ 4
suggesti@@ 4
econ@@ 4
large-@@ 4
him@@ 4
wich 4
complic@@ 4
curricul@@ 4
primi@@ 4
intelligent@@ 4
exempl@@ 4
aly@@ 4
stens 4
hl 4
hast 4
nami@@ 4
elabor@@ 4
resur@@ 4
entin 4
ween 4
ader 4
tern 4
week@@ 4
mart 4
decision-@@ 4
robben 4
unken 4
4-@@ 4
gravitation 4
entic@@ 4
enthusiast@@ 4
marath@@ 4
.c. 4
ahen 4
chol@@ 4
trivi@@ 4
moham@@ 4
tod 4
haus 4
90@@ 4
architec@@ 4
ros 4
brie@@ 4
oper 4
bilities 4
flick@@ 4
100@@ 4
n. 4
enligh@@ 4
extre@@ 4
practic@@ 4
ps@@ 4
banglades@@ 4
ghted 4
kung 4
compre@@ 4
ied 4
erin 4
alas@@ 4
sinn@@ 4
ange 4
elizab@@ 4
poe@@ 4
presi@@ 4
margar@@ 4
seg@@ 4
aber 4
hic 4
etal 4
nach@@ 4
ido@@ 4
entary 4
dal@@ 4
phosp@@ 4
iss 4
pecu@@ 4
tzer 4
weh 4
catho@@ 4
essen@@ 4
juni@@ 4
jes@@ 4
train@@ 4
schnei@@ 4
distan@@ 4
robu@@ 4
ales 4
rum 4
afri@@ 4
ings@@ 4
wher@@ 4
ele 4
bos 4
reflexi@@ 4
nagel 4
dir 4
indones@@ 4
orchest@@ 4
elyn 4
pow@@ 4
faction 4
mauri@@ 4
pup@@ 4
tten@@ 4
kre@@ 4
valence 4
avat@@ 4
achil@@ 4
stem@@ 4
aron 4
symp@@ 4
polar@@ 4
asse 4
-fi 4
mysteri@@ 4
hindu@@ 4
zeal@@ 4
gus 4
synthesi@@ 4
cisco 4
your@@ 4
ç@@ 4
hous@@ 4
kus@@ 4
olymp@@ 4
s.@@ 4
discover@@ 4
quadra@@ 4
lag@@ 4
doch 4
riss 4
circa 4
ultras@@ 4
zon 4
la-@@ 4
mly 4
const@@ 4
perfor@@ 4
อ@@ 4
000 4
airs 4
strateg@@ 4
cyber-@@ 4
hormon@@ 4
aner 4
myce@@ 4
terrori@@ 4
nichol@@ 4
gele@@ 4
cafe@@ 4
existenti@@ 4
kleiner 4
ih@@ 4
venezu@@ 4
illeg@@ 4
mb 4
seem@@ 4
coli 4
heir@@ 4
mme 4
omen@@ 4
att 4
evolu@@ 3
tet 3
baum@@ 3
arier 3
derly 3
bang@@ 3
primar@@ 3
tinker@@ 3
genei@@ 3
sest 3
tise 3
aper 3
nich@@ 3
lem 3
oton@@ 3
ê@@ 3
tner 3
kram 3
berg@@ 3
ois 3
soc@@ 3
lium 3
aga@@ 3
internets 3
mode@@ 3
midd@@ 3
dinosau@@ 3
indepen@@ 3
dimit@@ 3
angri@@ 3
ator@@ 3
ur-@@ 3
dicke 3
tten 3
gestalt 3
volks@@ 3
wagen 3
prax@@ 3
brenn@@ 3
vio@@ 3
franc@@ 3
enz 3
athan 3
nein 3
gabe 3
buddhi@@ 3
vil 3
kland 3
gross@@ 3
politi@@ 3
pon 3
manuel 3
diarr@@ 3
wald 3
vehi@@ 3
inferi@@ 3
zir@@ 3
enor@@ 3
himalaya 3
venting 3
tomo@@ 3
pps 3
rigi@@ 3
geries 3
argumentation 3
koll@@ 3
diplom@@ 3
dollar-@@ 3
ferin 3
ims 3
papa 3
seme@@ 3
cials 3
live-@@ 3
amazonas 3
angio@@ 3
internet-@@ 3
relev@@ 3
ungs 3
ober@@ 3
them@@ 3
gelo@@ 3
eben 3
opini@@ 3
auff@@ 3
genie 3
ske@@ 3
entr@@ 3
schle@@ 3
tun 3
signifi@@ 3
kell@@ 3
tissu@@ 3
john@@ 3
mmi@@ 3
tsun@@ 3
conspi@@ 3
mble@@ 3
jo-@@ 3
brun@@ 3
whir@@ 3
tung@@ 3
ktor 3
wis 3
programme 3
prag@@ 3
toy@@ 3
tau@@ 3
ems 3
kak@@ 3
apri@@ 3
hef@@ 3
inve@@ 3
unger 3
kop@@ 3
stren@@ 3
citi@@ 3
ps-@@ 3
ente 3
iron@@ 3
hart 3
goti@@ 3
dez@@ 3
rosa 3
alu@@ 3
dipl@@ 3
iken 3
agno@@ 3
sach@@ 3
halten@@ 3
ñ@@ 3
reag@@ 3
bauer 3
diction@@ 3
nest@@ 3
curri@@ 3
methodi@@ 3
etown 3
small@@ 3
schizop@@ 3
fisch@@ 3
ange@@ 3
yester@@ 3
gegen@@ 3
schatz 3
hirsh@@ 3
stil 3
prison@@ 3
acker@@ 3
cently 3
health@@ 3
lep@@ 3
iti 3
google-@@ 3
fig 3
embed@@ 3
u. 3
fu 3
warn@@ 3
richter 3
atz 3
bs@@ 3
pizz@@ 3
chao@@ 3
medes 3
opport@@ 3
uner@@ 3
insel 3
etc. 3
det 3
tik@@ 3
mobi@@ 3
phantas@@ 3
orche@@ 3
ü@@ 3
wehr@@ 3
sprung 3
authentic@@ 3
dialo@@ 3
anta 3
absol@@ 3
brei@@ 3
vocabul@@ 3
zine 3
disci@@ 3
metro@@ 3
nst 3
place@@ 3
bo-@@ 3
operative 3
olog@@ 3
ceptions 3
toi@@ 3
iq@@ 3
zep@@ 3
stimu@@ 3
ethi@@ 3
angiogenic 3
chel 3
gment 3
thyl@@ 3
titan@@ 3
dass 3
scienti@@ 3
strie@@ 3
uts 3
stol@@ 3
dnis@@ 3
hurri@@ 3
orgas@@ 3
book-@@ 3
teu@@ 3
kum@@ 3
dur 3
krist@@ 3
shakespe@@ 3
klas@@ 3
expon@@ 3
kap@@ 3
3d-@@ 3
republi@@ 3
vag@@ 3
karti@@ 3
seine 3
oner 3
son-@@ 3
genial 3
nanot@@ 3
nacht@@ 3
last@@ 3
vibr@@ 3
disappe@@ 3
sexu@@ 3
seroton@@ 3
intelligen@@ 3
passion@@ 3
luck@@ 3
tem 3
mie 3
strangel@@ 3
string@@ 3
det@@ 3
swis@@ 3
nucle@@ 3
mend@@ 3
imag@@ 3
regener@@ 3
tably 3
teller 3
andes 3
pavili@@ 3
testim@@ 3
ien 3
victi@@ 3
bau@@ 3
isra@@ 3
deep@@ 3
synthe@@ 3
metall@@ 3
genug 3
wart 3
benjam@@ 3
mais 3
ernst 3
ond 3
performan@@ 3
lithi@@ 3
heu@@ 3
erden 3
â 3
 3
 3
figuration 3
parame@@ 3
amer@@ 3
alie 2
mie@@ 2
arden 2
compati@@ 2
lauf@@ 2
country@@ 2
nen 2
honest@@ 2
corpo@@ 2
hosp@@ 2
ieties 2
ulti@@ 2
dership 2
vention 2
symph@@ 2
rehabili@@ 2
computer@@ 2
lich 2
leiter 2
arte@@ 2
bizar@@ 2
licht@@ 2
cise 2
essen 2
sanit@@ 2
wale 2
iker 2
pid 2
ton-@@ 2
modus 2
gei@@ 2
alumini@@ 2
isse@@ 2
afro@@ 2
superno@@ 2
vae 2
fon 2
aller 2
near@@ 2
ern 2
besser 2
privile@@ 2
eth 2
jul@@ 2
garb@@ 2
catastrop@@ 2
possi@@ 2
mins 2
inder 2
ziger 2
can-@@ 2
inju@@ 2
austral@@ 2
try@@ 2
flei@@ 2
scher 2
massa@@ 2
parado@@ 2
lige 2
quid 2
aya 2
ā@@ 2
whirl@@ 2
für 2
iges 2
gebra@@ 2
ries@@ 2
tasmani@@ 2
eler@@ 2
rom 2
roh@@ 2
hea 2
vill@@ 2
zog 2
mensch 2
gier 2
butt@@ 2
gif@@ 2
arities 2
einem 2
illas 2
ppe 2
schi@@ 2
seba@@ 2
maus@@ 2
mein@@ 2
herr 2
happen@@ 2
minder@@ 2
boo 2
astero@@ 2
proper@@ 2
mium 2
hne@@ 2
opus 2
philanthrop@@ 2
bani@@ 2
toge@@ 2
glau@@ 2
brett 2
hing@@ 2
atz@@ 2
eisen 2
rauf 2
sear@@ 2
gen. 2
sep@@ 2
nem 2
ige 2
nen@@ 2
mails 2
zt 2
alles 2
tsch@@ 2
muse@@ 2
.... 2
perman@@ 2
landscap@@ 2
mbers 2
cheryl 2
fert 2
half@@ 2
ble-@@ 2
wus@@ 2
lette 2
eben@@ 2
lei 2
arthri@@ 2
rang@@ 2
waff@@ 2
infin@@ 2
entle@@ 2
198@@ 2
alters 2
halle 2
nette 2
qual@@ 2
lunge 2
schn@@ 2
smit@@ 2
kuba 2
approach@@ 2
quat@@ 2
egal 2
kels 2
stel 2
spiel 2
alen 2
sz@@ 2
hinter@@ 2
esse 2
itre@@ 2
ost@@ 2
kh@@ 2
egypti@@ 2
koff@@ 2
² 2
lang@@ 2
micha@@ 2
teres 2
rami@@ 2
mitt@@ 2
astrop@@ 2
aspe@@ 2
kleb@@ 2
verlei@@ 2
tuber@@ 2
alt 2
hle 2
aum 2
nah@@ 2
cht@@ 2
garten 2
anal@@ 2
habili@@ 2
tifi@@ 2
schwei@@ 2
holt 2
naj@@ 2
abled 2
dik@@ 2
partic@@ 2
ym@@ 2
tana 2
lern@@ 2
dramati@@ 2
sse 2
singapo@@ 2
redwood-@@ 2
kg 2
phoeni@@ 2
lange 2
karo@@ 2
elementar@@ 2
atra@@ 2
zwei@@ 2
chter 2
anthrop@@ 2
à 2
asters 2
ods 2
excit@@ 2
hip@@ 2
blatt 2
wilde 2
apor@@ 2
noby@@ 2
hin 2
inform@@ 2
west-@@ 2
endanger@@ 2
ement@@ 2
complex@@ 2
ob 2
lemm@@ 2
charlot@@ 2
kus 2
wal-@@ 2
isse 2
iger 2
nun@@ 2
prostitu@@ 2
russ@@ 2
resili@@ 2
brookl@@ 2
miss@@ 2
biotechnolo@@ 2
matte 2
therine 2
koch 2
calci@@ 2
novel@@ 2
onie 2
mmert 2
drin 2
aqua@@ 2
í 2
furni@@ 2
tha@@ 2
hio 2
kapa@@ 2
gression 2
spie@@ 2
millen@@ 2
dich@@ 2
luf@@ 2
… 2
wood-@@ 2
--- 2
abad 2
protokol@@ 2
fft 2
* 2
liger 2
bergs 2
enga@@ 2
rial 2
volt 2
schu@@ 2
gung 2
cines 2
twent@@ 2
destru@@ 2
toile@@ 2
keller 2
zin 2
quisition 2
wana 2
atus 2
pox 2
telescop@@ 2
susta@@ 2
hier 2
ร 2
่ 2
kamer@@ 2
beauti@@ 2
grie@@ 2
basket@@ 2
manufac@@ 2
abund@@ 2
further@@ 2
ultraso@@ 2
absolu@@ 2
sport@@ 2
schin@@ 2
dler 2
hri@@ 2
relation@@ 2
erob@@ 2
versi@@ 2
eni@@ 2
kilome@@ 2
angi@@ 2
matthe@@ 2
bender 2
amateur@@ 2
tempo@@ 2
fore 2
circuit@@ 2
bn@@ 2
rasi@@ 2
heter@@ 2
stian 2
plasti@@ 2
corpor@@ 2
dorf 2
transdu@@ 2
adel@@ 2
ceu@@ 2
prim@@ 2
recyc@@ 2
delph@@ 2
guay 2
peop@@ 2
schwa@@ 2
tack@@ 2
esthesia 2
ito@@ 2
funk 2
standar@@ 2
ind@@ 2
uss@@ 2
alo 2
ira@@ 2
oa@@ 2
eck@@ 2
rifi@@ 2
ften 2
laut 2
prü@@ 2
marshmal@@ 2
beet@@ 2
steins 2
golf@@ 2
infecti@@ 2
ean 2
ondri@@ 2
klo@@ 2
kupp@@ 2
spru@@ 2
penic@@ 2
rote 2
zet@@ 2
eigen@@ 2
sandwi@@ 2
thieu 2
teig 2
hiro@@ 2
zei@@ 2
bele@@ 2
atlan@@ 2
testoster@@ 2
desk@@ 2
sud@@ 2
alga@@ 2
incredi@@ 2
ellen@@ 2
schmuck 2
aur@@ 2
phosphor 2
stig@@ 2
spiegel 2
symptom@@ 2
verk@@ 2
ambia 2
wird 2
bett@@ 2
wie 2
amin@@ 2
pian@@ 2
ssen 1
schachtel 1
frontal@@ 1
zel@@ 1
compon@@ 1
felder 1
childr@@ 1
kapital 1
lö@@ 1
onk@@ 1
nolo@@ 1
effi@@ 1
trum 1
palest@@ 1
ein-@@ 1
are-@@ 1
ingen 1
bier 1
dosis 1
ppel 1
druck 1
participa@@ 1
regen@@ 1
milch 1
morgen 1
regnet 1
gere@@ 1
klon@@ 1
heavi@@ 1
recom@@ 1
dolph@@ 1
entre@@ 1
emis@@ 1
zip@@ 1
cil 1
repar@@ 1
tami@@ 1
eini@@ 1
gigan@@ 1
stard 1
eles 1
lichen 1
stille 1
welle 1
tur 1
latz 1
zell@@ 1
kern 1
xide 1
doppel@@ 1
dank 1
prostat@@ 1
genöss@@ 1
ische 1
geist@@ 1
eigentum 1
bern 1
bla 1
origam@@ 1
lk@@ 1
sump@@ 1
z-@@ 1
piri@@ 1
seil 1
japan@@ 1
bile 1
lebe@@ 1
chimpanze@@ 1
devel@@ 1
unities 1
送@@ 1
你@@ 1
葱 1
toten 1
elen 1
gem@@ 1
base@@ 1
jaze@@ 1
etab@@ 1
diesel@@ 1
ddin 1
schil@@ 1
stati@@ 1
mmer@@ 1
lime@@ 1
vor-@@ 1
ubiquit@@ 1
maden 1
sahar@@ 1
ousa 1
atedly 1
phen 1
glaci@@ 1
stag 1
inta@@ 1
gym@@ 1
aka@@ 1
regen 1
splan@@ 1
â@@ 1
lymph@@ 1
kais@@ 1
stie@@ 1
desto 1
mut 1
veillan@@ 1
eng 1
schach@@ 1
kolle@@ 1
national@@ 1
laborat@@ 1
implemen@@ 1
kö@@ 1
alab@@ 1
metab@@ 1
taschen 1
bei 1
guten 1
abend 1
sohn 1
bein 1
biolumines@@ 1
frei 1
mann@@ 1
rech@@ 1
iland 1
besie@@ 1
design-@@ 1
met@@ 1
gedanken 1
£ 1
macin@@ 1
filter@@ 1
exist@@ 1
ie-@@ 1
symb@@ 1
\ 1
sequen@@ 1
tonne 1
rhe@@ 1
facebook-@@ 1
vagin@@ 1
deter 1
unprece@@ 1
blings 1
asse@@ 1
harr@@ 1
mein 1
kampf 1
kran@@ 1
sein@@ 1
netfli@@ 1
elles 1
rett@@ 1
guine@@ 1
wurzel 1
chert 1
festi@@ 1
isten 1
ei 1
imi@@ 1
rede 1
spaghet@@ 1
infor@@ 1
deck@@ 1
lawr@@ 1
ec 1
wege 1
swit@@ 1
cm 1
carcin@@ 1
zur 1
sance 1
bergen 1
bip 1
orous 1
von@@ 1
flori@@ 1
witz@@ 1
wand@@ 1
weg@@ 1
riere 1
xima@@ 1
tot 1
viel@@ 1
arith@@ 1
ez@@ 1
gott 1
profit@@ 1
strich 1
nung 1
brief@@ 1
€ 1
mende 1
studi@@ 1
schaf@@ 1
teria 1
region@@ 1
online-@@ 1
bein@@ 1
viet@@ 1
dea@@ 1
link@@ 1
café 1
sapi@@ 1
chic@@ 1
ktu@@ 1
ï@@ 1
reich@@ 1
surge@@ 1
dented 1
auti@@ 1
softwar@@ 1
detro@@ 1
herit@@ 1
tze 1
pst 1
rent@@ 1
hetti 1
mathe@@ 1
immer 1
ier@@ 1
korn 1
feuer@@ 1
peng 1
bilder@@ 1
arz@@ 1
chti@@ 1
ushahi@@ 1
potat@@ 1
holz@@ 1
mclu@@ 1
ideal@@ 1
picas@@ 1
symbo@@ 1
com. 1
schwin@@ 1
excell@@ 1
else@@ 1
assic 1
mosqui@@ 1
wo 1
remember@@ 1
alph@@ 1
sst 1
profess@@ 1
candi@@ 1
hinder@@ 1
jazz@@ 1
brasili@@ 1
schwe@@ 1
hten 1
sei 1
partici@@ 1
maus 1
stewar@@ 1
ul 1
uno 1
passa@@ 1
gefil@@ 1
leber@@ 1
echt 1
christen 1
espe@@ 1
kenn@@ 1
ue@@ 1
respir@@ 1
saat@@ 1
unter@@ 1
risi@@ 1
cen 1
robot@@ 1
mals 1
rants 1
fester 1
ย@@ 1
ย 1
è 1
deutsche 1
metaph@@ 1
_ 1
chinas 1
phab@@ 1
sender 1
alexand@@ 1
quiet@@ 1
eier 1
feri@@ 1
ler-@@ 1
fang@@ 1
zop@@ 1
raus@@ 1
ingenu@@ 1
schl@@ 1
konz@@ 1
ence-@@ 1
regal 1
thly 1
ppi 1
atmospher@@ 1
manhat@@ 1
schau@@ 1
erde 1
londoner 1
chen-@@ 1
kali@@ 1
acqui@@ 1
engl@@ 1
geck@@ 1
ø@@ 1
ike@@ 1
ib@@ 1
design@@ 1
demie 1
nanotechnolo@@ 1
denly 1
anxi@@ 1
haut 1
gert 1
forgi@@ 1
od 1
skit@@ 1
innova@@ 1
pag@@ 1
idee 1
ft-@@ 1
tions-@@ 1
exponenti@@ 1
kauf@@ 1
inji@@ 1
reach@@ 1
oreg@@ 1
ambigu@@ 1
jungfrau 1
schen@@ 1
premier@@ 1
sier@@ 1
otro@@ 1
kaner 1
ffee 1
hren@@ 1
malt 1
habe 1
sens 1
mend 1
haft 1
mythos 1
gab 1
dopam@@ 1
freude 1
ord@@ 1
debat@@ 1
ner-@@ 1
trom@@ 1
stently 1
spur 1
sek 1
moral@@ 1
dach@@ 1
jeffer@@ 1
stahl 1
every@@ 1
ă@@ 1
ť 1
wilder@@ 1
nov@@ 1
veland 1
gust 1
eln 1
zwe@@ 1
legal@@ 1
charac@@ 1
uru@@ 1
comic@@ 1
nee 1
meer 1
thema 1
offic@@ 1
baby-@@ 1
seaf@@ 1
pä@@ 1
ä@@ 1
ror 1
shif@@ 1
rönt@@ 1
bere@@ 1
syndro@@ 1
george@@ 1
geld@@ 1
ö@@ 1
brem@@ 1
apar@@ 1
quant@@ 1
ision 1
aids-@@ 1
dau@@ 1
tzen 1
legen 1
heim@@ 1
chromosom@@ 1
nitro@@ 1
lung@@ 1
ë@@ 1
ć 1
system@@ 1
schwi@@ 1
blumen@@ 1
throughs 1
io@@ 1
youn@@ 1
abli@@ 1
ô@@ 1
awes@@ 1
verdi@@ 1
obvi@@ 1
bras@@ 1
kongo 1
gener 1
lok@@ 1
accom@@ 1
vas 1
dall@@ 1
neur 1
inne 1
baum 1
egyp@@ 1
previ@@ 1
vier@@ 1
ambu@@ 1
london@@ 1
ganz 1
merk@@ 1
shang@@ 1
verr@@ 1
kodi@@ 1
poor@@ 1
ttes 1
syl@@ 1
stern@@ 1
herein 1
vention@@ 1
kei@@ 1
magin@@ 1
wech@@ 1
straight@@ 1
jung@@ 1
christop@@ 1
nago@@ 1
seus 1
liches 1
ency@@ 1
therlands 1
boll@@ 1
kyo@@ 1
enten@@ 1
ē 1
bela@@ 1
interest@@ 1
schlei@@ 1
wetter 1
zun@@ 1
macinto@@ 1
absen@@ 1
onen 1
beam@@ 1
reason@@ 1
eigen 1
sä@@ 1
ú@@ 1
ba-@@ 1
gö@@ 1
hlen@@ 1
fahr@@ 1
sweise 1
recht@@ 1
geschützt 1
welche 1
kunst 1
durch 1
spezifisch 1
auf@@ 1
gerä@@ 1
regel@@ 1
mä@@ 1
keiten 1
allgemeinen 1
mensch@@ 1
neue 1
wirkungen 1
erzielen 1
möglich 1
one-on-@@ 1
information@@ 1
program@@ 1
fte 1
arist@@ 1
freie 1
universi@@ 1
tat 1
mptions 1
bord 1
diagra@@ 1
dicated 1
winn@@ 1
ablen@@ 1
klavier 1
fs@@ 1
biolog@@ 1
gps-@@ 1
extro@@ 1
krieg 1
ipo@@ 1
sylv@@ 1
internationale 1
sylvania 1
kam 1
ghters 1
hie@@ 1
supr@@ 1
schnell 1
spontan@@ 1
stors 1
hypothe@@ 1
richar@@ 1
kino 1
zelle 1
biomimi@@ 1
able@@ 1
immobili@@ 1
alt@@ 1
inne@@ 1
software-@@ 1
stipen@@ 1
pare 1
gou@@ 1
tradition@@ 1
herz 1
frequ@@ 1
outrage@@ 1
gott@@ 1
schlau@@ 1
anschluss 1
sibi@@ 1
usd 1
ertes 1
tei@@ 1
llen 1
über@@ 1
terranean 1
haber 1
biol@@ 1
sput@@ 1
issi@@ 1
rief 1
aku@@ 1
chten@@ 1
embas@@ 1
opp@@ 1
ding@@ 1
boundar@@ 1
